с т 173158785
е н 141438970
р а 117313099
р о 109454689
н о 98278048
к о 93486312
р е 91605509
п о 85631735
н и 77901740
т о 70751061
н а 68406215
л ь 62143245
в о 60596372
н ы 57722373
ен и 57166225
в а 56714125
т е 56671186
р и 56391654
t ;</w> 55380839
q u 51624150
qu o 51425227
& quo 51419954
&quo t;</w> 51419954
г о</w> 47383916
д е 46490947
з а 46347195
с о 45895570
ц и 44729409
л и 44390345
к а 44026357
н а</w> 42688996
г о 41556633
л е 41519979
в е 40924864
д о 40887413
п ро 40348723
л а 39388054
в и 38200686
т а 37993952
т и 37733155
л о 36825435
н е 36750486
д а 36072425
о б 35245188
м о 34063058
ч е 33890648
т ь</w> 33655529
м е 32729880
с я</w> 31466670
д и 30770539
р у 30682704
л и</w> 30397261
т о</w> 29628770
ст в 28883584
с и 28360964
б о 27425977
ст а 27146490
п е 26651653
м а 26627286
н о</w> 26301010
в ы 25902382
с е 25385156
п ре 24919305
к и 24813221
н е</w> 23905482
м и 23680493
с ко 23350970
- @</w> 23235906
@ -@</w> 23235906
п ри 22901209
ны х</w> 22011756
ч а 21751748
о т 20542542
ени я</w> 20536721
м и</w> 20363204
е т</w> 19270546
п а 18759169
ч и 18310887
но й</w> 17331615
т ся</w> 17322782
с у 17069845
п о</w> 17037939
д а</w> 16989282
ч то</w> 16922835
ст о 16827922
но ст 16585983
щ и 16522283
г а 16412720
к и</w> 16410195
х о 16346825
те ль 16099317
но го</w> 16035182
м ен 15788189
ци и</w> 15462912
с а 15324126
ра з 15208546
л а</w> 15073710
т а</w> 14969098
в л 14950390
с ки 14936620
д у 14596095
л я</w> 14487231
и н 14277640
п ра 14260506
ени е</w> 14111836
к а</w> 13931333
б ы 13879594
р ы 13849755
л у 13190212
о с 13089136
ны е</w> 12905155
г и 12877265
о р 12840985
щ е 12669463
ж и 12388614
ж е</w> 12106831
ко то 11738472
с ь</w> 11289747
е р 11226545
2 0 10998173
ш и 10963983
н у 10948386
ны й</w> 10856119
к у 10853087
п и 10686095
з о 10624269
м у</w> 10590695
л ю 10483181
ва ни 10260745
пре д 10086135
б у 9968704
ве р 9961545
г ра 9761039
л о</w> 9751727
о н 9732233
ст ра 9729929
по д 9471595
ко н 9470440
б е 9392948
р а</w> 9353731
с по 9236098
ж а 8972845
и з 8917124
п у 8915769
то м</w> 8846432
ст и 8839254
н ы</w> 8793955
т у 8785678
е м</w> 8754667
д ля</w> 8735155
ност и</w> 8717857
е тся</w> 8668847
з а</w> 8661608
в а</w> 8636937
к о</w> 8541359
т ы</w> 8488948
т ь 8362575
е й</w> 8303736
ра с 8241094
б а 8171371
з и 8116400
ц е 7948031
и з</w> 7891039
ст и</w> 7806056
ф и 7789241
ны м</w> 7762741
ств а</w> 7755773
т е</w> 7697801
н я 7652305
кото ры 7456951
ю т</w> 7455840
л я 7274392
л е</w> 7218499
ско й</w> 7204116
д ен 7159563
ств ен 7146712
б и 7139039
с во 7132681
с ка 7127443
пе ре 7069028
до л 7042686
д у</w> 7010472
с пе 6996095
ю щи 6986529
ра бо 6973886
мо ж 6954543
с ле 6725658
е го</w> 6686293
во з 6545402
с си 6479443
м ы</w> 6433277
ско го</w> 6412187
то в</w> 6388591
б ы</w> 6384823
ени и</w> 6358825
к е</w> 6352620
л ь</w> 6293287
а ль 6269985
го да</w> 6228709
з на 6156401
20 1 6144316
г ла 6124445
о т</w> 6104197
но е</w> 6095695
ре д 5930153
де р 5881895
вл я 5864665
ва ть</w> 5857742
т ы 5845758
ст ви 5816648
ко в</w> 5785379
но м</w> 5781577
ж е 5768701
с лу 5767193
ка к</w> 5710391
а к 5693835
м ы 5676724
на я</w> 5597900
ть ся</w> 5589563
Н а 5580971
щ а 5575716
ра н 5562538
ств о</w> 5561526
к у</w> 5556879
л ен 5531569
э то 5462371
к ра 5458002
Р ос 5446545
ко м 5384405
е к 5383491
те р 5377287
т и</w> 5370881
ф ор 5339637
д е</w> 5307885
ро в</w> 5293101
с е</w> 5289016
ски х</w> 5280512
ти в 5257978
пе р 5255411
К а 5253042
м а</w> 5142829
П о 5125486
ст у 5084916
т р 5075824
о на 5053683
ш е 5036039
да р 5005949
в ре 5003836
ц ен 5001090
Рос си 4970358
га ни 4948871
м у 4925488
в се 4916246
ни я</w> 4872073
р я 4851531
г у 4848264
де т</w> 4820091
т ре 4813187
К о 4790008
р ы</w> 4786408
ени ю</w> 4765537
п ла 4738331
го во 4733109
д о</w> 4729344
ле й</w> 4632215
ст ь</w> 4627298
с ло 4617808
та к 4604835
хо ди 4600456
ж ен 4576887
о н</w> 4571852
ч ен 4569683
в я 4547024
сто я 4501439
ве т 4484925
вани я</w> 4483328
ро д 4482108
ност ь</w> 4463838
д ни 4458385
ка за 4457554
но в 4451793
по л 4432190
з ы 4403339
и х</w> 4378607
а р 4356813
и с 4355414
д ы</w> 4351466
ци я</w> 4307660
ци й</w> 4270541
ни и</w> 4256064
э то</w> 4211856
С о 4208713
ро ва 4164346
и ли</w> 4160316
со об 4132875
е ди 4129536
гани за 4111930
ни ма 4104886
ча ст 4092803
в то 4086179
так же</w> 4074573
ски й</w> 4056093
20 0 4034554
ени й</w> 4020021
ш а 3997613
р е</w> 3990293
ну ю</w> 3971285
с а</w> 3950212
ста ви 3945625
к ре 3937885
т ра 3933472
р и</w> 3910255
т у</w> 3888826
ро в 3881901
л ся</w> 3866308
д ру 3859748
ль ко</w> 3829913
к лю 3795891
ме ст 3792634
да н 3787759
р я</w> 3730023
с я 3724110
ни е</w> 3697963
б ли 3681762
ру п 3676934
ме ж 3669316
н и</w> 3660159
су дар 3643265
пра ви 3633988
т ру 3623205
де й 3617440
бо ль 3613457
ст ро 3607131
ж д 3606199
ны ми</w> 3600323
н ен 3583456
по ли 3572068
во й</w> 3571466
ци аль 3561350
х а 3555309
к ла 3526742
в о</w> 3523546
ли сь</w> 3518330
о д 3496092
ле к 3491904
которы е</w> 3482770
с мо 3482104
1 9 3478191
ст е 3470739
со б 3469658
ю тся</w> 3458647
ко но 3456509
па р 3437068
в се</w> 3428513
бо ле 3426042
ств у 3423289
она ль 3423037
во про 3407113
по лу 3388956
бу дет</w> 3387933
с ред 3384363
об ла 3375166
я х</w> 3364036
а н 3350926
г да</w> 3333045
го судар 3316873
ь ю</w> 3296523
н я</w> 3273996
ло ве 3270216
м е</w> 3266280
ти че 3263379
0 0</w> 3258978
з у 3257721
с вя 3245268
ко й</w> 3226469
ве д 3179115
че лове 3165855
от вет 3156779
ти я</w> 3148873
м я</w> 3148478
в у 3106192
ски е</w> 3091108
Росси и</w> 3089735
об е 3045380
т ро 3040803
с ле</w> 3028179
вл ен 3011678
т я 2996197
ч то 2990780
ст во 2989335
щ е</w> 2977180
в ши 2969479
ци ю</w> 2966295
н к 2957056
ло сь</w> 2955570
дол ж 2954584
во ди 2954430
е с 2941341
ло ж 2922465
раз ви 2917527
то го</w> 2911139
ри и</w> 2886546
л ения</w> 2883634
на род 2873818
го ду</w> 2873538
т ри 2866209
су ще 2863909
за я 2853488
ш е</w> 2824715
фор ма 2821597
П о</w> 2816829
от но 2815623
вы х</w> 2813362
об ъ 2791875
ми ни 2791069
е е</w> 2770091
кото ро 2769085
и спо 2761371
па с 2732555
боле е</w> 2721085
до в</w> 2719475
О б 2715253
бы ло</w> 2706159
те ль</w> 2688115
в ы</w> 2680952
ф е 2669289
что бы</w> 2667366
э том</w> 2659960
к ры 2641271
во д 2640707
ре ш 2635728
ре ги 2630618
ю ще 2628479
на ча 2625227
ци он 2618070
вре мя</w> 2607821
ж да 2606806
ен е 2600105
ду народ 2597494
со в</w> 2587066
i n 2572096
ст в</w> 2563399
гра м 2563054
те лей</w> 2561376
ль та 2536485
но в</w> 2529475
дей стви 2525267
э к 2522379
ст ре 2522207
б ле 2520850
з да 2516025
бы л</w> 2515918
при ня 2493403
ени ем</w> 2489680
де ла 2459186
ра ль 2457278
зы ва 2448797
вани е</w> 2446028
не е</w> 2440289
о на</w> 2434847
у же</w> 2433346
ганиза ции</w> 2433182
ска за 2429018
мож ет</w> 2416113
к то 2414380
я ми</w> 2413131
ме р 2407893
п ри</w> 2398578
ска я</w> 2393772
я вля 2393459
воз мож 2389152
Р а 2373634
дер жа 2372116
Т а 2368702
про ек 2358592
т вер 2352292
м л 2336144
З а 2322428
обла сти</w> 2316727
б ря</w> 2313190
ла сь</w> 2311163
со ответ 2310597
вл ения</w> 2303109
М а 2299972
го то 2299494
об раз 2297107
ро сси 2292520
ста но 2283083
вы е</w> 2279483
ва м</w> 2275136
по мо 2272340
ин форма 2269487
бы ли</w> 2267336
та к</w> 2262669
ч ения</w> 2257763
спо р 2257431
от ме 2250806
г и</w> 2249812
об ще 2248000
г а</w> 2246634
с о</w> 2241506
о ру 2238759
ни к</w> 2235945
ма н 2235094
р ь 2228304
ми те 2224225
тру дни 2224039
сто ро 2217838
еди нен 2217103
то лько</w> 2209260
ду т</w> 2206622
ств е</w> 2205833
ни й</w> 2201613
со трудни 2200468
в е</w> 2196662
зи ден 2192788
ка н 2191665
коно ми 2187884
я м</w> 2184472
тель но</w> 2184324
О р 2182571
сту п 2179648
а вто 2174039
пу бли 2169553
Н а</w> 2163596
ком па 2160169
з е 2159259
г руп 2158800
дру ги 2150791
те м</w> 2146260
отно ш 2134050
про грам 2129147
пред стави 2127269
g t;</w> 2126141
& gt;</w> 2126141
ц а</w> 2125797
в ро 2119225
ка х</w> 2116933
ль зо 2104687
обе спе 2104344
чи та 2102345
ско м</w> 2099224
п ы 2097514
ко м</w> 2095674
e r 2089993
a n 2087679
и ме 2086219
ч ение</w> 2083628
по сле 2075646
во го</w> 2073672
в ра 2069127
М и 2068900
ле т</w> 2049527
ру б 2048606
С е 2046204
се да 2045776
фи на 2036099
он и</w> 2032929
го ло 2032841
по сле</w> 2026261
то ч 2025253
ющи х</w> 2023555
1 0</w> 2023322
ло ги 2022256
те ли</w> 2020369
но му</w> 2018574
че м</w> 2012450
ци а 2004785
прави тель 2004701
е з 1993320
о к 1992049
ци ональ 1990850
ста вля 1990623
е ще</w> 1989962
ни ков</w> 1974670
К он 1969084
гово ри 1965520
хо д 1958588
рабо та 1951149
э кономи 1943363
го д 1942599
e n 1937028
которы й</w> 1936008
с т</w> 1930466
не об 1929571
с ы</w> 1928254
В о 1926799
меж дународ 1922203
росси й 1913368
н д 1906174
ни х</w> 1905607
ли ч 1904043
са мо 1903838
Об ъ 1903716
у част 1903425
ки х</w> 1901959
т ен 1901936
t h 1880593
ро м</w> 1879682
вре мен 1875920
со зда 1873293
у р 1870415
си сте 1869195
не т</w> 1867798
не й</w> 1867237
ш ен 1864890
М е 1862079
н у</w> 1855821
ц ы</w> 1854595
19 9 1851964
ст а</w> 1848502
в ла 1844472
П ро 1841694
ф ер 1838151
зу льта 1837500
м о</w> 1837046
единен ных</w> 1834965
l t;</w> 1834744
& lt;</w> 1834744
С Ш 1825567
образ о 1825409
г е 1820346
СШ А</w> 1819940
со гла 1816700
го ро 1814972
те х 1814920
л ы 1797497
ч и</w> 1797401
у ча 1794260
сле до 1784774
ви л</w> 1783995
у ч 1783600
ле т 1779293
де я 1778358
Н о 1776772
слу ча 1774803
г ро 1773340
необ ходи 1769142
с ен 1768240
с ы 1766143
это го</w> 1764026
вы й</w> 1761130
суще ств 1759119
С а 1755473
ре зульта 1754948
ко гда</w> 1754862
ос нов 1753624
сси и</w> 1751743
е мы 1750305
ла га 1749894
п ло 1749751
м но 1749321
ва н 1746811
помо щ 1732396
те ля</w> 1729375
ц а 1727179
а д 1717724
o r 1715507
не го</w> 1714505
ц е</w> 1712143
пре де 1710227
Н о</w> 1708151
про ти 1703341
то р 1703061
в з 1701955
ве ст 1701716
пре зиден 1701386
пе ра 1698467
a r 1698158
ин те 1691026
при я 1686423
г ен 1685056
ме р</w> 1684787
Объ единенных</w> 1683458
На ций</w> 1681072
в ен 1680950
о б</w> 1680718
у ров 1678887
о ста 1676772
п я 1675718
про це 1673904
про из 1673604
о существ 1670115
смо тр 1669457
бы ть</w> 1668125
за щи 1666714
ба н 1665677
Ка к</w> 1657799
ко р 1649818
ни че 1649644
зо пас 1648990
М ос 1642316
х и 1637358
фина н 1636630
с ни 1632161
Ор ганизации</w> 1630845
ра й 1630540
свя з 1629048
сле ду 1627970
2 0</w> 1625110
Н е 1616604
пра во 1614201
об ра 1610612
К и 1605912
пи са 1605341
ва ет</w> 1602260
П е 1601805
Б о 1601505
с чита 1600733
вл ение</w> 1590954
ни ка 1589735
те ле 1589484
Б е 1584325
ес ли</w> 1583917
по д</w> 1582455
у пра 1575767
на ли 1571580
ски м</w> 1567522
полу чи 1566196
п ы</w> 1563973
дея тель 1561913
ма р 1560361
ни ки</w> 1554551
м пи 1553886
ва л</w> 1552006
И н 1550391
до м</w> 1545590
э ти 1544008
t i 1543772
та м</w> 1541861
с с</w> 1541686
про бле 1541449
л ы</w> 1539497
е в</w> 1537871
ст ру 1535672
Мос к 1533699
под дер 1533326
бу дут</w> 1532291
пу нк 1523400
. . 1519181
ста в 1510361
ене раль 1507098
гу т</w> 1506349
ди н</w> 1506004
У кра 1502309
е сть</w> 1500622
это й</w> 1500131
все х</w> 1498890
в клю 1496427
с ла 1495523
ку мен 1494816
и сто 1494577
ж ения</w> 1493724
М о 1493108
б е</w> 1490793
ки е</w> 1487062
на ру 1482764
мож но</w> 1477472
В а 1476673
Д о 1469004
ру ко 1468079
ф у 1467902
л ение</w> 1464443
t e 1463003
Э то</w> 1461376
т ран 1459981
к ри 1456797
д ви 1456424
рова н 1450986
те ри 1450914
сооб ща 1445707
ча с</w> 1445166
о х 1443625
до кла 1442598
1 2</w> 1440919
жен щи 1440549
ку ю</w> 1439853
до б 1434279
са м</w> 1433790
& # 1433124
Д е 1432818
ва я</w> 1432469
р ен 1428123
&# 9 1426776
с ки</w> 1426626
до ро 1422625
челове ка</w> 1421706
которы х</w> 1420656
ющи е</w> 1420442
испо льзо 1420200
А лек 1419443
л у</w> 1415828
чен ь</w> 1412168
сооб щи 1408899
ва ли</w> 1408049
o n 1407262
бы ла</w> 1406877
рабо т 1405814
1 5</w> 1403565
на ко</w> 1402782
щ ен 1402365
во с 1402317
по р 1400158
до кумен 1399356
и ю 1398465
явля ется</w> 1395062
це в</w> 1394575
мо й</w> 1392638
ло м</w> 1390415
по з 1389805
o n</w> 1384262
Е вро 1382211
об и 1380846
ра м 1379545
я за 1376842
ко го</w> 1373077
ш ения</w> 1372027
лю д 1370893
слу ж 1370278
разви тия</w> 1363213
к е 1358721
3 0</w> 1355484
про ве 1355092
Р е 1352608
р у</w> 1351217
зопас ности</w> 1349734
ор ганиза 1349400
ро вать</w> 1349027
к ва 1342720
ство м</w> 1342175
сто и 1341977
чи с 1341934
сказа л</w> 1341788
o s 1341348
я н 1336910
на циональ 1336330
связ и</w> 1334068
боль ш 1330449
ка че 1328845
пре до 1328721
р о</w> 1327727
челове к</w> 1326944
П а 1326623
м ь 1325866
у да 1322702
л ли 1322486
на м</w> 1322013
ци ей</w> 1321457
гра ни 1320830
мини ст 1318550
я т</w> 1315114
ф ак 1314582
Г енераль 1314565
С и 1313416
д ву 1311033
ко ман 1310980
п ен 1310895
и м</w> 1310705
при нима 1310576
r e 1310397
б а</w> 1310005
на ш 1308159
у сло 1307267
при зна 1306809
жи з 1305304
й час</w> 1305198
меж ду</w> 1304545
Н и 1300065
ме ри 1298007
п а</w> 1296943
со стоя 1296904
г е</w> 1292355
ва ж 1290708
стра ны</w> 1290418
н ения</w> 1290042
.. .</w> 1288507
инте ре 1288484
В ла 1286264
о пера 1283368
ра в 1280306
ра я</w> 1273022
бо р 1271299
ор га 1269936
б ра 1268878
об о 1268060
пе ри 1267084
т ных</w> 1266009
ч лен 1262190
ту а 1261681
Со ве 1261379
со ве 1258931
уча сти 1258108
о преде 1257499
1 1</w> 1256865
г де</w> 1256540
ль но</w> 1256302
с ро 1256249
х ся</w> 1256079
щ ения</w> 1252472
че р 1252318
ско лько</w> 1249046
ста н 1248296
лу ч 1247450
си ли 1247313
П у 1243642
ва ри 1243498
об яза 1243369
по тре 1242914
П ри 1242432
ми ра</w> 1241536
М ы</w> 1239660
в не 1239141
отме ти 1238832
на стоя 1237577
за ме 1236969
б ю 1235509
мо гут</w> 1234870
се кре 1233872
не р 1233711
ни тель 1233078
ви де 1232090
с ли</w> 1231260
на д 1231175
Р Ф</w> 1225962
го д</w> 1225538
о фи 1218532
о каза 1217732
жд ения</w> 1217231
ни ка</w> 1216027
о чень</w> 1213510
про дол 1210831
у ве 1210022
ско е</w> 1209418
Б а 1203349
ч но</w> 1201581
отнош ении</w> 1194734
О н</w> 1193014
стро и 1191457
вы м</w> 1191371
Г а 1190055
это му</w> 1189385
по лож 1186871
под гото 1186696
пере да 1186507
ин ы</w> 1186157
о в</w> 1185977
ри то 1185897
пери о 1176252
ши х</w> 1176145
би ра 1175951
ф ек 1174784
Г о 1170294
м я 1169327
и мен 1168896
у ю</w> 1168715
ль ных</w> 1168477
o u 1168290
ста ть 1168061
ни м</w> 1167484
стру к 1167439
ре а 1167340
ми на 1163393
Т е 1160586
че ских</w> 1160360
не м</w> 1160315
со вер 1159917
Л и 1159055
рабо ты</w> 1158386
с дела 1158159
в стре 1157641
гла в 1154715
П ред 1153620
ност ью</w> 1152569
ти и</w> 1152421
бе з</w> 1151694
на пра 1147336
Ко мите 1145742
по зи 1144714
то й</w> 1143975
с са 1139564
соответ ству 1139441
ло в</w> 1139142
тель ства</w> 1138329
В е 1135471
к то</w> 1131062
ро вания</w> 1130864
ри я</w> 1129855
тер рито 1127153
во ен 1125662
секре та 1125562
поддер ж 1124817
про ш 1124704
в мест 1124522
ло жи 1123536
a l 1122820
5 0</w> 1120201
те й</w> 1117675
ти е</w> 1115395
ки м</w> 1114229
от кры 1113180
год ня</w> 1112158
т но</w> 1111611
мо сти</w> 1111190
С ер 1110745
вы со 1110626
в ле 1105402
Р о 1105357
поли ти 1103417
О д 1101770
да же</w> 1101258
ни ю</w> 1101067
с че 1099514
кото рая</w> 1097360
проти в</w> 1096878
по каза 1095636
усло ви 1094356
ка ми</w> 1092569
пре ду 1091856
зая вил</w> 1091689
Вла ди 1091678
е м 1089632
си туа 1088280
ро ме</w> 1087846
д ы 1087488
ма т 1086350
ш ь</w> 1085818
К у 1084313
ла го 1083778
ре зо 1083102
э ф 1081400
e r</w> 1080562
с ь 1079406
тя бря</w> 1077723
ш его</w> 1075350
че ской</w> 1074575
м ени 1073763
за коно 1073618
О О 1073219
по я 1069070
сло вам</w> 1066868
не й 1066275
ко мите 1066120
до сти 1065090
ра к 1063222
сто в</w> 1062883
компа нии</w> 1061205
спе р 1060710
ф о 1060137
долж ны</w> 1059556
ту р 1059407
ж но</w> 1059142
со циаль 1057135
че ского</w> 1055515
за ции</w> 1055349
у че 1053531
чи ть</w> 1052871
свя за 1052799
стви и</w> 1052024
1 4</w> 1051855
бо й</w> 1051140
ты ся 1050689
все го</w> 1050547
во м</w> 1049609
ш ение</w> 1048070
2 5</w> 1047441
ч а</w> 1046933
деятель ности</w> 1045636
о ко 1045038
м оби 1044502
ка р 1044501
рам ках</w> 1044354
от де 1044052
други х</w> 1042764
щи х</w> 1040894
т ра</w> 1039392
ф а 1037928
сту пи 1037790
и гра 1029461
1 3</w> 1025835
фер ен 1024436
ва ться</w> 1018676
вы бо 1018105
стра н</w> 1017993
ств у</w> 1016939
д же 1015782
ющи й</w> 1015292
ч у 1015185
за клю 1011893
вклю ча 1011512
с кую</w> 1010583
th e</w> 1009286
А р 1008453
ро й</w> 1006267
1 6</w> 1006025
из вест 1005654
ти й</w> 1005426
о дин</w> 1004977
эф фек 1004900
с со 1004757
это т</w> 1004282
вы пол 1004050
пи та 1003170
ка са 1003088
ре кто 999759
от ве 998179
ч ь</w> 997829
голо в 996516
те ля 996421
П ре 994775
с ма 994501
государ ствен 993532
В и 992510
поли тиче 992193
резо лю 989177
бе зопасности</w> 988171
д ва</w> 987288
с у</w> 986533
де й</w> 984737
ко мен 984482
про вед 983273
о че 981520
на ми</w> 979338
мен т</w> 979320
та х</w> 979232
1 8</w> 978113
ла н 976410
б я</w> 976361
мини стра 974034
за кон 973419
кон тро 971927
ку р 971763
ре з</w> 970726
поз во 970142
ль ного</w> 969787
та ми</w> 966782
ту ры</w> 966652
руб лей</w> 965462
н ение</w> 963741
a p 963054
на с</w> 961323
г ре 960296
то му</w> 959768
офи циаль 958727
же н</w> 958644
уч ре 956704
и г 956694
бу р 956506
ж ден 954942
ж ение</w> 953563
сво ей</w> 953479
Ф е 952124
ва ется</w> 952062
к ти 951996
Е сли</w> 949965
ку ль 949785
по бе 949296
ос но 948761
е му</w> 948591
у до 948167
че мпи 945627
объ я 945054
с но</w> 944998
О т 943521
б о</w> 943410
реш ение</w> 940629
h t 938653
б ер 935795
н ению</w> 935715
на х</w> 934797
ка ж 934402
ли к 933240
на се 932972
ль ной</w> 932726
Р у 932275
г у</w> 931844
д стви 931802
ме ся 931308
ш та 931291
хо де</w> 930753
i t 929739
Д а 929704
сти ту 929015
1 7</w> 929012
де ка 926589
боль ше</w> 926314
за ви 925094
ра з</w> 924656
м ного</w> 922654
Алек са 920645
ва ют</w> 918717
пра в</w> 918472
во е</w> 917837
пла ни 914887
ре комен 914585
Ме ж 913971
во й 913476
б лаго 912422
Алекса нд 911953
вопро сам</w> 911550
за седа 910825
юще й</w> 909392
г ру 908745
сотрудни че 907534
ско ль 906973
са мы 906680
ко ми 904992
ф он 904343
мо ло 904064
финан со 903963
у стано 903961
пра в 903038
П ос 902963
зна чи 902945
ка зыва 902689
про стра 901949
чи сле</w> 901851
ш ко 901117
щ ение</w> 901006
А н 900762
сма три 900492
ре гу 900333
Ч е 899837
ве сти 897791
К роме</w> 897289
ма я</w> 896166
ч е</w> 893543
сообща ет</w> 892251
ц у</w> 891797
e s</w> 890674
сво ю</w> 890577
ста влен 885952
о не</w> 885522
с ка</w> 885333
за нима 883880
из мен 883860
эк спер 883718
де ся 883152
реги ональ 881786
Р ес 880769
ти н 880190
не сколько</w> 880156
се бя</w> 879966
Рес публи 878810
пре ступ 878344
по вы 876792
тран спор 875666
ми лли 875656
про ду 875323
Т о 875180
эффек тив 873431
д ра 873212
де ж 872608
с к</w> 872523
не де 871624
се йчас</w> 871543
ма тери 868820
на ходи 867196
су р 866418
тр и</w> 866046
ча ет</w> 865547
мери кан 865223
ко в 863596
и зо 862229
случа е</w> 861685
информа ции</w> 860421
ност ей</w> 859389
че рез</w> 857047
Од нако</w> 855526
ва ми</w> 854701
мл р 854663
ше л</w> 854262
хо ро 854214
по м 853744
тель ство</w> 853404
произ вод 853095
систе мы</w> 852097
ль ный</w> 851752
су т 851415
тр ен 851012
эти х</w> 850689
ст о</w> 850654
ти ть</w> 850618
И з 850334
тор го 850145
в ну 850041
у твер 849967
по ч 849212
при мен 848967
мл н</w> 848471
де тей</w> 848336
ст ы</w> 848139
ди ректо 847622
в но</w> 847504
1 0 847105
действи я</w> 846395
ры н 845759
раз ме 845748
о цен 845436
соответ ствии</w> 844306
р ь</w> 844129
ни з 843694
ру ет</w> 843352
2 2</w> 841831
со ста 839496
мо сть</w> 839258
s t 837161
в нима 836120
продол жа 835333
ад министра 834613
пы та 832313
П ри</w> 832291
2 1</w> 831304
спо соб 831279
э ти</w> 830745
испо л 830583
ход я 829663
спе к 829015
ра х</w> 828938
сту па 825592
ля х</w> 825251
проду к 825220
1 9</w> 825017
ре б 824482
бю дже 824026
се р 823066
201 2</w> 821847
око ло</w> 821815
w w 821520
ка м</w> 820749
женщи н</w> 820743
сторо ны</w> 820053
ре й 819980
ско в 818236
С у 817441
гра жда 817353
ком п 817034
настоя ще 816055
пу та 815214
вани и</w> 815030
и м 814770
in g</w> 813601
ре сур 811986
с .</w> 811299
ре ши 811142
о нов</w> 810611
е ся</w> 809481
в ли 809430
сво бо 808470
образо м</w> 808244
ми р</w> 808175
при мер</w> 807906
ми ро 807701
ш ей</w> 807644
a c 806146
сво их</w> 805664
до ста 805472
пе й 805354
част ности</w> 804879
i s</w> 804588
зави си 803344
государ ства</w> 802408
й те</w> 802269
д ня</w> 801634
ре з 801216
ор ганизации</w> 800701
201 3</w> 799446
мо в</w> 798862
которо й</w> 797982
е в 797789
у слу 797665
с пи 797078
па д 796367
к ру 795895
ря д 795577
помощ и</w> 795490
201 4</w> 794559
вер си 793734
ко л 793101
т р</w> 792744
про цен 792323
и то 791879
к ли 791126
мо н 789708
за ко 789313
про води 786629
подгото в 785118
у ни 784955
пре сс</w> 784889
ль ные</w> 784364
ж дан 783487
руб .</w> 783240
об су 783089
2 4</w> 781291
б ри 780740
сво и</w> 780636
ко е</w> 778466
э лек 778211
б ро 778194
про да 777874
о соб 777066
i c 776799
р ения</w> 776798
при н 775871
стоя н 774686
по ка</w> 774388
емы х</w> 774077
но я 774036
ме ры</w> 773528
к руп 773043
до пол 767589
r o 766421
с са</w> 766345
руко вод 766274
ки й</w> 766142
мно ги 766130
вла сти</w> 765716
каче стве</w> 765286
2 3</w> 764993
э нер 764912
циа ли 764857
ч ной</w> 763161
ди с 763073
201 1</w> 762884
пра ва</w> 762568
оче ред 762291
у сили 762239
П ер 761972
бо рь 760902
результа те</w> 760888
д и</w> 760357
мест о</w> 759501
вопро с</w> 758960
Укра ины</w> 758499
a m 757659
ь я</w> 757454
а в 756905
й ти</w> 756897
к ну 756231
за да 756129
дан ным</w> 755946
м бле 754605
на б 753655
не ф 752651
соб ствен 752117
но р 751688
ме ди 751662
ден ь</w> 750440
лю дей</w> 750195
со держа 749602
вши й</w> 749456
дру го 748874
ди на 748080
мен ь 747257
T h 747190
ско му</w> 747137
3 ;</w> 747026
&#9 3;</w> 747026
му ж 746903
ли че 746053
т ные</w> 745895
п ря 745719
ты с.</w> 745575
реш ения</w> 744500
ра спо 744262
ви ть</w> 744167
вани ю</w> 743720
а мерикан 741888
ству ет</w> 741707
вани й</w> 741653
ра ции</w> 740881
по се 740565
сред ств</w> 739400
сса мбле 739008
потре б 738619
ак тив 738208
говори т</w> 737197
после дни 736776
201 6</w> 735590
по да 735492
r u</w> 735487
з я 734214
Ц ен 733747
С та 733401
все м</w> 733395
груп пы</w> 732531
ени ях</w> 732408
реа ли 731003
про изо 730557
п е</w> 729979
Пу ти 729717
об ви 728868
при чи 728267
Росси я</w> 728124
мно го 727319
ме ро 726732
програм мы</w> 726730
Д ля</w> 726391
ло жен 724790
пере д</w> 724266
ра ми</w> 723542
з ы</w> 722712
Но во 722362
ени ями</w> 722104
ми р 721696
у спе 720387
жиз ни</w> 719270
ле га 719076
слу жи 719014
кре п 718560
ht t 718307
с и</w> 717681
из не 717454
на ро 717365
да ль 715904
ходи т</w> 715277
ин тер 714864
ски ми</w> 714847
ющи хся</w> 713508
че й</w> 712162
о жи 711823
перио д</w> 711720
у голов 711680
тре бо 711618
с па 711307
тех ниче 710739
ми ну 710643
н ь</w> 710212
Л е 710188
к лу 709242
ва ла</w> 709058
се годня</w> 708848
х от 708296
т ной</w> 708200
ян ва 707466
спе циаль 707113
н ных</w> 706988
Г ла 706568
ли чи 706499
те ги 705824
проек т</w> 705659
дека бря</w> 702928
те к 702313
упра вления</w> 701995
то т</w> 701914
до гово 700594
c o 700340
гра ждан 699997
но логи 699788
к ро 698890
на зна 698838
ре жи 698412
e l 697770
4 0</w> 697754
х ра 697324
по до 697147
горо да</w> 696319
htt p</w> 695930
А ссамбле 694480
ис следо 694432
меро прия 693972
й ся</w> 693876
мен та</w> 692863
В ы 692784
ле н</w> 692778
раз де 692205
дву х</w> 691706
та й 691444
па ра 690349
раз и 690349
про си 690026
отмети л</w> 689167
ч ных</w> 689135
ли бо</w> 687553
о п 687318
ща я</w> 687181
ши е</w> 687066
стро й 687002
ли шь</w> 686474
обще ствен 685204
млр д</w> 685144
ква р 684488
201 5</w> 684459
пред лож 684445
тель ных</w> 683856
на з 683213
i n</w> 682567
рас хо 682304
ли ц</w> 681652
авто моби 681221
ци о 680718
201 0</w> 680219
1 ;</w> 679750
&#9 1;</w> 679750
Т А 679292
фу т 679153
ст ри 679034
о грани 678757
ющи м</w> 678681
i l 678495
э та 678470
прин ци 677275
по лага 676872
кре ди 676698
Сове та</w> 676474
Меж дународ 674651
Росси й 674171
у кра 674125
законо да 673448
ста л</w> 673244
ответ ствен 673156
та ких</w> 672114
вши х</w> 671952
пред ставля 671776
ко не 671617
со ю 671235
у чи 671086
под чер 670996
включа я</w> 670365
e s 670261
рас смотр 669628
про ис 668197
с бор 668097
террито рии</w> 667991
П ра 667969
ност ран 666307
e d</w> 666290
е р</w> 666078
су м 665519
у каза 665268
гра фи 665255
сообщи л</w> 664556
т ров</w> 664388
1 , 664248
тыся ч</w> 664120
за пре 663922
к си 663856
пред лага 663376
пло ща 662837
под твер 662728
та р 662114
за вер 662048
юще го</w> 661531
ву ю</w> 661399
руко води 661175
участи е</w> 660864
со кра 660320
да х</w> 659742
це лях</w> 659297
ок ру 659159
В се 658764
ка я</w> 658581
г .</w> 658379
то р</w> 658370
a t 658219
л ю</w> 658037
с ня 657736
б изне 657638
рас простра 657264
об ы 657183
со ставля 656462
президен та</w> 656441
. ru</w> 656388
во р 655197
an d</w> 653779
ри й</w> 652489
го род 651402
смо тре 650814
у би 650211
ж а</w> 650141
хо д</w> 649254
мы ш 649136
тель ной</w> 647943
которо го</w> 647935
ви д 647391
раз лич 647158
ж и</w> 646873
сси я</w> 646740
а пре 646335
М ин 645759
a l</w> 645736
дол жен</w> 645519
2 6</w> 645347
до й</w> 645135
обо ро 644660
хо зя 644558
Б у 644367
пре ж 644070
ч у</w> 643860
тех нологи 642860
Фе де 641669
про вер 641448
с фер 641430
совер шен 641388
л ению</w> 641265
r i 641258
и ностран 641143
ст ер 640299
де сь</w> 639726
про сто</w> 639695
щи й</w> 639320
стра теги 637758
щи е</w> 637124
больш о 635926
стра да 635198
матери а 634982
су д</w> 634147
уров не</w> 633998
2 7</w> 633265
т ки</w> 632929
З а</w> 632849
200 9</w> 632276
которо е</w> 631854
т ного</w> 631090
ен но</w> 630913
че ские</w> 630909
Д и 630757
t o</w> 630416
ис клю 630239
на д</w> 629956
спе циали 629473
с ке</w> 629285
ве до 629222
ж ур 628920
ох ра 628905
пер ь</w> 628795
пу сти 628521
те х</w> 628510
че ты 628144
2 8</w> 627729
a n</w> 627697
элек тро 627531
Пос ле</w> 627122
е мо 626968
вани ем</w> 625933
се ссии</w> 625873
мен я</w> 625366
пар та 624013
ор гани 623445
ко личе 623196
де пута 622077
су льта 622053
други е</w> 620926
же ла 620637
ле жа 620511
обеспе чения</w> 620303
бу ду 620113
зе м 619828
зи и</w> 619142
фор ми 618788
ля р 618401
a g 618367
вл ении</w> 618283
О б</w> 616677
до ба 616667
резолю ции</w> 616431
во ль 615499
го ды</w> 615160
та н 614607
государ ств</w> 614548
Л а 613931
ру с 613063
возмож ность</w> 613052
за держа 612374
ap os 612179
& apos 611813
&apos ;</w> 611813
раз работ 611369
ору жи 611201
ви ли</w> 609615
су б 608874
Комите т</w> 608557
х а</w> 608405
жд ение</w> 607470
правитель ства</w> 606272
о ри 605853
ствен но</w> 605795
де ло</w> 605713
а нали 604752
комп лек 604447
времен и</w> 604255
чемпи она 603574
a s 603539
с ве 603489
ф ри 603466
ль зу 603428
е те</w> 603295
г ли</w> 602232
у ли 602121
ри а 601630
По д 601606
u r 601520
ген т 600205
то к</w> 599872
вен ции</w> 599558
ство вать</w> 598990
объ ек 598685
пар т 598603
тель ного</w> 598564
дан ных</w> 598299
те р</w> 597710
исто ч 597417
че твер 597268
en t 596941
ро ди 596531
С К 596485
o f</w> 596320
проек та</w> 595287
ту ра</w> 595243
следу ет</w> 594987
се рь 594851
пред прия 594548
2 9</w> 594449
насе ления</w> 593381
Г ос 592706
стои т</w> 592594
финан си 591834
сто й 591598
ни ть</w> 591577
де л</w> 591038
то ра</w> 590714
ты х</w> 589616
Х а 589521
Д ми 586623
ь е</w> 586540
б ло 586273
те чение</w> 586208
пре мь 585955
а ви 585820
ди и</w> 585170
ря д</w> 584990
ша я</w> 584680
но вых</w> 584328
сколь ку</w> 584140
ч ного</w> 583790
со м</w> 582579
со стави 582426
з у</w> 582370
Ф ран 582041
В ер 581992
де б 581575
ха рак 581471
х ва 581204
Ко ми 581149
ра нее</w> 580452
А нд 580239
фе вра 580115
за ня 580108
ти ю</w> 579540
м .</w> 579526
Влади мир</w> 579518
С то 578983
я зы 578625
ди а 578472
тер ро 577597
ОО Н</w> 577193
В се</w> 576474
рабо ту</w> 575546
г ей</w> 575333
ди ть</w> 575316
200 8</w> 574887
ч ный</w> 574451
3 1</w> 574339
фе де 573740
и мо 573509
муж чи 573484
не му</w> 571654
Н И 571481
o l 571475
го р 571336
Дми три 571333
фи ль 571148
тер бур 570594
Г ер 570186
тиче ски</w> 570141
Н е</w> 569722
од ной</w> 569477
полу ча 568759
Моск ве</w> 568246
б ре</w> 568070
внима ние</w> 567750
счита ет</w> 567044
Александ р</w> 566934
при ве 566716
ст е</w> 566567
че го</w> 566155
и ни 566111
по ги 566072
со бы 565748
ши й</w> 565544
доста точ 565488
но ва</w> 565277
по ло 564658
Та к</w> 563868
бе с 563703
ли и</w> 563481
ль ю</w> 561701
серь ез 561631
т ный</w> 561144
мен ее</w> 560975
на ло 560902
Укра и 560878
се ль 560023
е ха 559097
ле г 559092
по ряд 558858
Сер гей</w> 558340
нача ла</w> 558033
рас ши 556563
терро ри 556149
ну жно</w> 555946
6 0</w> 555113
щ ении</w> 555049
ию ня</w> 554854
в ше 554662
вну трен 554425
осуществ ля 554180
з е</w> 553898
укра ин 553833
Ко м 552986
Th e</w> 552642
основ е</w> 552400
сред и</w> 552379
стра не</w> 552289
ж ер 551519
хо да</w> 551246
имен но</w> 551032
ко ва</w> 550992
фу нк 550855
ва х</w> 550520
ши м</w> 550448
пол но 550290
М у 550109
од но 549922
вз я 549645
се мь 549555
тель ные</w> 549036
l y</w> 548502
та кой</w> 548406
стать и</w> 548317
кон ферен 548239
i s 548120
су д 547834
в у</w> 547372
теле м</w> 547362
б у</w> 547144
фи ка 546822
од нако</w> 546762
2 . 546563
ме ха 545850
1 00</w> 545479
допол нитель 544859
пред седа 544820
ожи да 544778
л ении</w> 544647
е ва</w> 544599
са ми</w> 543925
президен т</w> 543752
М ар 543430
гла ва</w> 543001
мар та</w> 542974
необходи мо</w> 542809
ду ма 542802
проце ду 542640
ста р 542258
ча сти</w> 541630
кон ф 540677
мыш лен 540534
мест е</w> 539785
ен ы</w> 539612
и му 539484
га н 539252
вер ну 539109
го в</w> 538382
l e</w> 538261
г ло 537777
действи й</w> 536989
o o 536927
зыва ет</w> 536703
после д 534221
ви ч</w> 534071
лю да 533544
ва н</w> 532807
м не</w> 532381
се кто 531565
ч ные</w> 531561
ста ли</w> 531261
ма с 530772
мо мент</w> 530744
од ного</w> 530644
сен тября</w> 530510
работа ть</w> 529746
ще го</w> 529409
ш ин 529195
м ся</w> 528878
ав гу 528694
сторо н 528472
информа цию</w> 528449
сво его</w> 528402
a y</w> 528219
ию ля</w> 527934
О ни</w> 527919
I I</w> 527842
ча сть</w> 527627
ш ли</w> 526663
и гро 526565
Р И 526069
ок тября</w> 525959
де ла</w> 525628
регу ли 525334
проти во 525271
на р 525242
Ч то</w> 524862
ен ь</w> 524674
фи ци 524643
янва ря</w> 524035
ствен ной</w> 523976
ин вести 523709
ле з 523644
эти м</w> 523299
вы я 523027
сче т</w> 522740
пере гово 521483
н ные</w> 520705
про ку 520326
дер жи 520159
комите та</w> 519991
не ш 519683
хозя й 518474
ведо м 518266
е вро 517918
фут бо 517122
ва ются</w> 516716
конф лик 516409
ноя бря</w> 516138
по льзо 515675
пар ла 514225
ли я</w> 514065
по тен 513961
с ме 513354
ра м</w> 512488
кон кре 512189
ст ы 511927
в за 511374
с мен 511343
сове ща 510611
пом ним</w> 510303
явля ются</w> 509761
Пред седа 509456
дол ла 508502
еди н 508157
с мер 507932
по нима 507795
на пример</w> 507787
, 5</w> 507650
учре жд 507438
име ет</w> 507405
ста ло</w> 506744
член ов</w> 506268
вед ения</w> 505937
м нению</w> 505903
люд и</w> 505393
по жа 505162
д ли 504661
о м</w> 504111
полити ки</w> 503081
кон тра 502884
ст ей</w> 502617
об ре 501594
мо р 501520
меди ци 501483
ю ри 501167
з до 500920
a d 500087
u s 499707
при вле 499338
вопро сы</w> 498913
поч ти</w> 498514
С М 498509
рекомен да 498266
де т 498127
у ста 497732
мо м</w> 497019
но си 497014
Ф и 496999
секрета ря</w> 496874
которо м</w> 496853
су деб 496822
г ля 496339
на ла</w> 496213
вы ра 495518
служ бы</w> 495208
з десь</w> 494827
ло го</w> 494806
про во 494529
напра влен 494482
се зо 494386
ини циа 494241
во ору 494190
реб ен 493583
г но 493293
пра кти 493287
отно си 492995
С пе 492915
со вмест 492876
та кие</w> 492583
Ин тер 492341
ру ю</w> 491918
д ь</w> 491814
ени ям</w> 491673
Моск вы</w> 490878
иму ще 490790
пер со 490700
го с 490678
ро вание</w> 490536
че ский</w> 490287
пробле мы</w> 490036
a s</w> 489986
по тер 489863
1 8 489622
ди да 489476
про фе 489313
щ ую</w> 489043
соб ра 488000
бе ре 487985
долж на</w> 487490
1 . 487385
ли мпи 487314
Б ы 487252
до ма</w> 487181
ствен ных</w> 487131
по скольку</w> 486988
пя т 486973
М В 486570
Ра нее</w> 486357
ави а 486255
На помним</w> 485895
дол л</w> 485585
ак ти 485406
ди я</w> 485362
у гро 485180
ре в 484243
апре ля</w> 483765
Пе тербур 482921
теля ми</w> 482917
по стоян 482562
настояще е</w> 482450
хо в 482121
ш а</w> 481956
с сы 481481
а гент 481265
пра во</w> 481033
u n 480974
обеспе чи 480771
тре бу 480526
тре ть 479783
по ня 479471
удо в 479286
о пас 479268
кон сульта 479203
цион ных</w> 478960
бо е 478579
на и 478395
у креп 478203
ре й</w> 477748
мен та 477282
опреде лен 477148
ви ла</w> 477132
ше е</w> 477127
1 5 476759
меха низ 476697
ер а</w> 476280
ли де 476260
ц ени 476100
по па 475983
з ор 475570
п ли 475562
Л у 474970
жд ы 474415
сво ем</w> 474148
мо сков 474006
произ води 473765
а т 473622
на чи 473519
ж ении</w> 472340
ри ю</w> 471770
ро б 471747
под писа 470522
все гда</w> 470318
сред ства</w> 469404
Ново сти</w> 468791
под держа 468688
са х</w> 468528
тель ный</w> 468103
то ва 468073
провед ения</w> 468069
ре с 467908
осуществ ления</w> 466266
жур нали 466264
по ку 466116
на ходя 465979
возмож но</w> 465711
пе ча 465318
С С 464819
сво й</w> 464751
с се 464732
мы х</w> 463620
до ступ 463137
Генераль ной</w> 463106
Т ак 463080
л ений</w> 462849
зо в</w> 462774
сотрудни ков</w> 462721
в шего</w> 462596
te d</w> 462495
e c 462409
о пы 462338
ст вами</w> 462175
сдела ть</w> 461922
e n</w> 461326
К ры 461297
кан дида 461242
рас сматри 461111
к т</w> 460987
a ti 460651
са нк 460569
Кон венции</w> 460107
поя ви 460049
подчер кну 459989
Генераль ного</w> 459976
стви я</w> 459757
рабо те</w> 459530
орга нов</w> 458921
позво ля 458556
че т 458440
стви е</w> 458299
за д</w> 458148
поги б 458108
вы ше</w> 457834
со бой</w> 457496
га м</w> 457471
пред ставлен 457088
200 7</w> 456815
о те 456698
Алек се 456633
ра и 456418
А О</w> 456386
ц ер 455484
Ми ни 455461
рас сказал</w> 455303
й дет</w> 454881
пен си 453895
та ции</w> 453776
по тому</w> 453575
образо вания</w> 453534
ча ется</w> 453404
ден ь 453202
емы е</w> 452861
ж ной</w> 452410
то ров</w> 452402
де н</w> 452368
Республи ки</w> 452270
теля м</w> 452139
на зад</w> 452003
квар ти 451723
за кры 451678
рова л</w> 451674
це лью</w> 450581
0 00</w> 450070
ор дина 449540
сте пен 449086
гла вы</w> 448644
по страда 448192
Гер ма 448157
ту ри 448131
e t 447969
воз ра 447875
профе сси 447871
В о</w> 447815
во т</w> 447485
помощ ь</w> 446785
во ду</w> 446732
я дер 446479
раз у</w> 446321
вы ступа 445923
испо льзу 445429
и де 445397
но во 445338
воз ду 445294
ме то 445267
ш ем</w> 445140
ран ения</w> 444942
Ми ха 444623
проце с 444550
Так же</w> 443941
тив ных</w> 443686
се бе</w> 443079
ще й</w> 442789
а ре 442713
1 3 441974
ло н 441674
возмож ности</w> 441102
Со гла 441034
n o 440318
рас следо 439465
ри ть</w> 439016
медици н 438956
200 6</w> 438096
ден е 438065
201 7</w> 437856
ле е</w> 437155
да вно</w> 437104
по доб 437045
защи ты</w> 436439
пер вые</w> 436409
те го 436074
стра нах</w> 435609
А л 435503
приня ть</w> 435259
дан ные</w> 434936
ти л</w> 434853
7 0</w> 434756
гражда н</w> 434727
лю бо 434693
рай оне</w> 434591
от сут 434582
ресур сов</w> 434538
сотрудниче ства</w> 434443
за во 434409
февра ля</w> 434031
особ енно</w> 433631
сло ва</w> 433527
Се йчас</w> 433149
с к 433093
К рас 432714
Ка за 432442
вли я 432355
по сред 432304
э ту</w> 432085
го спо 431991
ши ро 431573
Л ю 431459
хот я</w> 431231
ты й</w> 431188
a t</w> 431088
ги и</w> 430761
поли ции</w> 430522
де ли 430468
на зыва 430407
переда ет</w> 430329
заме сти 429674
жа й 429043
пер вый</w> 428462
тру д 428397
ве сти</w> 428286
- -</w> 428211
э ро 427951
са й 427947
но вые</w> 427703
находи тся</w> 427679
пя ть</w> 427673
Ки та 427241
Н А 426869
смотр я</w> 426426
че му</w> 426013
ци ями</w> 425950
г ну 425554
ня я</w> 425375
во в</w> 425245
по вест 424683
здо ров 424676
мо кра 424667
спо ко 424578
во сто 424349
организа ций</w> 424289
ви ди 424208
И ра 424056
Е в 424044
чис лен 423728
ситуа ции</w> 423650
та ль 423457
ф он</w> 423363
обла ст 423199
об но 422995
те м 422791
на до</w> 422141
сво е</w> 421783
ре аль 421721
рес публи 421654
ру ется</w> 421117
В ы</w> 420467
минист р</w> 420466
ны неш 420014
ч ению</w> 420007
тр е</w> 419731
дей ству 419645
с рав 419463
Пути н</w> 419378
ра б 419353
вмест е</w> 419264
ве з 419124
россий ских</w> 418972
ч ении</w> 418896
ми и</w> 418784
ль ник</w> 418780
правитель ство</w> 418539
пра к 418427
компа ния</w> 418368
бер на 417935
публи ко 417297
ро ль</w> 417262
СМ И</w> 417019
то же</w> 416733
во к</w> 416340
по этому</w> 416118
органи зо 415892
которы м</w> 415766
о щ 415707
Во сто 415677
вы пла 415394
С С</w> 415225
a i 414917
стой чи 414737
де к 414433
и дет</w> 414346
больш ин 414258
жер т 414202
груп па</w> 414031
ин ф 413895
я сь</w> 413822
ствен ного</w> 413628
полно мо 413606
1 4 413570
ни цу</w> 413439
международ ного</w> 413127
ка тего 413035
w . 412982
вто рой</w> 412898
Д у 412889
из да 412515
докла д</w> 412477
вза имо 412472
ъ я 411987
Д ж 411787
от каза 411730
н .</w> 411617
позво ли 411346
бе з 411175
вы ми</w> 411056
защи т 411022
Т ур 410652
ни ем</w> 409848
М ак 409754
феде раль 409660
Ра бо 409627
действи е</w> 409259
О на</w> 409147
даль ней 408867
С ле 408654
об служи 408629
голо со 408618
над лежа 408045
цен тра 407887
ка пита 407882
поддер жи 407844
мы е</w> 407447
o r</w> 407205
говори тся</w> 407175
200 5</w> 407095
у бе 407094
д ней</w> 406975
c h 406841
на у 406525
бан ка</w> 406468
Пре зиден 406346
де лега 405985
каса ется</w> 405761
ма ни 405661
це й 405558
ход ят</w> 405424
ш и</w> 405273
Г руп 405248
ш ла</w> 405237
дни м</w> 405067
ад ре 404800
ш ло</w> 404675
пред принима 404624
стан дар 404393
рова ли</w> 404295
му ни 404147
пар тии</w> 404136
си л</w> 403756
у ди 403515
на л</w> 403447
по ме 403420
об нару 402819
Се годня</w> 402627
ки н</w> 402615
те перь</w> 402610
с виде 402143
премь ер</w> 401446
А фри 401391
у луч 400946
то гда</w> 400348
участ ников</w> 400309
воз вра 400181
лы х</w> 400137
директо р</w> 400132
сто ли 399927
не зависи 399911
ww w. 399799
си ль 399789
Ни ко 399598
кри зи 399503
ми гра 399285
л ле 398538
да ть</w> 398474
по ра 398473
3 5</w> 398176
вши е</w> 398115
устано влен 398039
ми ре</w> 397982
про мышлен 397296
уда лось</w> 397274
долж но</w> 397235
ни л</w> 397042
ре н</w> 396976
з ер 396654
пред ложи 396343
со хра 396336
ви зи 396014
день ги</w> 395898
к рас 395890
смотре ть</w> 395746
уби й 395429
ж ных</w> 395347
ма тиче 395198
пра вам</w> 395036
поддерж ку</w> 394883
Се вер 394795
су да</w> 394741
o m 394731
Х о 394460
международ ных</w> 394418
сообщи ли</w> 394165
ш о 393728
деятель ность</w> 393485
пре кра 393442
ло в 392856
авгу ста</w> 392403
вл ению</w> 392025
отме чает</w> 391922
л ко 391638
уров ня</w> 391600
ци ях</w> 391550
п раз 391174
М И 390992
но к</w> 390911
услу г</w> 390368
рован ных</w> 389592
е же 389581
n e 389580
ри н 389253
бли жай 389084
ма ссо 388988
о цени 388933
ча ть</w> 388765
тре х</w> 388752
1 6 388582
поддерж ки</w> 388235
жды й</w> 387996
8 0</w> 387919
ва лись</w> 387790
R e 387277
г лу 387266
С ан 387062
с ре 386953
наб люда 386924
во бо 386742
да м</w> 386736
подо з 386676
ста на</w> 386565
евро пей 386286
з ма</w> 386129
при мер 385987
ф из 385816
после дстви 385793
кото рую</w> 385717
Дмитри й</w> 385479
ма ш 385472
по ль 385370
по р</w> 385368
полож ения</w> 385363
тель ств</w> 385227
но вого</w> 384994
извест но</w> 384879
тив ного</w> 384429
парт не 384309
По этому</w> 384115
со времен 383962
в с 383911
тра ди 383769
ты е</w> 383729
эк с 383619
МВ Д</w> 382726
пи сь 382422
и ми</w> 382221
4 5</w> 382158
ко с 382122
сбор ной</w> 382106
объ е 381951
пунк т</w> 381890
вла де 381798
де ле</w> 381582
се м 381516
чен ы</w> 381398
че т</w> 381349
чу в 381344
ра ди 380933
у стойчи 380622
ко ордина 380475
ме ре</w> 380280
коман ды</w> 380179
Ве ли 380165
цион ной</w> 379999
об ору 379947
представи тель</w> 379902
ли н 379861
0 1</w> 379430
ющи еся</w> 379274
ста ла</w> 379249
она х</w> 379139
уче том</w> 378980
нор ма 378923
ше д 378449
га ран 378173
у з 377981
Гла в 377935
d i 377773
юще е</w> 377573
мен я 377535
ин ститу 377323
ни ком</w> 376988
наш ей</w> 376872
ру ют</w> 376700
те а 376599
но вый</w> 376453
Спе циаль 376231
не закон 376176
бо ро 376172
програм м</w> 376135
с пра 376074
у строй 375904
обору до 375896
П Р 375719
при лож 375533
нару ш 375215
ва р 375158
очеред ь</w> 375091
ста ть</w> 374990
э ко 374775
тель ным</w> 373815
о кон 373483
да ми</w> 373460
обеспе чить</w> 373438
из бира 373355
ро с 373300
удов лет 373088
э та</w> 373068
сле дстви 372770
с ли 372218
смотр ен 372074
1 7 371750
ша ть</w> 371570
ри й 371151
кри мина 371132
при з 371071
последни е</w> 370837
ан ти 370621
РИ А</w> 370511
вл ением</w> 370048
ще м</w> 369984
по стано 369783
уве ли 369748
кон це</w> 369661
дви жения</w> 369601
лет ний</w> 369524
друго й</w> 369290
тя же 369078
гу берна 368549
Комите та</w> 368407
пред вари 368274
т ным</w> 367931
но вой</w> 367919
торго в 367375
да ет</w> 367333
ни цы</w> 367203
ти ки</w> 367016
кор ре 366799
Р и 366612
гло ба 365453
стави ть</w> 365368
чен ных</w> 365363
пробле м</w> 365159
про сь 364991
по ложи 364576
горо де</w> 364445
обра ти 364222
жиз нь</w> 363997
потен циа 363681
получи ть</w> 363595
став ки</w> 363557
ва ны</w> 363524
со бира 363519
ца м</w> 363448
оружи я</w> 363323
ви н 362763
хо те 362496
ве де 362483
Евро пей 362462
чи ты 362393
т ю 362193
2 , 362094
мо де 361975
ме тров</w> 361863
Е С</w> 361830
сооб ще 361788
би р 361779
пол ностью</w> 361721
ди л</w> 361233
Ра з 360277
преду сматри 360248
при обре 360066
пред ста 359889
д ж 359863
на уч 359645
ст ью</w> 358919
Бе зопасности</w> 358890
вы пу 358849
по в</w> 358781
ь ю 358519
га зе 358519
процен тов</w> 358436
со ван 358244
Ко гда</w> 358206
предо ста 358184
ста би 357923
мас шта 357777
. 1</w> 357345
вос стано 357268
с разу</w> 356890
на сили 356322
w s</w> 356154
усили я</w> 356032
многи е</w> 355573
у точ 355482
до би 355469
помощ ью</w> 355442
з дра 355336
цион ного</w> 355111
ве ро 354935
ве ду 354907
ш о</w> 354781
0 , 354726
продол жи 354506
жа ть</w> 354501
Ю Н 353841
нар ко 353832
предо ставля 353818
согла си 353767
услови ях</w> 353746
то ко 353621
во ды</w> 353037
реги она</w> 353031
вне ш 352831
0 5</w> 352601
ю щая</w> 352478
то н</w> 352372
Т у 352352
ва ли 352219
сло ж 352128
ч ки</w> 351777
не до 351748
н ной</w> 351407
мл н.</w> 351303
ль ным</w> 350995
На циональ 350451
тур ни 350045
0 4</w> 349973
по ез 349869
ле та</w> 349708
л ки</w> 349396
ло й</w> 349106
поли цей 348855
ста ти 348793
щи м</w> 348541
Евро пы</w> 348230
ст вам</w> 348203
чис ло</w> 347984
количе ство</w> 347808
нов ь</w> 347730
са жи 347577
нача ле</w> 347484
д ве</w> 347274
та ким</w> 346853
сфер е</w> 346815
ро к</w> 346757
разви ва 346370
професси ональ 346370
вари ан 345753
разви тие</w> 345644
Е го</w> 345460
ющи ми</w> 345296
на каза 345161
гро м 344948
ника ми</w> 344947
достаточ но</w> 344164
проек тов</w> 343806
чен о</w> 343783
производ ства</w> 343738
утвер жда 343504
со вет 343483
0 2</w> 343145
ки ми</w> 343142
на мер 343110
му зы 342714
ниче го</w> 342609
компа ний</w> 342484
во ро 342457
ль ное</w> 342175
вы ступи 342057
то ры</w> 341995
использо вания</w> 341929
Б и 341689
во ка 341613
преду пре 341522
Нико ла 341420
вто р 341346
долла ров</w> 341280
чи нов 341177
ни ца</w> 340707
в новь</w> 340664
ж у</w> 340452
Бо ль 340403
ста ту 339693
верси те 339511
че ра</w> 339130
согла сно</w> 339130
кон кур 338911
жа ло 338832
вопро су</w> 338815
ТА СС</w> 338703
физ и 338606
l e 338571
i m 338358
ва с</w> 338186
о з 337988
па мя 337941
Те ле 337885
от ра 337736
ству ют</w> 337608
воз гла 337295
разви тию</w> 337198
вы да 337150
ня ть</w> 337011
обе ща 336947
дар я</w> 336627
3 2</w> 336429
Миха и 336380
бюдже та</w> 336145
подготов ки</w> 336137
иностран ных</w> 335976
а эро 335879
уче б 335797
при води 335776
с бо 335354
вопро сов</w> 335237
дви га 335172
сказа ть</w> 335124
уве личи 334810
минист ра</w> 334694
це лом</w> 334628
росси я 334626
ма н</w> 334604
200 4</w> 334445
о публико 334418
пи ш 334407
ма ши 333871
се к 333793
Пе ре 333416
минист ер 333255
ди ли</w> 333140
ли зации</w> 332937
пред полага 332922
различ ных</w> 332904
пас сажи 332850
ме й 332587
Б ар 332428
0 6</w> 332030
получи л</w> 331646
рабо чи 331606
ре ли 331443
Ш а 331362
спо н 331354
емо го</w> 330992
си лу</w> 330975
в кла 330958
рас ска 330953
ци ям</w> 330470
спор та</w> 330358
кон ку 330295
россий ского</w> 330238
мест а</w> 330195
де мон 330063
ста н</w> 329979
0 3</w> 329941
ча й 329801
ст ин 329732
С Т 329279
не с 329222
со к</w> 329072
Гос ду 329034
са йте</w> 328896
тель ное</w> 328888
ен а</w> 328849
со еди 328760
п у</w> 328748
заседа нии</w> 328679
Т и 328458
А мери 328397
борь бе</w> 328371
ка кой</w> 328256
Сове т</w> 328184
мо щ 328034
ли й 328025
te r</w> 327884
со бо 327553
многи х</w> 327427
Ор ганиза 327307
сове та</w> 327221
большо й</w> 327034
С П 326976
ца ми</w> 326879
все й</w> 326738
четы ре</w> 326732
то н 326523
19 8 326463
м э 326398
ча я</w> 326319
ка м 326269
оп пози 326054
ва на</w> 325999
Го судар 325950
Ка р 325821
фо то 325558
кто р</w> 325333
лю би 325268
се ти</w> 324786
че ским</w> 324686
прове ден 324631
вз ры 324464
сро к</w> 324445
Ассамбле и</w> 324381
И з</w> 324261
составля ет</w> 324198
экономи ки</w> 324143
до к</w> 324115
ствен ный</w> 324113
наи более</w> 324103
име ют</w> 323670
ва ло</w> 323626
окон ча 323450
пре вы 323142
представи тели</w> 322685
дис кримина 322429
комите т</w> 322361
х у 322347
Феде рации</w> 322031
ль ная</w> 321956
200 0</w> 321788
ну ж 321497
тив ы</w> 321359
9 0</w> 321065
У пра 320866
про те 320259
s i 320133
про гре 320057
использо вать</w> 319980
Д а</w> 319831
. co 319752
ни ми</w> 319634
Пра ви 319579
Во з 319539
ма х</w> 319481
де м</w> 319205
Ч ер 318978
уров ень</w> 318949
поя сни 318947
вы з 318820
му ли 318695
ба ты 318469
ка кие</w> 318363
че н</w> 318256
проку ра 318210
ствен ные</w> 318178
3 3</w> 318147
та кого</w> 317694
од на</w> 317621
о дним</w> 317138
упра вля 317020
доб ро 317001
разме ре</w> 316915
реш ений</w> 316875
цен тра</w> 316671
представи телей</w> 316563
о казыва 316235
А в 316063
ш тра 316055
к ни 316050
ста нет</w> 315754
об ще</w> 315721
Кон ферен 315661
те ку 315588
зы вать</w> 315285
про жи 314965
ле м</w> 314915
конферен ции</w> 314904
ч ка</w> 314903
доро ж 314757
свя щен 314500
en t</w> 314448
ти в</w> 313910
ев ро</w> 313889
Г у 313773
ди н 313465
имен и</w> 313432
ф ран 313388
мо гли</w> 313375
о зна 313242
а та 313120
де ля 313067
куль тур 313045
Мо сков 312907
п си 312855
0 7</w> 312800
н ю 312668
мен ти 312614
т вор 312596
тран с 312529
a v 312360
хоро шо</w> 312139
на писа 312014
це п 311880
у вер 311814
не которые</w> 311808
тив ные</w> 311786
Из раи 311609
0 9</w> 311546
из мени 311429
го ся</w> 311109
ку с 311035
ку пи 310940
измен ения</w> 310878
не в 310497
ро ст</w> 310256
вед ли 309990
4 8</w> 309980
са н 309871
коми ссии</w> 309712
0 8</w> 309686
про гно 309603
начи на 309479
ма м</w> 309437
че ски</w> 309251
ко му</w> 309032
ре фор 308821
кол лек 308482
ви тся</w> 308154
ве ли 308127
ти ли</w> 308100
ко ло 307985
расхо дов</w> 307883
Цен тра 307875
бан к</w> 307739
участ во 307528
пер вой</w> 307463
по пу 307224
Ч а 307215
мани тар 307100
окру жа 306864
Р А 306852
те ра</w> 306556
ли ца</w> 306489
Б ан 306395
реали зации</w> 306325
самы х</w> 306038
П и 305745
o c 305743
ребен ка</w> 305462
пу тем</w> 305145
Т О</w> 305128
ш ению</w> 305123
I n 305088
ч ном</w> 304863
у по 304836
тив ной</w> 304751
моло деж 304731
проце сс</w> 304717
пере во 304715
ос вобо 304185
кли ен 304131
милли онов</w> 304074
ва лся</w> 303810
примен я 303783
струк ту 303497
го м</w> 303453
рын ке</w> 303440
ре е</w> 303437
информа ция</w> 303376
ма кси 303371
обще ства</w> 303230
Украи не</w> 303200
Коми ссии</w> 303198
ла й 302769
те ра 302564
ко ро 302378
Э к 301854
рай она</w> 301806
i g 301431
относи тельно</w> 301125
каж до 301058
Мини стер 300828
по том</w> 300715
e m 300661
ба р 300606
воз бу 300558
администра ции</w> 300483
ком му 300419
торгов ли</w> 300183
меся цев</w> 300162
кра й 300114
соответству ющих</w> 299696
Анд рей</w> 299437
че ская</w> 299368
Согла сно</w> 299323
ве ден 299202
сто м</w> 299159
д ки</w> 299036
ь я 298858
исто рии</w> 298849
государ ство</w> 298768
гу манитар 298628
a b 298612
o v 298593
ч .</w> 298573
ссы л 298561
рова ны</w> 298544
конку рен 298426
экспер тов</w> 298254
ве й 298144
К О 298077
ка ждый</w> 298027
лимпи й 297914
5 5</w> 297578
цен тре</w> 297557
вед ение</w> 297347
преж нему</w> 297255
созда ния</w> 297140
ба л 297094
прове сти</w> 296994
3 4</w> 296576
воору жен 296365
аэро пор 296313
ку да</w> 295940
прош лом</w> 295809
де мокра 295727
рын ка</w> 295674
ров ки</w> 295448
Ш та 295445
3 7</w> 295410
ви де</w> 295337
обяза н 295270
3 . 295262
эко логи 295228
регу ляр 295183
ро ста</w> 295094
куль туры</w> 295050
3 6</w> 294842
ла х</w> 294756
ле в 294346
це лей</w> 294285
Ме д 294008
му ю</w> 293826
ито гам</w> 293360
ходи ть</w> 293234
сво им</w> 293189
ря т</w> 293122
ника м</w> 293117
за интере 293104
реги оне</w> 293086
ж ей</w> 293057
про па 293050
цион ные</w> 292789
д .</w> 292786
20 0</w> 292745
о пла 292613
П ар 292594
чен ко</w> 292245
По ли 292216
про с</w> 292173
член а 291992
е мой</w> 291890
ви и</w> 291765
получи ли</w> 291756
Сто ро 291064
i r 290980
Си рии</w> 290977
ни н</w> 290949
емы й</w> 290917
цио не 290848
Г е 290606
лы й</w> 290463
за пи 290211
Президен т</w> 290167
дела ть</w> 290079
ша ет</w> 289922
повест ки</w> 289694
спор т 289555
ми мо</w> 289278
зна чение</w> 289097
ка та 288897
националь ных</w> 288811
поряд ка</w> 288772
на й 288761
не сколь 288716
чемпиона та</w> 288559
Из вести 288528
о но</w> 288373
обще го</w> 288298
хо дов</w> 288084
мен ты</w> 287969
струк туры</w> 287955
националь ной</w> 287783
точ ки</w> 287764
Все мир 287758
Алексе й</w> 287721
тр ене 287656
полномо чи 287641
ги е</w> 287372
200 3</w> 287209
ще е</w> 287093
с цен 287062
жа ет</w> 286676
С ек 286604
тив ный</w> 286417
преду смотрен 286397
201 8</w> 286293
отнош ения</w> 286256
ва лю 285946
участи я</w> 285859
оцен ки</w> 285832
обще й</w> 285728
луч ше</w> 285671
ч ным</w> 285614
ль ном</w> 285599
выбо ров</w> 285105
не которых</w> 284983
С ред 284883
чи к</w> 284583
свобо д 284569
ф ору 284554
завер ши 284532
ме н</w> 284520
прави л</w> 284258
ш ении</w> 284188
m e</w> 284132
л ением</w> 284037
о ст 284037
сто л 283793
во л 283790
дру г</w> 283734
пользо ва 283661
ча сов</w> 283407
подчеркну л</w> 283316
кон струк 283184
поло ви 283164
з рения</w> 283124
други ми</w> 283107
ку п 282833
об у 282702
проце сса</w> 282594
ба й 282352
контро ля</w> 282341
вой ны</w> 282288
ка з 282195
право охра 282026
A M</w> 281827
ж ению</w> 281818
сы гра 281737
ла ми</w> 281492
жи телей</w> 281230
э ле 280854
систе ма</w> 280305
щи ков</w> 280282
юри ди 280201
тра в 280180
Про грам 280078
4 9</w> 279939
п лу 279907
мат че</w> 279907
соста в</w> 279875
з я</w> 279581
г ла</w> 279539
Вер хов 279481
приня тия</w> 279401
н тов</w> 279371
бе зопас 279290
о к</w> 279243
ис пыта 278975
соб люд 278951
н ении</w> 278924
вы ступ 278834
ре мон 278714
Я по 278660
А на 278657
россий ской</w> 278518
дол го 278449
успе ш 278357
цен тр</w> 278280
необходи мости</w> 278130
3 8</w> 278092
а п 278072
ц ве 277979
услови я</w> 277831
д ро 277780
д жа 277759
стати сти 277638
Т ем</w> 277564
здра во 277550
р ение</w> 277524
встре чи</w> 277467
ы ду 277421
Теле фон</w> 277374
игра ть</w> 277314
u l 277307
учи ты 277281
бли з 277280
ме ста 276965
ц ов</w> 276908
Во л 276841
исто ри 276686
по воду</w> 276576
контра к 276489
ю щую</w> 276241
о то 276205
щи хся</w> 275967
Моск ва</w> 275856
О с 275808
вто ро 275714
тя бре</w> 275286
зако н</w> 274867
ру бе 274796
коне чно</w> 274625
секрета рь</w> 274545
основ ных</w> 274514
с читы 274312
на ших</w> 274261
т ное</w> 274213
ч ная</w> 274141
за тем</w> 274086
да л</w> 274073
зако на</w> 274031
в спо 273910
щ ению</w> 273881
времен но</w> 273827
на вли 273527
Каза х 273523
200 2</w> 273448
ен ных</w> 273412
пу ска 273405
пре тен 273289
при сут 273119
ме д 273093
служ ба</w> 273026
Сер ге 272812
о стано 272775
на деж 272743
обви ня 272677
че ское</w> 272629
ц о 272407
сою за</w> 272326
вед ь</w> 272324
случа ях</w> 272289
пер вого</w> 272222
t er 272157
си лы</w> 272021
нали чи 272008
ско в</w> 271981
де лу</w> 271592
праз дни 271570
здраво ох 271403
у м 271391
тру да</w> 271370
уни версите 271341
И р 271320
Ев г 271169
Е ще</w> 270891
ссо циа 270866
ци па 270775
шен ко</w> 270594
цио ни 270557
А д 270385
мероприя тий</w> 270254
ф а</w> 270194
стра хо 270100
на де 269922
И го 269901
o p 269896
со в 269885
.co m</w> 269776
по со 269741
кол ле 269607
Россий ской</w> 269382
ни ку</w> 269303
во ри 269115
жи ль 269026
у ще 269018
во обще</w> 268987
вы с 268919
ва но</w> 268888
ис кус 268852
4 2</w> 268830
коне ц</w> 268572
це ли</w> 268462
стать е</w> 268454
та кое</w> 268308
фика ции</w> 267961
за ция</w> 267765
ни к 267537
экономи ческого</w> 267501
четы ре 267451
бе жен 267370
прак тически</w> 267348
мень ше</w> 267337
па да 267207
г ер 267196
т ка</w> 267053
в и</w> 266984
мен тов</w> 266877
А вто 266859
ско ро 266771
на ме 266653
инф ра 266643
ар ен 266561
го дов</w> 266237
реги стри 266093
пунк та</w> 266045
связа нных</w> 265912
тро м</w> 265883
С Р</w> 265882
5 1</w> 265835
ш ки</w> 265823
ма га 265634
4 4</w> 265596
результа ты</w> 265208
ю сь</w> 265113
це ле 265032
4 . 265024
докумен тов</w> 265010
фран ц 265007
зая вление</w> 264841
пример но</w> 264730
мы с 264470
адре с</w> 264418
при ме 264245
я тся</w> 264117
ло г</w> 264096
. R 263850
слу жа 263847
та ри 263786
спон ден 263512
де вя 263480
ве ри 263428
до каза 263420
вер х 262821
прош лого</w> 262747
ори те 262667
тель ность</w> 262301
чен ы 262290
5 00</w> 262102
200 1</w> 262002
влен о</w> 261963
l i 261919
ст у</w> 261678
ман да 261663
К ре 261620
г ри 261607
рас сказа 261566
чис ла</w> 261534
пиш ет</w> 261523
ви да 261495
5 2</w> 261073
ст вах</w> 260953
Мед веде 260725
рова н</w> 260671
вля ет</w> 260493
дан ный</w> 260456
ак ции</w> 260304
ответствен ности</w> 260226
тиче ской</w> 260220
счита ют</w> 259734
4 1</w> 259503
d e 259305
тель ная</w> 259301
свобо ды</w> 259213
е н</w> 259125
под разде 259124
в ью</w> 258841
муни ципа 258687
3 9</w> 258596
a r</w> 258576
неф ти</w> 258574
ту аль 258543
ag e</w> 258512
ч рез 258448
ка з</w> 258372
ре ва 258001
с ко</w> 257920
ни же</w> 257757
зор а</w> 257520
ри на</w> 257419
энер ге 257273
ч ением</w> 257217
Ц И 257216
милли ар 257194
ж ений</w> 256992
сем ь</w> 256918
х и</w> 256887
международ ной</w> 256416
служ бе</w> 256397
P M</w> 256378
т ная</w> 256321
ве л</w> 256284
О В 256246
рабо та</w> 256211
ль зя</w> 256192
Ф а 256098
де парта 256007
3 , 255940
обсу жда 255840
ли ц 255748
по пы 255622
состоя нии</w> 255570
Герма нии</w> 255514
сти ва 255480
за па 255467
Л о 255417
н ю</w> 255406
пред ыду 255347
веро я 255232
с м.</w> 255231
член ы</w> 255139
за бо 255090
об стоя 255049
ан г 254907
докла да</w> 254745
иг ры</w> 254723
приня л</w> 254577
чи л</w> 254575
вы рази 254557
си ст 254399
ду ет</w> 254394
Ц е 254351
с пу 254340
экс плу 254004
услу ги</w> 253980
за м 253781
ква ли 253748
се н</w> 253593
мы м</w> 253572
примен ения</w> 253394
цион ный</w> 253289
при ходи 253246
ем ся</w> 253142
дости гну 253009
ма ми</w> 252902
вши хся</w> 252894
Х от 252871
жи во 252747
га р 252612
o t 252491
О ле 252237
сле д 252003
про токо 251601
По стоян 251573
ди пло 251563
о г 251546
Э ти</w> 251538
ох ва 251515
само м</w> 251423
сотрудни ки</w> 251414
4 7</w> 251349
И та 251337
4 6</w> 251299
s p 251231
созда ние</w> 251193
ш у 251129
Ф он 251103
га зо 251056
работа ет</w> 250953
Сан кт</w> 250930
дву х 250910
ин стру 250860
пер вом</w> 250810
не тся</w> 250784
зо р</w> 250747
гру з 250683
при орите 250628
горо д</w> 250525
о логи 250481
ве ще 250394
стре ми 250388
бри та 250295
за р 250294
Ж и 250144
дей ствовать</w> 250098
при гла 250069
ви це</w> 250068
ад вока 250003
СК А</w> 249971
говори ть</w> 249968
су аль 249709
о доб 249590
за боле 249188
Хот я</w> 249091
но ва 249008
5 8</w> 248979
социаль ной</w> 248866
борь бы</w> 248783
Вели ко 248715
до сту 248708
4 3</w> 248640
строи тельства</w> 248637
Э тот</w> 248595
ча ют</w> 248534
о ши 248519
лен а</w> 248435
ситуа ция</w> 248268
ки на</w> 247763
Гла ва</w> 247660
част о</w> 247620
спра ведли 247458
Ра с 247285
Фран ции</w> 247251
ка ну 246761
за тра 246684
действи тельно</w> 246516
Б ер 246505
за й 246499
лен ы</w> 246493
произо шло</w> 246355
на гра 246320
груп п</w> 246315
ша н 246257
П ла 246077
опера ции</w> 245927
За ко 245861
со м 245768
ссыл кой</w> 245700
Г ен 245662
ки ло 245635
ра баты 245424
ну ть</w> 245422
тив но</w> 245420
бе се 245302
объ ем</w> 245289
та я</w> 245203
су ль 245153
Росси ю</w> 244951
5 3</w> 244808
учрежд ений</w> 244656
сум му</w> 244516
благо даря</w> 244463
д ь 244336
Э кономи 244276
a m</w> 244275
мероприя тия</w> 244141
не смотря</w> 244110
кор руп 244069
б ин 243809
ком менти 243699
об щи 243683
предлож ения</w> 243502
бы ст 243491
суще ству 243437
обра ща 243407
финанси рования</w> 243374
си м 243362
па ла 243269
ро н 243117
по ки 243114
пер во 243040
ком мер 242917
ни кто</w> 242789
услови й</w> 242760
ou n 242734
у стра 242689
пер вую</w> 242680
5 7</w> 242678
по ста 242675
по священ 242618
наш и</w> 242419
ди ви 242403
по ощ 242396
Велико брита 241919
те лю</w> 241902
5 6</w> 241660
приводи т</w> 241475
r u 241460
Та ким</w> 241034
ин форми 240968
у па 240928
представи ть</w> 240925
суд ь 240733
стан ции</w> 240712
женщи ны</w> 240700
вз но 240519
сту ден 240456
самы м</w> 240414
необходи мость</w> 240182
созда ть</w> 240137
пу ти</w> 240113
соста ве</w> 239977
потенциа ла</w> 239957
полож ение</w> 239895
Ч и 239655
ту т</w> 239539
х е 239427
am p 239245
заме ча 239225
P os 239180
ме та 238959
де тся</w> 238768
семь и</w> 238764
пере воз 238710
И спа 238686
макси ма 238683
ти рует</w> 238662
ти на</w> 238649
И сто 238452
кон ца</w> 238412
га х</w> 238275
мо го</w> 238210
у зна 238203
ли ть</w> 238098
пер вых</w> 238087
пунк те</w> 237900
ь ми</w> 237813
про чем</w> 237690
лю бы 237688
рей тин 237663
клу ба</w> 237424
а б 237418
раз а</w> 237357
ла м</w> 237287
спе ц 237277
ь ше</w> 237237
пе с 237187
фон да</w> 237182
Д ру 237162
рас преде 237120
с де 237076
о гром 237020
д ца 236989
мо г</w> 236959
уще р 236829
раз работа 236528
поряд ке</w> 236472
Ре ги 236264
по став 236226
Со вет 236190
объ еди 236164
5 9</w> 236104
под вер 236086
кру г</w> 235938
ра ке 235926
в первые</w> 235854
Г ру 235760
5 4</w> 235627
под роб 235604
од но</w> 235408
ъ ез 235398
при вет 235360
реги стра 235340
несколь ких</w> 235223
еже год 235193
З ени 234960
в шей</w> 234930
площа д 234788
Председа тель</w> 234657
ли нии</w> 234632
со л 234616
выбо рах</w> 234602
поку па 234484
си я</w> 234474
попу ляр 234449
от пра 234448
199 8</w> 234226
докла де</w> 234222
директо ра</w> 234175
В И 234039
де во 233798
те сь</w> 233777
Бе ло 233761
кос ми 233626
ответствен ность</w> 233568
па н 233536
лы е</w> 233438
кану не</w> 233432
по чему</w> 233286
фа й 233175
ш ком</w> 233091
щ ений</w> 232949
e b 232847
опреде ля 232669
ня х</w> 232630
ч ное</w> 232629
жи ть</w> 232629
мож ете</w> 232622
по ру 232616
а на 232582
находя тся</w> 232582
п ле 232575
ре чь</w> 232537
ве че 232323
ито ге</w> 232114
со х 232091
орга ны</w> 231960
коман да</w> 231954
го н 231785
лик вида 231704
ти м</w> 231681
ati on</w> 231680
фе стива 231629
г ене 231565
из бе 231492
ни це</w> 231399
ци ден 231254
катего рии</w> 231252
оста ется</w> 231230
бизне с</w> 231084
х удо 230822
о су 230798
пред ме 230614
политиче ских</w> 230597
че к</w> 230561
степен и</w> 230512
тру до 230500
по прав 230408
простра н 230263
моло ды 230203
от рас 230135
стои мость</w> 229843
ни ях</w> 229818
К ри 229754
со се 229729
к ло 229626
i t</w> 229582
ш ую</w> 229491
6 5</w> 229483
правоохра нитель 229187
199 9</w> 229172
распо ложен 229116
оборо ны</w> 229037
отнош ений</w> 229028
футбо ли 228897
на ч 228886
Е Д 228846
приня ли</w> 228840
ро ва</w> 228814
фи гу 228787
согла шения</w> 228768
интер вью</w> 228758
тиче ских</w> 228753
ни когда</w> 228686
e t</w> 228406
мину т</w> 228396
од ном</w> 228009
кон цер 227944
экономи ческой</w> 227888
Г ра 227850
до во 227769
со пер 227575
ти н</w> 227472
здоров ья</w> 227396
при гово 227381
ин ве 227349
ин вали 227206
по ступи 227165
да ли</w> 227097
окружа ющей</w> 227065
дене г</w> 226955
л ка</w> 226949
мен а</w> 226675
ле тов</w> 226634
сни зи 226561
В то 226544
име ть</w> 226527
гово рят</w> 226459
С тра 226237
A d 226163
вл ений</w> 226121
Те перь</w> 226115
к ров 226049
ствен ным</w> 226024
На пример</w> 225980
Интер фак 225955
зо ло 225851
клю че 225736
здравоох ранения</w> 225360
7 5</w> 225358
ста м</w> 225239
а спек 224993
Д о</w> 224776
з ло 224769
дела м</w> 224700
ок е 224698
секрета риа 224670
продук ции</w> 224618
же лез 224488
5 . 224436
уни что 224373
Н ью</w> 224151
Ко ро 224146
дости жения</w> 224075
от прави 224069
доба вил</w> 224061
цен ы</w> 223963
круп ней 223749
ню ю</w> 223718
юще м</w> 223607
но ме 223585
3 00</w> 223514
те й 223510
по ст</w> 223476
бо в</w> 223441
до воль 223425
мы й</w> 223397
вы чай 223375
Пред стави 223232
докумен ты</w> 223215
не льзя</w> 223136
К П 222996
насили я</w> 222914
мат ч</w> 222642
ули це</w> 222577
с ной</w> 222077
a y 221913
ты м</w> 221824
чен ные</w> 221684
провед ение</w> 221666
рекоменда ции</w> 221571
зо м</w> 221172
Михаи л</w> 221059
региональ ных</w> 221056
Со ю 221014
це н</w> 220928
го до 220908
програм ма</w> 220890
жд ении</w> 220858
по ле</w> 220470
отве т</w> 220457
w as</w> 220384
предлож ение</w> 220313
ка де 220260
рассмотр ения</w> 220208
з ву 220134
В от</w> 220132
систе му</w> 220013
мат ча</w> 219843
финансо вых</w> 219788
при соеди 219725
у мень 219691
ш ка</w> 219625
п ру 219619
да ле 219455
ситуа цию</w> 219372
Ч С</w> 219364
нару шения</w> 219353
замести тель</w> 219178
ни ли</w> 219036
кам па 218991
си ть</w> 218942
Сек ре 218871
н ный</w> 218868
сообщи ла</w> 218750
воен ных</w> 218671
перегово ров</w> 218402
до бы 218293
га за</w> 218247
владе ль 218188
6 . 218141
w it 218068
че скую</w> 218005
рай он 217896
c e</w> 217887
ре ша 217883
к м</w> 217878
на йти</w> 217878
бес пла 217870
строи тельство</w> 217825
раз но 217718
199 5</w> 217683
р ю 217588
мо ни 217583
п лен 217524
у регули 217510
преж де</w> 217451
сред ы</w> 217426
опера ций</w> 217393
побе ди 217355
потре би 217354
тель ную</w> 217337
расхо ды</w> 217102
v i 217100
следо ва 217087
срав нению</w> 217067
и мя</w> 216999
рабо т</w> 216886
про йдет</w> 216874
се вер 216858
l o 216836
ка на 216787
з м</w> 216636
подтвер жда 216552
сист ем</w> 216551
a .ru</w> 216546
преступ ления</w> 216512
долж ност 216484
ня ш 216206
ле тия</w> 216193
ско н 216045
мо е</w> 216031
т вра 215983
во д</w> 215979
помо га 215962
долж ности</w> 215893
з ри 215862
принима ть</w> 215755
по неде 215694
анг лий 215564
чи ка</w> 215524
важ но</w> 215517
Со единен 215439
Э та</w> 215256
т . 215225
после ду 215191
Т рам 215131
ника ких</w> 215110
год няш 215016
Ш е 214993
ме ст</w> 214985
ле ты</w> 214931
ль ную</w> 214923
во до 214843
повы шения</w> 214568
же сто 214470
госпо дин</w> 214411
дискримина ции</w> 214397
де ву 214318
сто й</w> 214266
жи т</w> 214255
докумен т</w> 214237
при род 214220
с ю 214158
ti on</w> 213729
места х</w> 213687
т ской</w> 213577
н ного</w> 213575
при бы 213535
авто бу 213533
си х</w> 213466
меся ца</w> 213443
досту п</w> 213245
площа ди</w> 213227
S t 213198
Республи ка</w> 213179
государствен ных</w> 213119
a z 213082
Е ди 213058
т ности</w> 213031
на пад 213025
мага зи 212988
террито ри 212967
акти ви 212786
персо нала</w> 212717
на по 212434
Но вый</w> 212420
ско рее</w> 212385
д жи 212324
уголов ное</w> 212306
защи те</w> 212210
Г ре 212204
4 , 212200
ар хи 212105
уголов ного</w> 212073
д во 211987
с лы 211804
ори ен 211757
Влади мира</w> 211705
пер спек 211670
Е Н 211642
ста не</w> 211540
спи сок</w> 211471
ен о</w> 211299
свиде тель 211015
ле стин 211002
воз ник 210975
систе ме</w> 210874
технологи й</w> 210868
че ском</w> 210833
обла да 210797
сре ду</w> 210773
мест ных</w> 210670
Конферен ции</w> 210603
стои тся</w> 210572
199 4</w> 210483
ли й</w> 210413
про вод 210397
то пли 210225
И спо 210144
процен та</w> 210132
ря да</w> 210045
с ных</w> 209805
квар та 209749
деся т</w> 209653
инте гра 209611
предо твра 209564
М О 209480
лю бой</w> 209370
Крас но 209254
тем пера 209119
за регистри 209118
да в 209094
f or</w> 208939
ма ло</w> 208667
ры х</w> 208633
э н 208613
боле з 208520
бра ть</w> 208425
ап пара 208391
ка зывать</w> 208298
чрез вычай 208264
со стоится</w> 208238
возду ш 208223
199 7</w> 208186
процеду ры</w> 208171
ф е</w> 208139
уста нов 208081
s h 208063
л .</w> 208041
рова но</w> 207927
ви нов 207827
согла со 207788
возмож ностей</w> 207768
вши м</w> 207755
М но 207723
фак т</w> 207693
у казыва 207678
сте р</w> 207657
у виде 207652
лет него</w> 207571
Председа теля</w> 207563
подчер ки 207550
ч ную</w> 207548
франц уз 207430
у ро 207384
пре пят 207335
ле й 207321
распо ря 207294
н ской</w> 207290
ка ких</w> 207181
вс ю</w> 207136
d e</w> 207005
хо ды</w> 206955
председа тель</w> 206936
упра вление</w> 206907
участ ники</w> 206886
Т о</w> 206836
I II</w> 206704
ры нок</w> 206676
спорт смен 206633
выбо ры</w> 206588
тель ности</w> 206516
Украи на</w> 206419
транспор та</w> 206334
террори сти 206322
фи р 206320
обеспе чение</w> 206244
Евро пе</w> 206237
си ло 206176
2 8 206141
ца х</w> 206079
Ма й 206033
програм му</w> 206003
бри тан 205866
республи ки</w> 205865
у н 205860
верси и</w> 205800
чи ков</w> 205769
ка тери 205675
инве сто 205653
при зывает</w> 205603
Г ор 205524
ши ть</w> 205499
сотрудниче ство</w> 205436
э т 205423
ОО О</w> 205283
о стро 205274
жен ы</w> 205215
В В 205187
шко лы</w> 205179
ре кла 205050
эк с</w> 205029
6 4</w> 205025
хо ло 205001
в ки</w> 204992
ту ре</w> 204988
комп ью 204906
чен а</w> 204839
цион но</w> 204839
со р 204741
трене р</w> 204737
обеспе чению</w> 204730
Кон ститу 204722
и ска 204701
вши сь</w> 204669
д но</w> 204587
ма ти 204577
большин ство</w> 204507
выпол нения</w> 204405
ген дер 204339
у ме 204219
ня ется</w> 204199
b er</w> 204185
пя ти</w> 204167
Ди на 203807
раз ных</w> 203760
199 6</w> 203607
Пути на</w> 203595
други м</w> 203544
с се</w> 203505
с не 203410
вя т</w> 203276
погиб ли</w> 203145
на н 203134
нача ль 203072
хоте л</w> 203066
го ди 203065
ну т</w> 203040
рай онах</w> 203021
от че 202999
ана логи 202920
тыся чи</w> 202898
ер ы</w> 202784
само го</w> 202758
со держи 202723
приня то</w> 202630
Феде раль 202504
за дол 202489
програм ме</w> 202430
e d 202415
се годняш 202402
организа ция</w> 202341
6 3</w> 202327
у ва 202275
хи ми 202205
зар пла 202169
ни ц</w> 202125
a k 202095
ти т</w> 202069
пол не</w> 201832
пла н</w> 201756
Александ ра</w> 201741
Секре та 201740
кон тек 201613
ки но 201583
бу дем</w> 201582
Й ор 201579
Га з 201544
га ми</w> 201542
г ря 201493
эффектив ности</w> 201485
за би 201478
сер ви 201464
х о</w> 201378
то ром</w> 201304
проку ро 201264
за пад 201167
Т ре 201092
которы ми</w> 201043
МИ Д</w> 200991
предприя тия</w> 200969
разработ ки</w> 200891
От ме 200762
парт нер 200755
ре я</w> 200752
ре ди 200601
Бе ла 200581
л ки 200528
интер нет</w> 200475
развива ющихся</w> 200414
А ль 200320
со зна 200178
фи кси 199951
у чены 199914
Ф о 199882
со жа 199863
а ли 199808
В ен 199703
сай т</w> 199547
жден ы</w> 199489
позволя ет</w> 199478
ме ц 199441
м би 199391
я р 199327
тр ени 199273
сли шком</w> 199256
и ско 199251
бизне са</w> 199204
М ан 199119
w h 199018
парла мен 198964
Мак си 198948
со н</w> 198865
ОО Н 198846
каче ства</w> 198776
перегово ры</w> 198727
ро ли</w> 198674
Ка на 198671
5 , 198302
ре да 198272
со всем</w> 198269
f or 198248
ня ет</w> 198223
А к 198128
смо гут</w> 198117
рова ться</w> 198097
ро ванию</w> 198085
ш лось</w> 198072
Ос нов 198059
ки тай 198055
каж ется</w> 197991
Га зе 197978
фото графи 197747
то л 197686
ди т</w> 197662
проводи ть</w> 197526
ко дек 197477
О АО</w> 197376
неф ть</w> 197357
представи теля</w> 197274
материа лов</w> 197220
государствен ной</w> 197219
про тя 197206
ма й 197181
сен а 197161
Пу нк 197025
компа ни 196944
П ор 196923
гото в 196873
про д 196856
ли на</w> 196711
т ную</w> 196683
c h</w> 196670
доступ а</w> 196668
каждо го</w> 196643
актив но</w> 196629
социаль ных</w> 196559
за цию</w> 196448
пен са 196436
де ти</w> 196421
харак тер</w> 196419
случа ев</w> 196340
ча сти 196303
вле н</w> 196293
россий ский</w> 196281
вос кре 196280
до маш 196242
процес се</w> 196231
Н ор 196115
стра нами</w> 196095
вы де 195998
агент ство</w> 195967
л л</w> 195913
ли н</w> 195860
& amp 195859
&amp ;</w> 195859
К ор 195791
У К</w> 195776
вз гля 195760
А б 195708
ща ть</w> 195683
сси й</w> 195638
соответству ющие</w> 195560
вопро са</w> 195556
ни на</w> 195550
спо со 195314
И сла 195247
полу чения</w> 195203
ствен ное</w> 195199
нало го 195184
прове л</w> 195149
u b 195095
Д он 195089
Е катери 195077
пози ции</w> 194912
под пи 194883
со действия</w> 194776
с вед 194679
ге ро 194582
по нен 194458
з вез 194417
По ль 194378
ря дом</w> 194363
О Б 194242
во лю 194236
ак ций</w> 194207
ми кро 194159
ра вен 193982
рассмотр ение</w> 193962
реа ги 193921
Бо ри 193814
са м 193689
наро дов</w> 193585
которо му</w> 193566
неде ли</w> 193510
суб бо 193498
понеде льник</w> 193448
продолжа ть</w> 193419
рекомен до 193396
т ку</w> 193384
контро ль</w> 193161
ше сть</w> 193044
пят ницу</w> 193038
прави ла</w> 192961
гаран ти 192889
кон так 192877
L ent 192796
ван ных</w> 192788
воз обно 192651
Ц СКА</w> 192635
предприя тий</w> 192624
г енераль 192500
M ay</w> 192444
хо к 192429
ска н 192426
нача ли</w> 192425
рован ные</w> 192337
исклю чи 192328
не посред 192199
корре спонден 192177
ар ти 192082
лен ных</w> 192060
В прочем</w> 192037
Пос ле 191944
рели ги 191909
эк спор 191816
россий ские</w> 191619
глав ный</w> 191610
ра то 191593
N e 191584
u t 191551
ран ьше</w> 191448
позволи т</w> 191288
мини му 191278
Ру с 191265
C . 191207
ло ва</w> 191192
политиче ской</w> 191125
стратеги и</w> 191021
осуществ ление</w> 191002
зая вила</w> 190876
рев но 190810
руководи тель</w> 190778
пла не</w> 190703
четыре х</w> 190612
Ю ж 190555
пла те 190519
ведом ства</w> 190457
энер гии</w> 190435
фор мули 190409
использо вание</w> 190065
мен но</w> 190056
хо чет</w> 190028
поясни л</w> 189952
ци ф 189918
Амери ки</w> 189834
б ка</w> 189771
источ ник</w> 189736
го й</w> 189718
результа тов</w> 189593
гра д 189545
т ном</w> 189526
поддерж ке</w> 189515
не давно</w> 189311
Ру ко 189309
объя сня 189205
основ ном</w> 189190
Иго рь</w> 189179
ти ем</w> 189142
Т П</w> 189118
ствен ная</w> 189038
ком пенса 189013
с кры 188963
а ссоциа 188956
став ку</w> 188953
докумен та</w> 188947
контро ли 188885
н ского</w> 188812
ф ы</w> 188781
зая вили</w> 188747
предлага ет</w> 188726
Де парта 188714
Ар м 188697
г на 188696
объек тов</w> 188672
ме тр 188670
ви ча</w> 188551
Коми ссия</w> 188510
ъ ек 188490
М ЧС</w> 188480
постоян но</w> 188449
учре ждения</w> 188249
Груп па</w> 188245
дж ет</w> 188125
на пря 188054
То гда</w> 187976
Е ги 187958
представля ет</w> 187859
ва лась</w> 187822
руковод я 187796
при ем 187731
про фи 187726
6 7</w> 187713
ста ди 187700
сооб щении</w> 187540
ля ции</w> 187459
гру зо 187437
специали стов</w> 187396
C h 187363
груп по 187344
в полне</w> 187342
о й</w> 187316
по стро 187205
ющи мся</w> 187184
мо га 187089
ло к</w> 187081
ко ле 187059
отно ся 187052
2 9 187018
заинтере сован 186998
бежен цев</w> 186998
город ской</w> 186786
н ений</w> 186780
Дина мо</w> 186768
6 1</w> 186759
ща ется</w> 186686
высо ко 186638
по то 186562
гово й</w> 186548
гото вы</w> 186498
по кры 186327
6 2</w> 186294
рез ер 186226
националь ного</w> 186212
раз ору 185970
меся ц</w> 185919
ле жит</w> 185912
сто лько</w> 185911
слу ша 185906
законода тельства</w> 185877
при надлежа 185835
обнару жи 185833
ве сь 185788
Lent a.ru</w> 185712
демон стри 185512
ми ли 185466
Д же 185438
ль я 185437
интере сах</w> 185408
ин циден 185387
весь ма</w> 185289
оте че 185285
И ва 185283
19 7 185255
выя сни 185113
ше ствия</w> 185046
су ди 184967
про ф 184935
м нение</w> 184865
оказа ния</w> 184780
стра нам</w> 184762
од ну</w> 184529
рас считы 184527
осуществ лению</w> 184498
ст р</w> 184455
говори л</w> 184451
подготов ке</w> 184451
быст ро</w> 184372
та ки</w> 184361
2 7 184351
технологи и</w> 184344
точ но</w> 184324
боле ль 184044
само й</w> 184012
re s 183994
Ч то 183922
не ц 183884
же ст 183854
сек суаль 183841
ста ти</w> 183709
З е 183690
провер ки</w> 183666
связа нные</w> 183633
a d</w> 183492
в ской</w> 183481
Re p 183316
исследо вания</w> 183224
О П 183202
ве сь</w> 183180
М А 183149
ti me</w> 183118
тех ники</w> 182966
экономи ческих</w> 182936
Газ про 182840
v er 182819
жд ений</w> 182640
за пу 182624
я с 182588
сла в</w> 182447
Д об 182403
официаль ный</w> 182398
I t</w> 182371
Е сть</w> 182367
ш ру 182314
6 , 182255
рабочи х</w> 182231
ть я</w> 182193
Ad d 182173
t r 182154
суще ство 182080
от ды 182026
б и</w> 181929
пор т</w> 181924
па лестин 181882
ста ми</w> 181879
то е</w> 181764
обяза тельств</w> 181708
б рь</w> 181672
пор та 181633
ликвида ции</w> 181590
напо мина 181434
Бо лее</w> 181320
бан ков 181303
проек ты</w> 181263
in g 181189
до сто 181182
u m 181179
ком мента 181107
объя сни 181102
ги я</w> 181021
ци тирует</w> 180995
у т</w> 180980
К е 180860
оче вид 180854
мужчи н</w> 180773
Что бы</w> 180768
Л ени 180766
Бела ру 180670
пре имуще 180632
по ро 180627
вя тся</w> 180534
ми н</w> 180495
хо в</w> 180345
си рий 180315
ка рь 180255
ку па 180217
Н О 180178
сто лич 180002
ч ку</w> 179970
ь е 179890
с может</w> 179879
лож ение</w> 179763
ци она 179758
го дах</w> 179720
До кла 179697
торго вл 179657
перио да</w> 179652
Н Р</w> 179611
д нев 179432
проис ходит</w> 179411
законода тель 179359
тив ным</w> 179317
фор ме</w> 179301
Г И 179256
обслужи вания</w> 179228
зе ме 179181
no w</w> 179179
сооб щения</w> 179039
вла стей</w> 178996
лимпи а 178989
со лю 178914
суще ствует</w> 178823
жден о</w> 178800
смер ти</w> 178723
государствен ного</w> 178687
нарко ти 178667
агент ства</w> 178626
уста навли 178391
строи ть</w> 178385
при дется</w> 178347
из у 178328
сво ими</w> 178267
со ревно 178249
про ходи 178189
лко го 178134
опы т</w> 178048
по казыва 177985
продолжа ет</w> 177974
ва ющих</w> 177842
у потреб 177826
Великобрита нии</w> 177784
аре сто 177769
ну л</w> 177721
требо вания</w> 177695
влен ы</w> 177667
ва лось</w> 177628
ви дов</w> 177625
персо на 177484
П О</w> 177483
За пад 177373
сторо н</w> 177275
вы игра 177230
A p 177217
ве т</w> 177183
. 0 177132
не га 177114
рова ла</w> 177111
ся т</w> 176939
на пом 176910
кра я</w> 176826
реги онов</w> 176792
режи ссе 176783
Международ ного</w> 176763
вы бро 176724
от да 176713
работа ют</w> 176712
Секрета риа 176695
не с</w> 176685
дви жение</w> 176665
в ступи 176638
ше му</w> 176598
мо ти 176484
заседа ние</w> 176433
Интерфак с</w> 176427
Со чи</w> 176394
глав ным</w> 176362
щ и</w> 176260
Л он 176214
полож ений</w> 176198
6 6</w> 176128
мени ть</w> 176085
ре ц 176054
Ва ле 175963
осуществ лении</w> 175883
комму ника 175883
та кая</w> 175797
рас че 175789
ши ми</w> 175785
Не смотря</w> 175774
втор ник</w> 175724
Тур ции</w> 175663
бу ма 175478
секто ра</w> 175473
ско р 175353
мож ем</w> 175282
буду щем</w> 175181
производ ство</w> 175104
л га 175092
докла д 175014
разработ ке</w> 174939
ви д</w> 174892
пер ен 174872
привле ка 174804
о про 174708
руковод ство</w> 174708
тиче ского</w> 174658
зи я</w> 174561
п ро</w> 174525
ль ности</w> 174466
ста нов 174414
фон д</w> 174402
отнош ение</w> 174359
Госду мы</w> 174301
но вым</w> 174262
до ва 174214
сси ю</w> 174164
председа теля</w> 174161
суб ъек 174112
испол ни 174036
ч ник</w> 173985
А ф 173971
конфлик та</w> 173938
мар шру 173874
С И 173852
Укра ин 173750
ми тин 173736
реши ли</w> 173647
внутрен них</w> 173557
Ассамбле я</w> 173550
рован ной</w> 173503
обе споко 173417
про я 173380
к роме</w> 173227
у доб 173221
потер я 173197
ра ст 173189
Серге я</w> 173092
Сред и</w> 173029
сотрудниче стве</w> 172964
клу б</w> 172822
ди на</w> 172804
де кла 172728
а н</w> 172725
заседа ния</w> 172668
автомоби лей</w> 172661
u s</w> 172659
on e</w> 172571
стави ли</w> 172560
не мец 172536
не те</w> 172520
вне д 172432
проси л</w> 172431
По ка</w> 172383
ш у</w> 172324
т ными</w> 172251
четвер г</w> 172094
стра на</w> 172062
лич но</w> 171992
то рин 171985
ц ей</w> 171905
Pos ted</w> 171823
СС СР</w> 171809
М ур 171743
Росси ей</w> 171692
гото ви 171587
слу чи 171539
ме сти 171496
по ставлен 171461
in e</w> 171452
круп ных</w> 171435
Ц Б</w> 171349
мен е 171155
по лез 171124
бое ви 171118
во му</w> 171104
раз ру 171023
Г У</w> 170968
6 8</w> 170957
ми ру</w> 170956
над ца 170919
ра ти 170855
ж ет</w> 170844
с ку</w> 170817
с нова</w> 170791
внима ния</w> 170755
по хо 170672
о не 170573
плани руется</w> 170571
организа циями</w> 170524
й дут</w> 170493
жен ности</w> 170452
М не</w> 170446
контек сте</w> 170391
кли ма 170272
П я 170270
воскре сен 170253
ге о 170234
лю б 170231
подоз рева 170203
прави ло</w> 170126
ста ра 170062
хо ждения</w> 170023
d ay</w> 169980
в шая</w> 169961
та бли 169917
исследо ваний</w> 169912
пла на</w> 169888
фор мы</w> 169853
вла ст 169732
публи ка 169612
С от 169587
обяза тельства</w> 169568
ма ль 169551
Петербур ге</w> 169479
пре вра 169387
Ш и 169349
ориен ти 169311
долж ность</w> 169302
координа ции</w> 169255
дале ко</w> 169251
Медведе в</w> 169240
отмети ть</w> 169224
в чера</w> 169200
а лкого 169168
зая вления</w> 169113
осно ван 169035
p h 169024
ст .</w> 169023
ен ность</w> 168943
зда ние</w> 168907
оп ти 168804
инвести ций</w> 168624
самы й</w> 168611
ту ру</w> 168584
диви ду 168556
следу ющие</w> 168540
произо шел</w> 168486
ро з 168482
пра вах</w> 168473
само е</w> 168449
фри кан 168344
Г А 168201
глу бо 168199
во круг</w> 168164
Д ТП</w> 168138
региональ ного</w> 168090
Лон до 168088
че скими</w> 168007
споко й 167994
млр д.</w> 167980
при еха 167956
экспер ты</w> 167942
зер бай 167879
Ко не 167867
наш его</w> 167755
проси т</w> 167717
зербай джа 167701
er e</w> 167688
эк спе 167667
по н 167629
граждан ского</w> 167599
ст ен 167595
миро вой</w> 167589
Г и 167523
по ко 167469
С Е 167455
рас смотреть</w> 167449
п ти 167375
В месте</w> 167327
к нов 167322
p l 167261
ж ные</w> 167241
ж ением</w> 167221
Про ек 167055
кон цеп 167001
соста ва</w> 166961
при шлось</w> 166909
щен ы</w> 166716
вы гля 166704
т ви 166682
по вре 166405
Б рази 166322
участи ем</w> 166267
ме ша 166211
това ров</w> 166208
а фрикан 166176
сдела л</w> 166152
дви жи 166018
да лее</w> 165984
зда ния</w> 165974
дан ной</w> 165965
вы ну 165939
ба лан 165840
о собо 165786
х е</w> 165712
удовлет во 165707
Г ри 165633
бо й 165624
м ной</w> 165619
ли зи 165587
сообща лось</w> 165570
вши еся</w> 165565
члена ми</w> 165482
Пунк т</w> 165473
а уди 165407
на ш</w> 165396
режи ма</w> 165325
по ис 165324
зависи мости</w> 165255
строи тель 165231
т ских</w> 165226
c on 165197
d o 165031
совмест но</w> 165024
воз ника 165003
милли она</w> 165001
С К</w> 164892
пробле ма</w> 164821
ля ть</w> 164820
усили й</w> 164702
пе л 164694
поль зу</w> 164521
О ль 164509
измен ений</w> 164487
раз бира 164449
приходи тся</w> 164416
199 3</w> 164241
с част 164180
ступ ления</w> 164102
Евг ений</w> 164045
К ур 164000
p ro 163985
ко пи 163919
Ка н 163911
груп пе</w> 163909
лен ь 163880
россия н</w> 163877
реали зо 163870
упо мя 163843
бо га 163791
аб солю 163711
е шь</w> 163607
щ а</w> 163570
ко вой</w> 163508
д вое</w> 163442
не правитель 163411
К С</w> 163354
от мен 163300
Ф А 163297
государ ствами</w> 163285
Никола й</w> 163260
бе д 163219
б ре 163190
ть я 163154
со з 163142
согла ш 163139
тер на 163131
по ступа 163115
Ком мер 163109
совеща ния</w> 162996
потре бо 162987
де рев 162944
груп пи 162937
бы вший</w> 162878
О ба 162838
пу те 162659
кри ти 162606
ро вании</w> 162567
о пи 162562
все ми</w> 162463
вто ром</w> 162433
ни ще 162385
пре дела 162366
О Р 162291
се ть</w> 162283
с наб 162263
пол ной</w> 162257
ин дивиду 162230
еди но 162160
таль ян 162103
укреп ления</w> 162082
шин г 162014
три бу 161937
ч ений</w> 161911
ро да</w> 161880
мони торин 161850
з ен 161844
т рас 161814
т ского</w> 161797
ка за</w> 161741
Д ан 161717
ху д 161566
согла шение</w> 161534
при зы 161376
исследо ва 161363
по ве 161358
хот ят</w> 161278
бю джет</w> 161222
Ю НИ 161199
И с 161169
чу ть</w> 161169
работа л</w> 161150
пред назна 161111
c ur 161088
ст я</w> 161062
газе та</w> 160974
л ла 160953
от личи 160795
у деля 160772
це ль</w> 160748
Все го</w> 160714
спа са 160665
во спо 160657
э пи 160638
ми ся</w> 160619
про доволь 160573
ру дни 160565
хок ке 160563
ра л</w> 160394
води тель</w> 160380
за плани 160359
Н Д 160336
побе ду</w> 160336
маш ины</w> 160265
воен но 160238
ри л</w> 160235
щи ки</w> 160145
матери аль 160121
Организа ция</w> 160090
столи цы</w> 160043
И ль 159956
предложи л</w> 159926
охра ны</w> 159834
оказа лся</w> 159812
ство вали</w> 159798
у г 159769
ля н 159765
ми нима 159744
люд ьми</w> 159735
t s</w> 159711
кла ды 159708
p or 159637
п ин 159622
кризи са</w> 159537
дово льно</w> 159523
ще н</w> 159500
ar e</w> 159485
ле том</w> 159477
Об ще 159402
Ю рий</w> 159314
НА ТО</w> 159231
оборудо вания</w> 159212
И менно</w> 159206
област ях</w> 159108
Кита й</w> 159104
тель ном</w> 158901
требу ет</w> 158845
реши ть</w> 158762
за мен 158663
нача л</w> 158627
ли цен 158610
ядер ного</w> 158573
тон н</w> 158516
ми н 158514
Б ри 158468
социаль ного</w> 158369
се мей 158309
реши л</w> 158285
значи т</w> 158263
ком на 158227
кла сси 158200
продук тов</w> 158138
фут боль 158108
ли зо 158079
гря з 158011
Д жа 157994
вмест о</w> 157899
теле фон 157894
дру з 157887
неде ле</w> 157876
Та м</w> 157801
встре че</w> 157713
Х Л</w> 157665
переда чи</w> 157643
ек ла 157627
Ва шинг 157626
работ ников</w> 157552
наб люд 157495
и но 157489
ощ у 157487
послед нее</w> 157422
необходи мые</w> 157416
су пру 157396
L . 157388
У В 157382
де р</w> 157351
бы вшего</w> 157320
кра т 157273
но чь</w> 157250
сове т</w> 157228
ро ждения</w> 157197
при чем</w> 157123
прода жи</w> 157037
дека бре</w> 157035
4 00</w> 157031
осно вании</w> 157023
наз вал</w> 156986
значи тельно</w> 156961
кто ра</w> 156924
i a</w> 156920
воскресен ье</w> 156920
тю рь 156888
т ность</w> 156771
сла в 156759
протя жении</w> 156703
ограни чи 156701
b e 156693
М он 156645
не возможно</w> 156640
мужчи на</w> 156541
ч ью</w> 156491
жд ению</w> 156479
потреб ностей</w> 156453
отсут ствие</w> 156446
Ка ли 156393
докумен те</w> 156380
поку п 156379
н ным</w> 156351
В О 156343
печа т 156334
за хва 156292
д ни</w> 156276
Постоян ный</w> 156250
раз гово 156241
результа т</w> 156129
б ен 156073
Ви ктор</w> 156019
з во 156003
о ф 155901
вани ям</w> 155869
санк ций</w> 155801
большо е</w> 155785
с да 155669
до мов</w> 155536
пусти ть</w> 155508
каса ющихся</w> 155474
функ циони 155454
стра ну</w> 155444
расследо вания</w> 155425
не сти</w> 155411
нару шение</w> 155347
дан ного</w> 155336
er s</w> 155245
ност ями</w> 155217
следстви я</w> 155204
совер ши 155061
o u</w> 155056
жи тели</w> 155044
второ го</w> 154967
емы м</w> 154966
следстви е</w> 154959
наруш ений</w> 154944
пар ти 154941
сообще ства</w> 154850
при над 154835
правитель ством</w> 154830
санк ции</w> 154735
дума ю</w> 154648
С ен 154590
последни х</w> 154565
1 50</w> 154559
Н у</w> 154543
ближай шее</w> 154536
пред ложен 154521
образо вание</w> 154502
со ли 154491
ж ден</w> 154447
Е Л 154439
д нее</w> 154428
особ ен 154375
са д 154368
рова на</w> 154348
о ч 154334
хозяй ства</w> 154323
бо к</w> 154299
депута т</w> 154283
ва й 154277
вы ез 154242
Rep ly</w> 154109
работ ки</w> 153958
Прави тельство</w> 153947
г ло</w> 153922
голосо вания</w> 153918
ре кор 153889
О лимпиа 153856
материа лы</w> 153853
ко бы</w> 153755
зо ны</w> 153755
наро да</w> 153670
отмети ла</w> 153654
пере ме 153644
у т 153559
тен ден 153533
ль ными</w> 153465
сезо на</w> 153395
Коммер сан 153386
Россий ская</w> 153354
суббо ту</w> 153338
сезо не</w> 153306
А зии</w> 153298
ва дца 153280
у го 153247
у си 153181
испол нитель 153141
различ ные</w> 153139
О дин</w> 153104
Испо л 153095
го тов</w> 152944
Извести я</w> 152904
Но вые</w> 152829
ф ло 152778
м ской</w> 152770
тив е</w> 152754
Н Ы 152738
ци ен 152714
боль шие</w> 152708
пропа ган 152704
много числен 152691
лы м</w> 152640
зая вля 152632
с ного</w> 152612
рекоменда ций</w> 152568
губерна тора</w> 152554
индивиду аль 152509
р ению</w> 152457
депута тов</w> 152455
Кита я</w> 152404
столи це</w> 152272
кор пора 152257
си льно</w> 152245
глав ного</w> 152148
Оле г</w> 152136
кур с</w> 152123
рав но</w> 152122
помо чь</w> 152077
под ня 152055
ре сто 151949
вши йся</w> 151850
су де</w> 151848
зна ко 151828
бу дь</w> 151815
а гре 151774
обсу ждения</w> 151715
не сен 151710
совершен но</w> 151532
соответ ственно</w> 151471
мя г 151442
ве ка</w> 151431
а каде 151427
v e</w> 151411
само стоя 151333
се ссия</w> 151303
t o 151250
В А 151187
на стро 151181
созда нии</w> 151179
особ о</w> 151148
президен том</w> 151147
стои мости</w> 151146
самы е</w> 151117
до ме</w> 151099
масшта б 151097
С лу 151095
запре щен 151072
ъ ем 151052
Т ри 151047
За па 150935
стави л</w> 150872
Меж ду</w> 150828
се реди 150821
став лен</w> 150816
эта пе</w> 150772
жда ть</w> 150770
полити ке</w> 150743
ф ин 150734
не движи 150694
т ков</w> 150692
тиче ские</w> 150689
религи оз 150655
л ке</w> 150599
Коне чно</w> 150544
из бра 150510
де ше 150482
та ет</w> 150477
объ ем 150476
ресур сы</w> 150470
участво вать</w> 150425
дополнитель ные</w> 150399
б ран 150320
по ле 150174
в ся 150157
н ением</w> 150082
Ж ене 150076
все му</w> 150013
на кануне</w> 149921
Кре м 149914
заседа ний</w> 149887
состоя ние</w> 149877
С об 149847
реги онах</w> 149845
обязан ности</w> 149783
ка д 149757
не н</w> 149725
край не</w> 149714
мо мента</w> 149711
военно служа 149652
оказа лись</w> 149646
По мимо</w> 149607
По лу 149598
Во ро 149590
г ни 149571
пря мо</w> 149475
бло ки 149361
ч ь 149318
Пер вый</w> 149309
П ен 149262
состави л</w> 149245
минист ров</w> 149184
чемпиона те</w> 149028
Ком па 149011
фор миро 148979
повы шение</w> 148977
бо р</w> 148963
ки но</w> 148959
раз вед 148932
кон ститу 148932
зая ви 148809
пе тен 148756
предста вления</w> 148745
cur r 148744
ти ла</w> 148736
филь м</w> 148692
мигра нтов</w> 148677
Япо нии</w> 148673
вос пита 148669
ви ду</w> 148631
сох ран 148585
долго сро 148569
нов ую</w> 148553
неф те 148473
oo k</w> 148429
па три 148419
инфра структуры</w> 148388
устойчи вого</w> 148340
6 9</w> 148318
h t</w> 148293
Ин форма 148272
Сот рудни 148268
Ф ин 148231
финансо вой</w> 148228
сен тябре</w> 148187
парла мента</w> 148184
Аф гани 148172
не одно 148169
ван ной</w> 148158
провед ении</w> 148075
а вари 148060
получи ла</w> 148042
си н 148035
во да</w> 147882
пунк тов</w> 147824
Кон стан 147823
коми ссия</w> 147757
сторо ну</w> 147692
стано вится</w> 147682
харак тера</w> 147632
неде лю</w> 147493
став ка</w> 147350
аль терна 147332
o f 147306
юще йся</w> 147230
Коро лев 147227
1 2 147218
каж дой</w> 147218
оцен ке</w> 147150
co m 147143
ве ли</w> 147115
источ ников</w> 147097
не ц</w> 147080
последстви я</w> 147070
се рии</w> 146870
вше йся</w> 146870
пре крас 146861
би о 146809
международ ным</w> 146781
бо м 146677
па ми</w> 146674
департа мента</w> 146674
7 , 146667
правоохранитель ных</w> 146655
со прово 146595
се мина 146547
мо гу</w> 146538
со бесе 146526
жен а</w> 146507
фо не</w> 146495
интегра ции</w> 146457
про вин 146420
бан ков</w> 146415
а м 146351
орга нами</w> 146305
Э С</w> 146301
ми ссии</w> 146242
преступ лений</w> 146238
ло га</w> 146233
мо но 146229
ц ар 146219
смо гли</w> 146207
сло жи 146153
доби ться</w> 146136
вне с 146129
от ли 146093
д ной</w> 146073
зада чи</w> 146070
сою з</w> 146068
Э К</w> 146061
участ ник</w> 146048
Т ор 146047
зо не</w> 146031
догово рен 145923
Ф ор 145859
я кобы</w> 145856
последстви й</w> 145811
основ ной</w> 145790
транспор тных</w> 145765
вше гося</w> 145751
озна чает</w> 145740
закон чи 145733
ц ем</w> 145731
потен циаль 145730
я ся</w> 145672
с мыс 145605
ти ка</w> 145549
вкла д</w> 145514
социаль но</w> 145503
Ш ве 145459
вы сказа 145455
О т</w> 145423
ati on 145417
женщи на</w> 145410
те рак 145318
no t</w> 145290
ж ного</w> 145288
ди й</w> 145283
вы ро 145268
боль шая</w> 145243
перио ди 145239
т ник</w> 145198
ту да</w> 145191
па циен 145170
го сти 145157
промышлен ности</w> 145155
Эк спер 145141
Север ной</w> 145070
Ана то 145001
ко раб 144967
t h</w> 144949
ни ке</w> 144934
руковод ства</w> 144932
н ский</w> 144903
по хи 144888
мар те</w> 144867
плани рует</w> 144837
пере се 144811
п ля 144810
обра щения</w> 144739
З десь</w> 144714
вече ром</w> 144710
ту р</w> 144667
лиде р</w> 144603
конкре тных</w> 144601
полити ка</w> 144559
ми я</w> 144489
деся ти 144284
специали зи 144243
официаль но</w> 144143
каса ющиеся</w> 144083
ва ем</w> 144077
зада ч</w> 143984
о собы 143961
ком понен 143873
законо проект</w> 143828
ent ly</w> 143640
по ря 143552
эксплу а 143518
виде о 143417
ар мии</w> 143389
вы ход 143380
печа ти</w> 143366
согла сован 143327
ката стро 143302
даль ше</w> 143286
полномочи й</w> 143274
у к 143218
род ствен 143162
Па ри 143151
харак тери 143085
про долж 143057
совершен ство 142988
e p 142982
ре мо 142982
кар ти 142859
ла д 142844
дис ку 142844
ком петен 142821
сто к</w> 142802
Ир ку 142795
т ке</w> 142775
обла сть</w> 142718
ча са</w> 142710
ре волю 142677
1, 5</w> 142655
о прав 142561
гла ве</w> 142533
пред ъя 142525
образо ва 142509
ма лень 142380
ne ws</w> 142228
ва ку 142202
жи ли 142150
ше н</w> 142111
Груп пы</w> 142102
техниче ского</w> 142089
обы чно</w> 141923
Ита лии</w> 141920
ре м</w> 141896
виде о</w> 141891
ар би 141886
Ми но 141880
под ро 141875
Кон сульта 141840
ну жда 141828
пси хо 141721
Мно гие</w> 141700
Ш вей 141693
о писа 141689
дол го</w> 141676
возра сте</w> 141674
собы тий</w> 141652
Исто чник</w> 141646
распростра нения</w> 141641
доро ги</w> 141610
последни й</w> 141527
Ав стра 141518
Генераль ная</w> 141506
информа цией</w> 141502
му зе 141344
пи ло 141306
га з</w> 141296
уче та</w> 141277
9 5</w> 141234
дер ж 141229
мо шен 141169
Д ени 141116
распо лага 141089
ба зы</w> 141070
встре ча 141010
имуще ства</w> 140992
государ ствам</w> 140975
раз о 140821
Афри ки</w> 140809
с ные</w> 140658
о ни 140653
Ин ститу 140562
бу д 140340
при бли 140329
руководи теля</w> 140325
сро ки</w> 140293
И х</w> 140292
з мом</w> 140289
Ю жной</w> 140282
ж ный</w> 140258
жен ность</w> 140258
сум ма</w> 140236
молодеж и</w> 140207
Р К</w> 140198
Петербур га</w> 140123
и тальян 140072
кла с 140011
показа тель</w> 140008
содержа ния</w> 139925
из ъя 139922
янва ре</w> 139922
Международ ной</w> 139853
До нец 139826
руковод ством</w> 139794
вер то 139755
Х и 139741
ht m 139734
раз до</w> 139570
рай онов</w> 139566
пре следо 139551
пред стоя 139545
дву мя</w> 139497
расска зывает</w> 139414
д ри 139382
занима ться</w> 139357
ма на</w> 139305
встре ти 139302
7 7</w> 139298
про ходит</w> 139254
П рав 139235
автомоби ль</w> 139219
p er 139205
Б лаго 139093
напра влении</w> 138935
пер вым</w> 138903
e x 138869
д нем</w> 138820
199 0</w> 138808
заклю чения</w> 138753
о лимпий 138750
я з 138689
А зербайджа 138612
защит ник</w> 138528
ка ким</w> 138511
До гово 138472
игро ков</w> 138458
следу ющий</w> 138454
утвержда ет</w> 138407
r a 138401
i d 138339
мед лен 138283
ма е</w> 138279
l d</w> 138276
кандида тов</w> 138183
Сле д 138163
С вя 138053
м ского</w> 137978
ста и 137973
Д екла 137963
объем лю 137939
при вы 137895
лиц о</w> 137874
кла сса</w> 137846
объе ма</w> 137845
лож ения</w> 137843
от чет 137837
мо дер 137744
ох ран 137729
Ве дь</w> 137715
служ б</w> 137697
ци к 137696
b y</w> 137682
тель ными</w> 137652
заклю чи 137618
предусматри вает</w> 137614
он ы</w> 137598
го вари 137538
воен ной</w> 137511
Со единенных</w> 137449
ри ца 137400
То лько</w> 137374
r an 137357
раи ль 137354
тре х 137220
ка нал</w> 137192
посред ством</w> 137169
htm l</w> 137139
ма ло 137051
про смо 136899
че сть</w> 136897
ро шенко</w> 136847
при мени 136677
те п 136620
отде ла</w> 136615
ти па</w> 136568
оши б 136564
регистра ции</w> 136533
Мур ман 136443
функ ции</w> 136426
Кры ма</w> 136393
упомя ну 136357
curr ently</w> 136354
отде льных</w> 136302
ку н 136292
th at</w> 136278
Генераль ный</w> 136275
защи ту</w> 136222
ост ров 136194
ВИ Ч</w> 136193
д вадца 136179
поддержа нию</w> 136147
ге р</w> 136146
принима ет</w> 136109
мно же 136079
до ля</w> 136048
A n 135992
потер пе 135934
ба зо 135915
ру ются</w> 135896
из раиль 135882
P . 135869
реш ении</w> 135845
ба зе</w> 135833
О Д 135783
не много</w> 135764
но вое</w> 135755
вырази л</w> 135752
рован ного</w> 135750
it y</w> 135681
им пор 135605
право вой</w> 135596
Кон вен 135567
турни ра</w> 135520
подготов ку</w> 135496
жи ву 135494
у ника 135386
лан дии</w> 135361
состави ла</w> 135349
7 . 135297
про шед 135261
пре о 135238
отмети ли</w> 135205
пенси он 135203
жа ют</w> 135105
ве н</w> 135060
ди к 135025
желез но 135010
Специаль ный</w> 134992
ожида ется</w> 134902
груп пу</w> 134901
миниму м</w> 134898
ство вал</w> 134890
вну три</w> 134882
ря ду</w> 134879
Б ли 134782
рас кры 134764
мень шин 134756
зна мени 134670
то сти</w> 134666
гос пита 134653
пассажи ров</w> 134650
О к 134591
худо ж 134558
коман де</w> 134462
в ского</w> 134451
прове ли</w> 134436
Бело ру 134396
смо три 134309
за ле</w> 134305
ко вых</w> 134220
об ходи 134206
Докла д</w> 134194
Моск ву</w> 134175
экспер т</w> 134126
at e</w> 134123
0 0 134119
Ка м 134118
е мая</w> 134113
догово ра</w> 134100
собесе дни 134086
приня ла</w> 134063
бе зу 133983
требо ваний</w> 133977
по вто 133949
Бо лга 133877
техниче ской</w> 133840
о фор 133802
основ ные</w> 133775
жерт в</w> 133754
образ и 133738
принци пов</w> 133698
практи ки</w> 133689
пес ни</w> 133675
p e 133634
стату с</w> 133616
Проек т</w> 133603
в ский</w> 133589
Е НИ 133584
Н у 133541
режи м</w> 133533
ва рии</w> 133499
К А 133468
О лимпий 133461
тив ное</w> 133454
уве рен</w> 133426
за в 133390
до но 133388
прось бой</w> 133373
л ла</w> 133362
мо з 133358
назна чения</w> 133324
не извест 133296
о ло 133289
нау ки</w> 133274
ть ми</w> 133177
щи еся</w> 133139
рав но 133128
сво е 133048
благо прия 133047
Прав да</w> 133043
со ц 133013
8 , 132996
Не которые</w> 132989
сер д 132977
предоста вления</w> 132974
Ма ри 132855
го раздо</w> 132833
из обра 132827
ше к</w> 132792
щи ми</w> 132725
р ных</w> 132714
Д аль 132698
де тьми</w> 132661
мест ного</w> 132640
ти ях</w> 132636
сим во 132592
от рица 132519
ПР ООН</w> 132506
се ме 132487
та мож 132411
на пада 132401
хо дом</w> 132345
написа л</w> 132312
к в 132298
я че 132277
бе спо 132271
прилож ение</w> 132261
со т 132238
дополнитель ных</w> 132211
жиль я</w> 132208
устрой ства</w> 132198
Со циаль 132190
консульта ции</w> 132186
дан ном</w> 132154
фак ту</w> 132126
метр о</w> 132082
со вой</w> 132038
тя м</w> 132006
ТА Р</w> 131966
R A 131879
под ход</w> 131851
коман ду</w> 131788
ко смо 131776
д я</w> 131726
u m</w> 131557
уров нях</w> 131530
за фикси 131524
про комменти 131430
й ского</w> 131414
8 5</w> 131341
мо л 131318
за рубе 131204
раз би 131198
ти ва</w> 131195
си бир 131195
реш ению</w> 131190
сооб щение</w> 131148
пози цию</w> 131121
ноя бре</w> 131105
сси ей</w> 131075
ка ра 131052
дина ми 131040
ру ки</w> 131039
зыва ют</w> 130880
полити ку</w> 130830
горо дов</w> 130815
сожа лению</w> 130795
апре ле</w> 130775
ресто ра 130728
поря док</w> 130616
зна ю</w> 130571
модер ни 130563
ле те 130539
международ ном</w> 130539
зада ча</w> 130457
С Н 130410
нача льник</w> 130405
х у</w> 130378
наш ли</w> 130357
оборо т</w> 130355
чен ный</w> 130270
устано вить</w> 130216
би ли 130208
кор енных</w> 130206
С Б</w> 130115
го ря 130027
созда нию</w> 130018
Бы ло</w> 130006
ию не</w> 129924
ссы ла 129915
энер го 129894
уве до 129872
Швей ца 129871
кла д 129862
кон венции</w> 129857
Сто и 129852
автомоби ля</w> 129849
8 . 129813
пла т 129749
У же</w> 129682
наказа ния</w> 129597
I m 129585
Министер ство</w> 129581
о забо 129439
ai f 129404
ту га 129401
собствен ности</w> 129367
s e 129355
удовлет вор 129276
сообща ется</w> 129238
обви нения</w> 129220
опреде ления</w> 129217
ща ет</w> 129203
цен а</w> 129201
националь ном</w> 129201
приве сти</w> 129199
воз ме 129194
экспе ри 129112
мо гла</w> 129105
пер вое</w> 129063
М ек 129038
поня ть</w> 129008
сказа ла</w> 129001
На род 128988
д не 128971
л ку</w> 128946
финансо вые</w> 128940
ту ю</w> 128931
ла гер 128925
Вол го 128924
бе ло 128811
исключи тельно</w> 128671
пла ты</w> 128657
ча ще</w> 128628
да ют</w> 128608
нача ть</w> 128607
воен ные</w> 128599
че ства</w> 128466
al l</w> 128440
носи ть</w> 128404
не та</w> 128379
Коммерсан т 128375
С ло 128318
отме чается</w> 128318
ше сти</w> 128317
част ью</w> 128308
министер ства</w> 128298
9 , 128221
сцен а 128187
er v 128184
контра кт</w> 128183
М К</w> 128156
ка нала</w> 128132
со стоит</w> 128096
се т</w> 128037
ве дет</w> 128032
про ез 128008
р ю</w> 127956
молоды х</w> 127930
равен ства</w> 127862
мо ре</w> 127836
но вая</w> 127829
выпол ня 127819
де та 127812
С ко 127767
це ля 127727
все объемлю 127720
об ли 127503
су дов</w> 127502
с выше</w> 127471
фак тически</w> 127427
ущер б</w> 127347
пла тить</w> 127296
н ная</w> 127252
мо стью</w> 127236
погиб ших</w> 127221
вооружен ных</w> 127160
отме чают</w> 127135
се й</w> 127085
на ра 127080
Т имо 127040
полож ении</w> 127038
Фи ли 127002
Мо л 126885
У част 126850
По рошенко</w> 126842
Ви та 126776
клима та</w> 126752
ж ности</w> 126718
люд ям</w> 126671
чи ки</w> 126564
вариан т</w> 126548
хо ду</w> 126524
aif .ru</w> 126498
ссе й 126489
Ки е 126454
стол кнов 126437
пре пода 126354
кре пи 126353
Де мокра 126351
по пыта 126329
ок тябре</w> 126299
Рабо чей</w> 126281
ис че 126248
о казывать</w> 126229
нару ши 126214
ве ло 126208
ф рон 126198
с ведения</w> 126186
Коммерсант ъ</w> 126175
международ ные</w> 126014
от пу 125998
инициа тивы</w> 125972
глав ное</w> 125933
говори ли</w> 125929
Глав ный</w> 125923
ле кар 125896
вос ь 125855
делега ции</w> 125809
приня тие</w> 125710
сокра щения</w> 125709
специали сты</w> 125705
поправ ки</w> 125700
на вер 125699
кра тно</w> 125664
Х ар 125567
ли ш 125540
использо ванием</w> 125535
рекомен дует</w> 125530
мест ные</w> 125519
противо ре 125511
вы хода</w> 125510
ра ви 125508
Ан г 125503
не р</w> 125488
Испа нии</w> 125454
Ку бка</w> 125410
коми сса 125410
двух годи 125395
7 2</w> 125377
сум мы</w> 125369
состоя нию</w> 125343
в ку</w> 125281
Республи ке</w> 125279
комплек са</w> 125258
По чему</w> 125227
прокура туры</w> 125209
филь ма</w> 125202
моде ли</w> 125194
С парта 125160
ди ла</w> 125156
хо м</w> 125148
Ж е 125141
вы дви 125140
вла сть</w> 125134
об станов 125117
лен о</w> 125093
g r 124997
э й 124983
Е Р 124977
обществен ного</w> 124958
.R U</w> 124918
с ке 124900
спор т</w> 124900
приобре т 124893
механиз мов</w> 124883
но вом</w> 124824
зависи т</w> 124818
кра си 124815
э кра 124775
за про 124729
состоя ния</w> 124668
Москов ской</w> 124642
е сте 124616
больш ую</w> 124616
процеду р</w> 124605
th is</w> 124603
рь е 124545
ли тера 124544
пред стоит</w> 124504
над зора</w> 124467
лет них</w> 124407
ра ция</w> 124380
безопас ность</w> 124367
показа телей</w> 124365
М ООН 124342
при ез 124329
скон ча 124273
теа тра</w> 124268
х ар 124264
февра ле</w> 124252
совершен но 124247
мен том</w> 124143
связ ь</w> 124130
но мер</w> 124126
очеред ной</w> 124101
М ер 124097
ou r 124076
режи ме</w> 124048
Упра вление</w> 124048
причи ной</w> 124047
рефор мы</w> 123998
пу ть</w> 123976
увели чение</w> 123926
Л око 123916
иг ру</w> 123913
сред нем</w> 123852
Рабо чая</w> 123851
пло хо</w> 123835
i i</w> 123806
wit h</w> 123784
с нима 123631
рассказа ли</w> 123627
иг ры 123597
ен ные</w> 123574
до ходов</w> 123567
С А 123480
ле ц</w> 123468
делега ция</w> 123447
сло вно</w> 123294
th e 123288
ложи ть</w> 123224
следу ющем</w> 123196
ско хозяй 123156
э ваку 123136
ен ко</w> 123088
носи т</w> 123079
По л 123067
семе й</w> 123048
Руко вод 123037
an d 123006
Нор ве 122924
ВВ П</w> 122920
Европей ского</w> 122916
со действие</w> 122914
соблюд ения</w> 122877
в печат 122837
цион ное</w> 122712
проек ту</w> 122711
Н ет</w> 122709
рассказа ла</w> 122674
ка би 122671
перво нача 122670
отде ления</w> 122567
у тром</w> 122548
зе лен 122545
расши рения</w> 122532
жиз нен 122430
Со л 122401
само лета</w> 122366
Су д</w> 122361
Т ран 122334
э фи 122266
возду ха</w> 122261
пострада вших</w> 122218
объе ме</w> 122215
анали за</w> 122213
e v 122170
Да же</w> 122169
а раб 122145
боль шим</w> 122126
ис ла 122125
заклю чается</w> 122122
с ва 122063
вы ска 122042
по льзу 122013
A r 121978
по к</w> 121951
стать я</w> 121915
че скому</w> 121896
а на</w> 121832
те т</w> 121797
рован ный</w> 121729
слож ности</w> 121697
п лю 121676
боро ны</w> 121653
са ма</w> 121630
элек три 121624
консульта ций</w> 121619
про тив 121568
пунк ты</w> 121568
Дон ба 121560
сдела ли</w> 121516
сто ль</w> 121508
се кун 121500
настоя тельно</w> 121493
ющи йся</w> 121454
ту рец 121394
федераль ного</w> 121380
наш а</w> 121362
расследо вание</w> 121350
американ ских</w> 121326
состави т</w> 121325
побе ды</w> 121319
сту ю</w> 121309
веще ств</w> 121303
ограни чения</w> 121281
. or 121274
щ ением</w> 121256
высо кого</w> 121237
сам ми 121219
р ной</w> 121212
показа тели</w> 121202
ра до 121201
Мек си 121191
докла дов</w> 121110
а сси 121046
пере жи 120945
.R u</w> 120918
поддержи вает</w> 120844
еха ть</w> 120782
сло жно</w> 120757
ни ла</w> 120755
ки па 120734
лиде ров</w> 120713
интере с</w> 120707
при е 120698
рабо чей</w> 120691
хо л 120675
вы бра 120669
началь ника</w> 120655
ин нова 120621
клиен тов</w> 120621
воен ного</w> 120578
Ч у 120565
С па 120557
д вер 120537
Та тья 120476
ствен ными</w> 120470
оппози ции</w> 120436
ль го 120419
Ли ги</w> 120415
Герма ния</w> 120402
рас смотре 120358
призна л</w> 120344
По з 120305
О фи 120294
дела ет</w> 120283
прош ли</w> 120234
по обеща 120203
способ ности</w> 120182
ou t</w> 120125
ат мо 120121
отме ча 120098
сче та</w> 120076
об ща 120074
в ру 120020
пита ния</w> 119965
проис шествия</w> 119910
част ных</w> 119877
до говори 119763
Сторо н</w> 119745
И ТАР</w> 119690
199 2</w> 119652
ли шения</w> 119636
цион ная</w> 119636
по ля</w> 119605
м ных</w> 119567
способ ствовать</w> 119555
З ем 119553
сель скохозяй 119543
акти вов</w> 119537
бо м</w> 119448
Де й 119400
измени ть</w> 119385
семь е</w> 119378
та ция</w> 119340
7 3</w> 119336
то на</w> 119294
Верхов ного</w> 119269
ч лен</w> 119267
ты ми</w> 119232
Т ю 119215
лег ко</w> 119193
ля бин 119102
Б К</w> 119092
те ров</w> 119091
га ть</w> 119090
Ни ж 119050
ю ся</w> 118974
обу чения</w> 118968
сче том</w> 118960
на прави 118850
ь ян 118847
взя ть</w> 118846
приз вал</w> 118830
счита ть</w> 118804
террито рию</w> 118777
ль ской</w> 118760
в ка</w> 118725
при ступи 118719
Програм мы</w> 118715
ер у</w> 118696
руб ля</w> 118638
сотрудни к</w> 118634
присоеди ни 118630
ба ссей 118618
гра ду 118591
коро т 118582
Фо то</w> 118576
Фин лян 118570
поли ция</w> 118467
ст ра</w> 118465
ци пли 118465
эт ниче 118455
добро во 118422
ис пан 118381
ен ного</w> 118270
университе та</w> 118249
грани цы</w> 118246
Ж ен 118166
Ро сто 118150
ли ги</w> 118076
деся ть</w> 118041
га я</w> 118040
ни будь</w> 118004
право су 117987
про чи 117935
директо ров</w> 117932
госпо дина</w> 117901
а л 117900
a il 117868
подро ст 117867
Израи ля</w> 117853
журнали стов</w> 117844
Шта тов</w> 117816
го ре 117815
шо у</w> 117802
потре бу 117801
ou r</w> 117799
чен ного</w> 117783
щен ных</w> 117743
отрас ли</w> 117741
предо ставить</w> 117720
напра вля 117709
лай н</w> 117703
об следо 117667
фор м</w> 117559
официаль ных</w> 117536
С мо 117535
само лет</w> 117520
же б 117504
це ремо 117487
Зако н</w> 117486
Ку з 117479
ф аль 117475
пользова телей</w> 117472
са ми 117455
6 00</w> 117408
одно временно</w> 117335
ро зы 117325
дру га</w> 117291
Ни дер 117275
про шел</w> 117250
ни ями</w> 117244
пя ти 117231
Еги п 117230
пре пара 117186
те пло 117182
собы тия</w> 117154
ря ть</w> 117153
c i 117140
примен ение</w> 117136
гово го</w> 117122
р ги 117117
взно сов</w> 117104
восто ке</w> 117101
ч ными</w> 117097
специаль ных</w> 117082
За тем</w> 117049
Е е</w> 117031
горо дах</w> 116998
а ген 116973
стви ем</w> 116926
случа й</w> 116922
оборудо вание</w> 116890
ке р</w> 116857
де ре 116778
яз ви 116776
Э р 116749
b e</w> 116729
Международ ный</w> 116681
из ложен 116661
суб си 116652
M ar 116645
поз дра 116643
ж ом</w> 116636
спек так 116604
кампа нии</w> 116560
те му</w> 116528
У голов 116512
Ва лен 116412
К то</w> 116378
от казыва 116346
по те 116320
w or 116310
ма ть</w> 116232
креди то 116174
возбу ждено</w> 116164
финанси рование</w> 116153
Е лена</w> 116140
к ет</w> 116138
праз д 116138
и сте 116135
Афри ке</w> 116130
щ у 116123
У з 116049
щи к</w> 116034
экспер ти 116030
тек ст</w> 116026
вы деля 116021
квали фици 116015
ско ре</w> 116005
да тай 115989
го стей</w> 115969
эксплуа тации</w> 115964
ro m</w> 115852
хо тели</w> 115768
вы шел</w> 115661
ть десят</w> 115657
практи ке</w> 115622
Чер но 115596
ван ные</w> 115559
сол да 115549
оружи е</w> 115541
верну ть</w> 115524
язы ке</w> 115498
луч ших</w> 115481
ть ю</w> 115477
С бер 115449
Упра вления</w> 115441
гро зи 115359
отве ча 115301
со ба 115299
возра ста</w> 115299
став ке</w> 115280
9 . 115271
законода тельство</w> 115265
пла ны</w> 115262
i c</w> 115210
де ло 115193
ва ющие</w> 115190
и д 115186
т ников</w> 115155
ко ль 115155
С тро 115125
проводи тся</w> 115039
друго м</w> 115031
те о 114964
демон стра 114945
.or g</w> 114920
дей ствует</w> 114896
деятель ностью</w> 114892
осуществля ть</w> 114880
На таль 114787
у ско 114778
F ac 114758
зем ли</w> 114747
политиче ского</w> 114705
свед ению</w> 114702
изда ние</w> 114687
в не</w> 114655
непосред ственно</w> 114619
секто ре</w> 114608
представлен ы</w> 114572
l as 114560
шен ных</w> 114514
обще м</w> 114513
И Н 114511
причи н</w> 114461
по жела 114458
ме ра</w> 114442
Гру зии</w> 114426
до ле 114415
представи телями</w> 114384
голо сов</w> 114382
прием ле 114355
интере сы</w> 114342
Испол нитель 114340
еха л</w> 114261
исто рия</w> 114254
н бур 114248
ближай шие</w> 114229
каче ство</w> 114183
правосу дия</w> 114179
бо к 114169
вы год 114144
М ен 114135
слы ша 114074
де фици 114042
настояще го</w> 114041
во семь</w> 114039
за л</w> 114032
2 5 113963
маши н</w> 113959
выступи л</w> 113934
друго го</w> 113903
охва ты 113896
нище ты</w> 113827
Ка ра 113815
предлага ется</w> 113799
раз рабаты 113798
Фран ция</w> 113790
наказа ние</w> 113754
ку ро 113732
Ки ри 113731
дорож ного</w> 113714
пра вления</w> 113709
при шли</w> 113704
Х ор 113701
мы ми</w> 113681
вы йти</w> 113643
А .</w> 113602
i st 113585
группо й</w> 113585
Всемир ной</w> 113580
кре ст 113575
e l</w> 113558
во сти</w> 113531
дис ципли 113487
совеща нии</w> 113480
та кую</w> 113467
наличи е</w> 113456
преступ ности</w> 113421
A u 113418
до ве 113408
ос ен 113399
Д Д</w> 113297
депута ты</w> 113289
В чера</w> 113286
нор м</w> 113244
анали з</w> 113212
территори аль 113201
ход я</w> 113199
Представи тель</w> 113197
кварти ры</w> 113154
G r 113123
верну ться</w> 113103
на ла 113085
Специаль ного</w> 113085
пись мо</w> 113078
у язви 113052
про дли 113048
Бе ль 113043
ры в</w> 113039
ки стана</w> 113026
сни жение</w> 113019
мо ро 113011
реш ением</w> 112989
больш ей</w> 112977
К стати</w> 112974
тек ста</w> 112844
чинов ников</w> 112839
соб люда 112832
цион ным</w> 112821
р .</w> 112754
занима ется</w> 112726
содержи тся</w> 112679
инвали дов</w> 112671
Г он 112670
о деж 112635
посо би 112610
че ст 112581
раз ъя 112534
ки н 112521
n i 112480
Я н 112470
ни н 112442
ва емых</w> 112437
приня ты</w> 112435
интере сов</w> 112434
Декла рации</w> 112432
слу жеб 112412
нача ло</w> 112390
Боль шо 112389
ки стан</w> 112383
продук ты</w> 112371
за гряз 112365
чемпи онов</w> 112363
av e</w> 112362
Л ен 112358
напомина ет</w> 112328
ию ле</w> 112276
сво ему</w> 112250
получа ть</w> 112235
серьез ные</w> 112214
Арм ении</w> 112204
b u 112193
бе дстви 112193
s e</w> 112190
подгото влен 112153
9 9</w> 112144
наро до 112139
по сла 112130
занима ет</w> 112119
по м</w> 112105
шко ль 112093
принци пы</w> 112092
Нидер лан 112050
граждан ских</w> 112049
глав ных</w> 112023
выпол нять</w> 111986
а варии</w> 111964
массо вой</w> 111939
па х</w> 111929
пред положи 111914
сро ка</w> 111911
европей ских</w> 111900
Кры м</w> 111892
т ский</w> 111887
ре е 111874
члена м</w> 111865
губерна тор</w> 111860
смо г</w> 111848
ч т 111799
Па вел</w> 111765
ле вой</w> 111759
оказа лось</w> 111718
по ступ 111707
зи ровать</w> 111680
ак ционе 111645
жа л</w> 111603
пре бы 111574
на че</w> 111552
хо датай 111534
сти мули 111517
шен ы</w> 111513
не совершенно 111471
юще гося</w> 111450
Вто рой</w> 111434
7 6</w> 111431
ради о 111381
Ба л 111325
Ф А</w> 111305
в ходит</w> 111300
з ин 111272
I V</w> 111234
. .</w> 111219
h o 111091
дву сторон 111054
С Е</w> 111021
ис пы 111020
ком фор 110979
тя т</w> 110966
количе ства</w> 110963
техниче ских</w> 110935
вани ях</w> 110892
Интер нет</w> 110883
Ассамбле е</w> 110873
ин жен 110852
тив ная</w> 110829
у худ 110810
199 1</w> 110807
предо ставлен 110776
зо к</w> 110770
г еди 110763
чи т</w> 110753
Ти хо 110745
Мино бороны</w> 110731
ви на</w> 110725
Оль га</w> 110678
исто рию</w> 110672
К ер 110654
Ле они 110641
у ж</w> 110614
ре конструк 110608
en d 110578
мэ ра</w> 110574
финан сов</w> 110553
по зна 110542
ча х</w> 110509
U R 110500
с про 110493
у л.</w> 110457
возгла вля 110456
потреб ности</w> 110290
ста лки 110265
С О 110235
хо чу</w> 110216
эксплу ата 110207
Т В</w> 110196
город ского</w> 110126
взгля д</w> 110105
объя вил</w> 110071
вспо мога 110067
авто ма 110048
с форми 110039
С пар 109999
Е ЭК</w> 109984
ме ч 109938
тив у</w> 109933
в ь</w> 109908
Б ра 109906
за куп 109905
прави льно</w> 109858
А мерикан 109824
долж ностей</w> 109821
al l 109814
вы ше 109809
докла ды</w> 109805
авгу сте</w> 109799
капита ла</w> 109768
ре ферен 109725
Б ю 109707
Компа ния</w> 109647
сред не 109630
сти ть</w> 109529
зна ет</w> 109499
Т А</w> 109488
до р</w> 109425
авто р</w> 109423
ре к 109398
необходи мых</w> 109354
роди телей</w> 109318
вне сен 109292
нор мы</w> 109282
оцен ку</w> 109267
не про 109233
К Б</w> 109213
От кры 109183
Уз бе 109177
СП И 109159
Add . 109103
та ть</w> 109074
с хе 109041
язы к</w> 109012
на конец</w> 108983
раз ные</w> 108970
н ное</w> 108964
фи ли 108934
ЮН Е 108915
неодно кратно</w> 108909
треть ей</w> 108887
тр ы</w> 108880
зако ном</w> 108853
кв .</w> 108845
А т 108837
ли за 108825
неф тя 108819
ве ща 108799
по степен 108793
ак туаль 108771
сохра нить</w> 108769
ле ги 108738
Под роб 108731
f rom</w> 108722
конкур са</w> 108676
I N 108648
лиде ра</w> 108644
а да 108640
проек те</w> 108637
успеш но</w> 108611
на ко 108594
ги бе 108546
мужчи ны</w> 108535
комплек с</w> 108532
на сколько</w> 108522
сло во</w> 108505
Фи нан 108468
кон вен 108449
пример у</w> 108443
середи не</w> 108432
судеб ных</w> 108419
увели чить</w> 108418
на имен 108411
важ ное</w> 108374
програм мам</w> 108360
на бра 108332
ров ка</w> 108330
времен ем</w> 108327
Министер ства</w> 108327
связа но</w> 108298
после дова 108293
му т</w> 108269
ба ми</w> 108252
л лек 108239
отпра вля 108201
Не обходи 108195
лет няя</w> 108184
отказа лся</w> 108180
торговл е</w> 108157
В ре 108129
вле ка 108117
чи ст 108112
сезо н</w> 108096
задержа ли</w> 108080
соглаш ений</w> 108080
подвер га 108056
подтвер дил</w> 108040
относя тся</w> 108025
Р ы 108018
наш у</w> 108002
до р 107998
ф рак 107981
сме н</w> 107950
eb ook</w> 107940
П О 107928
ассоциа ции</w> 107874
ля ет</w> 107853
ли дер 107842
П обе 107836
мат чей</w> 107811
следу ющих</w> 107791
7 4</w> 107789
дипло ма 107759
к ви</w> 107758
не ожи 107722
с начала</w> 107640
региональ ном</w> 107632
Д П 107625
с ку 107611
1 2. 107559
государ ством</w> 107536
воро та</w> 107534
мошен ниче 107464
с формули 107452
опреде ли 107443
жили щ 107442
не у 107419
Э сто 107396
жден ных</w> 107396
В яче 107358
вы во 107269
корре кти 107227
вид но</w> 107207
Г ло 107182
Реги он</w> 107174
не доста 107172
Пре мь 107146
вани ями</w> 107135
абсолю тно</w> 107118
выбо р</w> 107112
замести теля</w> 107111
партне ров</w> 107108
совеща ние</w> 107075
S u 107059
Ди ректо 107047
На ва 106995
вы рос 106976
вы бор 106966
Ста тья</w> 106932
на груз 106924
са ни 106918
m ent</w> 106908
Воро не 106900
в меша 106895
ры й</w> 106890
гражда не</w> 106844
прав да</w> 106843
к ле 106799
7 1</w> 106784
влия ние</w> 106767
СК Р</w> 106739
требу ется</w> 106738
зи ат 106686
воспо льзо 106681
руководи телей</w> 106677
те н</w> 106645
жа ли</w> 106616
действи и</w> 106611
ри ев</w> 106533
Зени т</w> 106494
э кипа 106450
об усло 106414
купи ть</w> 106363
А й 106343
вы дели 106300
боль ших</w> 106298
Цен тра</w> 106251
Ад министра 106242
гово ря</w> 106224
Мо ло 106223
ба нк 106218
W in 106205
ль ность</w> 106137
При чем</w> 106116
испы ты 106104
за х</w> 106084
Fac ebook</w> 106066
заво е 106034
Объ единен 106031
полицей ских</w> 106004
настоя щий</w> 105976
a f 105963
че ство</w> 105935
сфер ы</w> 105919
т во 105880
пол ном</w> 105844
Р Ф 105840
О те 105803
исследова тель 105778
га н</w> 105746
наме рен</w> 105738
об лег 105691
стол кну 105690
профи ла 105670
Казах стан</w> 105643
к г</w> 105629
С вет 105616
Кие ве</w> 105583
досто ин 105521
поня тно</w> 105517
ин дек 105419
Л уч 105396
пострада ли</w> 105383
ж о 105369
игра ет</w> 105353
конкре тные</w> 105335
Ки ев</w> 105266
Ни ки 105250
при были</w> 105249
Восто чной</w> 105210
об зора</w> 105175
заня тости</w> 105011
Х е 105004
ши н</w> 104989
заво да</w> 104986
музы ка 104941
заклю чение</w> 104917
жда ет</w> 104888
премь ера</w> 104883
эффектив ного</w> 104856
А и 104854
te l</w> 104812
сегодняш ний</w> 104786
прогре сса</w> 104783
пре се 104761
при ро 104743
за ку 104708
го ри 104702
ствен ную</w> 104682
Дмитри я</w> 104670
жен о</w> 104624
бли оте 104583
пол ного</w> 104548
в ри 104538
труд но</w> 104534
шта б</w> 104530
включа ет</w> 104529
ь ев</w> 104457
сси в 104453
сокра ти 104405
s u 104376
ност ях</w> 104304
об стре 104299
зна чения</w> 104280
кризи с</w> 104280
Де ло</w> 104239
ма то 104224
референ ду 104179
7 8</w> 104148
нен ы</w> 104147
Фон да</w> 104144
Я ро 104118
ру ющих</w> 104089
ос на 104085
в перед</w> 104071
поддерж ка</w> 104060
м м</w> 104043
емо м</w> 104039
обществен ности</w> 104014
ф ов</w> 103994
государ ству</w> 103988
избе жать</w> 103988
об щих</w> 103964
E n 103962
важ ность</w> 103952
по мимо</w> 103949
со действовать</w> 103917
при вер 103892
сокра щение</w> 103880
сообще ство</w> 103865
о гра 103864
б рен 103820
обществен ной</w> 103818
о ди 103811
Екатери нбур 103748
с мы 103723
догово р</w> 103681
логи и</w> 103672
обслужи вание</w> 103642
опти ми 103642
3 0 103631
Ба ра 103607
Че лябин 103599
В Т 103530
Л А 103462
обяза тельно</w> 103450
е вой</w> 103437
Т ро 103417
до то 103392
юще му</w> 103345
8 00</w> 103317
в веден 103313
Трам п</w> 103313
требо ваниям</w> 103297
ба х</w> 103284
та ком</w> 103258
фо то</w> 103256
озабо чен 103249
обеспечи вать</w> 103236
P h 103208
сотрудни ка</w> 103192
встре чу</w> 103162
К ра 103122
топли ва</w> 103117
до пуска 103116
Р Е 103087
поз же</w> 103085
сут ки</w> 103068
Еди ной</w> 103032
остро ва</w> 103031
трен ера</w> 102997
ос мо 102996
рай он</w> 102952
с вер 102929
стра жей</w> 102922
посе ти 102915
пробле му</w> 102903
науч но</w> 102879
Спар так</w> 102868
Ми ро 102845
край ней</w> 102836
т вори 102818
Мо жно</w> 102789
цен тров</w> 102766
те та</w> 102763
раз мер</w> 102762
угро зы</w> 102760
отнош ению</w> 102744
тр яс 102723
заинтере со 102652
иг ра</w> 102639
В ене 102628
Мини стр</w> 102621
2 ,5</w> 102590
националь ные</w> 102570
пар тия</w> 102550
компью тер 102506
тиче ская</w> 102505
Конститу ции</w> 102499
любо м</w> 102498
россий ским</w> 102483
зи м 102438
Ар ген 102387
На м</w> 102386
Фили п 102355
много сторон 102352
Х у 102337
Офи циаль 102331
следу ющим</w> 102308
ма тер 102269
й ской</w> 102231
му р 102222
се ло 102212
де тям</w> 102134
за ми</w> 102103
д ный</w> 102100
под клю 102090
интере с 102074
М э 102070
а де 102066
C N 102066
лет ней</w> 102064
оста нов 102059
встре ча</w> 102037
политиче ские</w> 101976
суще ственно</w> 101960
ди зай 101952
игра л</w> 101938
служ бу</w> 101904
во ло 101851
М оби 101842
ру я</w> 101800
пере ход 101766
предлож ений</w> 101736
С уда 101731
но мина 101727
ц кий</w> 101710
об ер 101706
Вла сти</w> 101678
Ли т 101657
Вале рий</w> 101657
ры м</w> 101641
тыся че 101611
мл ение</w> 101587
комму на 101573
за ка 101546
обнаружи ли</w> 101507
продолжа ют</w> 101506
o w 101409
обще ство</w> 101402
фору ма</w> 101400
пусти ли</w> 101369
благо да 101323
учеб ных</w> 101284
шко л</w> 101271
до ва</w> 101224
ну ли</w> 101184
просмо тров</w> 101181
журнали стам</w> 101177
При чи 101158
по верх 101136
опас ности</w> 101136
оч ков</w> 101132
пунк том</w> 101123
ти к</w> 101116
пра ве</w> 101069
бизне смен 101049
иг р</w> 101001
емо е</w> 100984
выпла ты</w> 100969
правитель ству</w> 100955
В ос 100924
ря де</w> 100844
приня тых</w> 100823
любо го</w> 100795
нов ения</w> 100755
счита ется</w> 100751
ребен ок</w> 100749
э мо 100720
собира ется</w> 100717
зем ле 100701
A l 100665
Д э 100659
содержа ние</w> 100657
посо ль 100641
чен ной</w> 100627
тре тий</w> 100617
ющи мися</w> 100594
ш ку</w> 100589
F or 100589
ес со 100587
улуч шения</w> 100586
- - 100566
опреде лить</w> 100536
аэропор та</w> 100534
поддержи вать</w> 100506
м нения</w> 100478
результа там</w> 100472
G oo 100453
скан да 100451
у мышлен 100424
изда ния</w> 100421
на сле 100410
ла на</w> 100393
у м</w> 100376
ро во 100369
задержа н</w> 100360
реда к 100340
пала ты</w> 100320
. 00</w> 100288
с пас 100288
У ни 100250
уди ви 100241
арби тра 100241
Макси м</w> 100229
финансо вого</w> 100225
ре ак 100222
функ ций</w> 100166
по в 100160
испол нение</w> 100159
теку щего</w> 100144
or e</w> 100139
граждан ской</w> 100092
мета л 100056
ству ющих</w> 100052
Отме тим</w> 100019
ж ды</w> 100015
тиче ский</w> 100005
та кими</w> 100000
ред ко</w> 99998
А раб 99994
вер са 99973
международ ными</w> 99956
С ин 99932
ri g 99885
свобо ду</w> 99874
разви тии</w> 99868
иг ре</w> 99860
Та кие</w> 99845
ш вили</w> 99842
должност ных</w> 99836
Ва м</w> 99830
У и 99821
су вер 99813
О ста 99778
п .</w> 99766
пер вая</w> 99763
источ ники</w> 99740
ве р</w> 99734
в ряд</w> 99730
се дь 99717
Бли ж 99699
орга на</w> 99677
Т ер 99620
Ма т 99582
Вер сия</w> 99562
кон суль 99528
про демонстри 99516
После дни 99488
выступ ления</w> 99484
Ф СБ</w> 99483
появи лась</w> 99438
ч ности</w> 99429
по дели 99381
Ба ш 99365
го дом</w> 99360
до стой 99317
исклю чением</w> 99312
проси ла</w> 99296
ти фика 99284
Ка ри 99232
по ставки</w> 99218
кор пу 99215
диа лога</w> 99215
вз рос 99189
Ира н</w> 99185
конфлик тов</w> 99162
стар то 99106
вы ру 99101
послед ствии</w> 99059
бюдже тных</w> 99056
спу стя</w> 99016
ша ется</w> 98984
Израи ль</w> 98972
уве лич 98963
Па в 98949
за слу 98947
любы е</w> 98892
про йти</w> 98875
важ ней 98853
o d 98829
щен ко</w> 98828
Г ар 98824
отличи е</w> 98796
ви ться</w> 98792
хра ни 98774
резолю ция</w> 98761
высо кой</w> 98759
Са м</w> 98742
ствен ном</w> 98732
На ча 98696
h e 98653
Ре й 98630
про спек 98629
в ся</w> 98625
па ке 98620
Ду ма 98605
при шел</w> 98603
су ме 98593
о па 98582
не дав 98566
дей ство 98551
участ никами</w> 98515
ме тра 98493
действи ю</w> 98485
пы ток</w> 98484
К ТА 98478
серьез но</w> 98440
проводи т</w> 98404
8 2</w> 98390
я сно</w> 98378
официаль ного</w> 98315
8 7</w> 98310
боль ницу</w> 98270
Т ру 98232
м ск</w> 98227
обществен ных</w> 98203
от ставку</w> 98172
случа й 98166
ри сти 98160
эк стреми 98152
полу чение</w> 98122
Но вая</w> 98060
ино гда</w> 98054
бо ра</w> 98049
вед ении</w> 98028
ци и 97997
ежегод но</w> 97937
собра ния</w> 97915
ti c 97912
при ну 97905
се тей</w> 97887
й т</w> 97871
8 6</w> 97863
стра ш 97856
Програм ма</w> 97839
са ло 97838
провер я 97788
у про 97783
му суль 97782
ти ровать</w> 97770
p le</w> 97753
хо ть</w> 97748
ры е</w> 97720
чемпиона т</w> 97720
Д ональ 97687
тра геди 97658
ен ный</w> 97654
СТ И</w> 97648
ж у 97614
исче з 97611
буду щее</w> 97566
газе ты</w> 97520
из гото 97513
н ными</w> 97506
Алексе я</w> 97500
связа ны</w> 97484
корруп ции</w> 97483
W P. 97438
oun d</w> 97429
Ново сибир 97389
у бы 97387
к лон 97366
американ ского</w> 97365
оста ются</w> 97342
у мер 97304
ущер ба</w> 97276
рекомен ду 97223
Бар село 97189
ча т</w> 97181
в ходят</w> 97171
аде ква 97162
1 20</w> 97152
дни х</w> 97152
жден а</w> 97128
Ба й 97117
до мо 97114
убий ства</w> 97101
подписа л</w> 97100
ид ти</w> 97081
Б рю 97073
компенса ции</w> 97062
ги б 97002
Ма рия</w> 96991
задол женности</w> 96951
Ре шение</w> 96949
ac e</w> 96948
Im age</w> 96942
пожа лу 96926
а ми</w> 96925
K P 96922
возмож ных</w> 96921
ar y</w> 96911
боро ться</w> 96893
шко ле</w> 96888
стаби льности</w> 96871
правитель ств</w> 96865
UR L</w> 96854
наз вание</w> 96832
а но 96821
З А 96800
ком а</w> 96753
сло в</w> 96737
ли цам</w> 96736
цо ва</w> 96731
регуляр но</w> 96693
бу ду</w> 96676
С те 96675
во все</w> 96649
площа дь</w> 96646
подчерки вает</w> 96642
кодек са</w> 96633
вы бира 96625
укреп лению</w> 96624
o in 96615
внутрен него</w> 96605
коман ди 96556
ме рах</w> 96510
Ка та 96494
обрати лся</w> 96491
Г О</w> 96459
заво д</w> 96453
бан ки</w> 96419
У ста 96413
противо стоя 96404
Цен тр</w> 96379
ра ун 96346
пунк ту</w> 96287
ку ра 96281
судеб ного</w> 96280
выпол нение</w> 96277
Ав ст 96248
8 3</w> 96187
вне сти</w> 96187
дальней шего</w> 96184
с ви 96152
при остано 96148
деся ти</w> 96103
щи ка</w> 96098
ми ра 96096
ж ем</w> 96089
Шта ты</w> 96054
э ль</w> 96040
асси гно 96033
кон цу</w> 96024
за бы 96021
П ак 95998
Но в 95995
па ри 95984
реб я 95967
поги б</w> 95964
наз ванием</w> 95955
не сет</w> 95945
законо в</w> 95899
международ ное</w> 95898
за креп 95876
дипло матиче 95862
ле р</w> 95854
ну ко 95822
ре гла 95820
М ор 95809
рассматри вать</w> 95809
су ти</w> 95806
опреде ление</w> 95800
вы зывает</w> 95798
оружи ем</w> 95796
Газе та</w> 95786
экономи ке</w> 95785
сбо ра</w> 95785
н ную</w> 95768
М аль 95767
ма стер 95756
о гово 95737
ван ный</w> 95730
наро д</w> 95715
До л 95654
по га 95642
сбор ная</w> 95627
з и</w> 95619
кри тери 95613
расши рение</w> 95569
д ят</w> 95553
за работ 95544
Лени н 95542
ве тера 95538
П А 95533
име ющих</w> 95502
выбро сов</w> 95449
тор же 95447
Гос по 95430
зи н</w> 95416
каж дом</w> 95404
орга нах</w> 95365
пред по 95361
Ф И 95345
Анд рея</w> 95343
по влия 95328
По тому</w> 95315
вероя тно</w> 95283
при зыва 95267
де ль 95260
соответству ющим</w> 95233
украин ских</w> 95226
Сою за</w> 95223
Мин фи 95218
. aif.ru</w> 95207
прилож ения</w> 95187
и дут</w> 95139
электро нной</w> 95139
вой ск</w> 95137
отнош ениях</w> 95134
ч ке</w> 95131
распростра нение</w> 95130
находи лся</w> 95114
подготов ка</w> 95097
ули цы</w> 95091
g e</w> 95088
лен ные</w> 95087
град ской</w> 95083
Ми ссии</w> 95061
8 8</w> 95056
пел ля 95048
подоб ные</w> 95028
би ологи 95027
со сре 95023
ос ла 94992
к с</w> 94964
те ла</w> 94963
о за 94945
жен ных</w> 94928
из уча 94923
искус ства</w> 94909
раз решения</w> 94868
прогно зи 94840
механиз ма</w> 94830
эти ми</w> 94828
До кумен 94807
ла бо 94791
сде лки</w> 94788
миллиар дов</w> 94786
му з 94778
Премь ер</w> 94755
проте ста</w> 94723
фор вар 94720
произо шед 94709
Д ень</w> 94704
стать ей</w> 94699
az az 94678
Со об 94669
ша ют</w> 94639
доро г</w> 94619
об мена</w> 94605
p e</w> 94603
B l 94600
жи лых</w> 94596
дол ю</w> 94586
под хода</w> 94583
ме тро 94569
выра жает</w> 94569
ра сту 94567
про з 94556
прош лой</w> 94534
9 6</w> 94518
жи да 94490
тя брь</w> 94486
it e</w> 94447
се т 94444
называ ют</w> 94439
ради ка 94438
мо ва</w> 94427
ста нут</w> 94402
эта п</w> 94378
ре шать</w> 94375
работа ли</w> 94348
участ ника</w> 94338
любы х</w> 94317
h e</w> 94291
гра мо 94285
повы сить</w> 94252
с би 94248
20 20</w> 94229
ми ю</w> 94225
го ра 94211
ви ды</w> 94175
эта па</w> 94164
сель хо 94148
М С</w> 94140
бы то 94120
механиз м</w> 94114
за пол 94079
тив ную</w> 94074
послед него</w> 94073
си и</w> 94071
футбо лу</w> 94071
ве щи</w> 94068
проис хождения</w> 94008
укреп ление</w> 93987
d ing</w> 93973
т ща 93965
об а</w> 93944
Си сте 93927
живо тных</w> 93919
восстано вления</w> 93913
дума ть</w> 93908
Петербур г</w> 93899
вопро сах</w> 93884
появи лись</w> 93870
пси хи 93862
жа я</w> 93861
Р БК</w> 93832
Во ло 93806
подоб ных</w> 93800
террито рий</w> 93790
шин у</w> 93789
напом нил</w> 93756
Про токо 93752
п ры 93733
g le</w> 93721
об мен</w> 93698
ходи ли</w> 93689
об щий</w> 93656
Гре ции</w> 93632
об зор</w> 93627
гуманитар ной</w> 93585
Воз можно</w> 93581
ры но 93572
форми рования</w> 93545
проси ли</w> 93524
По скольку</w> 93502
провед ению</w> 93502
по тра 93497
осно ва 93475
Белару си</w> 93453
Под москов 93419
мо ей</w> 93398
В ар 93392
Де пута 93378
повы шению</w> 93348
из би 93323
по может</w> 93309
удо сто 93285
фестива ля</w> 93270
важ ным</w> 93268
А гент 93258
получа ют</w> 93254
самостоя тельно</w> 93233
в щи 93231
региональ ные</w> 93226
буду щего</w> 93217
по про 93177
Ге ор 93173
бор ту</w> 93172
произо шла</w> 93158
выступа ет</w> 93149
ст ек 93139
Ин дии</w> 93135
ли бе 93122
оказа лась</w> 93122
ин ду 93080
X X 93060
полицей ские</w> 93036
Са удов 93033
В .</w> 93013
KP .RU</w> 93011
8 1</w> 93005
л ениях</w> 92994
сель ского</w> 92981
американ ской</w> 92971
стро м</w> 92947
профессиональ ной</w> 92939
ph p</w> 92923
до не 92894
Ва сили 92892
Ка в 92885
стандар тов</w> 92874
эффектив ность</w> 92872
r ic 92796
oc i 92779
Ки п 92772
ре и</w> 92768
тури стов</w> 92759
оста лись</w> 92746
нара щи 92736
прош ла</w> 92721
механиз мы</w> 92684
ремон т</w> 92668
специаль ной</w> 92664
медицин ских</w> 92639
бю ро</w> 92633
способ ность</w> 92629
строй ки</w> 92621
ви я</w> 92620
ст ь 92617
Го ло 92611
до мой</w> 92564
разору жения</w> 92563
до х 92516
меня ть</w> 92480
да вление</w> 92456
на циона 92455
o b 92434
плани рования</w> 92431
c l 92411
ar d</w> 92410
пя тьдесят</w> 92407
И ван</w> 92398
официаль ном</w> 92384
с ра 92370
специаль но</w> 92370
про ка 92350
компани ей</w> 92322
ин спек 92305
сти хи 92305
прогре сс</w> 92297
коло нии</w> 92271
ха н 92234
стави т</w> 92231
воз действия</w> 92215
C om 92192
фина ле</w> 92183
напра вления</w> 92172
чет ко</w> 92153
мето дов</w> 92118
уч ени 92108
устрой ство</w> 92101
Са мо 92098
со че 92076
7 9</w> 92060
сю да</w> 92052
прокура тура</w> 92051
борь бу</w> 92039
М С 92030
увели чения</w> 92026
держа ть</w> 91970
ко али 91967
ти нен 91948
бо ли 91924
трав мы</w> 91923
инвесто ров</w> 91909
независи мости</w> 91844
сты х</w> 91842
прода ж</w> 91838
у во 91778
го нь</w> 91772
авто но 91742
друго е</w> 91741
взры в 91716
Ва силь 91702
чен ным</w> 91655
предоста вление</w> 91632
рабо то 91621
м ления</w> 91595
че в</w> 91593
затра ги 91579
ри ли</w> 91578
сою з 91577
причи не</w> 91573
Бы вший</w> 91564
писа л</w> 91562
информа ционно</w> 91560
Мо жет</w> 91553
военнослужа щих</w> 91527
L i 91526
ито ги</w> 91524
сред е</w> 91523
Та кое</w> 91522
с но 91513
И г 91496
увиде ть</w> 91494
Тю мен 91482
Организа цией</w> 91458
сооб раз 91456
лицен зи 91455
оказа ние</w> 91449
относи тся</w> 91436
отчет ности</w> 91434
па м</w> 91426
ог ня</w> 91422
el l 91420
A S 91381
ви т</w> 91381
бело рус 91376
К ли 91365
ран ение</w> 91364
причи ны</w> 91364
и наче</w> 91325
ника кого</w> 91320
9 2</w> 91310
вопро сами</w> 91310
особо е</w> 91309
запре т</w> 91307
Т С</w> 91289
большо го</w> 91242
ни как</w> 91233
о провер 91222
e st 91221
завер шения</w> 91215
8 4</w> 91200
утвер ждения</w> 91195
в вести</w> 91181
Р я 91174
сотрудни ками</w> 91104
худо же 91099
ви зо 91086
транспор тного</w> 91084
ви да</w> 91081
сосре дото 91068
Б ДД</w> 91057
Б ен 91043
2 50</w> 91016
уни верса 91010
окру га</w> 91008
производи телей</w> 91006
хол дин 90999
ка кое</w> 90985
публика ции</w> 90985
урегули рования</w> 90968
тысяче летия</w> 90932
на стаи 90928
полага ет</w> 90916
пунк тах</w> 90903
сто го</w> 90846
ма ли</w> 90844
Са ха 90828
потенциа л</w> 90760
не сли</w> 90749
фа на 90747
1 1. 90710
кур са</w> 90659
Центра льной</w> 90657
то вари 90656
Белору ссии</w> 90654
крупней ших</w> 90646
м с</w> 90645
та лан 90637
реа били 90627
Г У 90607
мя ч</w> 90602
ле чения</w> 90574
про све 90572
номе ра</w> 90549
d er</w> 90530
es s</w> 90529
вы шли</w> 90500
Кры му</w> 90478
суще стви 90460
мл ю</w> 90458
сопрово жда 90443
ко сти</w> 90440
учены е</w> 90431
зло употреб 90429
ша г</w> 90424
Ф ер 90423
опы та</w> 90379
ф ла 90378
учрежд ениями</w> 90378
Казах стана</w> 90377
ок купи 90360
p os 90359
на шим</w> 90319
вклю чить</w> 90277
ос ве 90272
си т</w> 90252
Ш у 90249
про йдут</w> 90241
избира телей</w> 90146
сот ни</w> 90128
ве б</w> 90089
ле в</w> 90067
связ ей</w> 90037
N S</w> 90030
моде ль</w> 90024
ноя р 90019
Наталь я</w> 90017
протоко ла</w> 89974
ско м 89972
осуществля ется</w> 89954
максима льно</w> 89947
существу ющих</w> 89922
Татья на</w> 89884
Пра во 89856
9 8</w> 89839
r os 89802
экономи ческие</w> 89791
приме т</w> 89786
психо логи 89785
Ви кто 89745
г да 89738
У ра 89715
обра щение</w> 89705
важ ных</w> 89697
ком би 89689
Участ ники</w> 89639
наш ем</w> 89614
по втор 89611
оказа нию</w> 89602
цион ную</w> 89574
Д ар 89566
Хор ва 89536
убий ство</w> 89529
ГИ БДД</w> 89525
стату са</w> 89524
Ка ждый</w> 89489
мо ск 89488
получи т</w> 89476
х ро 89472
7 00</w> 89458
предста вление</w> 89452
Goo gle</w> 89441
отве тил</w> 89419
наркоти ков</w> 89391
зна ют</w> 89365
нынеш него</w> 89345
су э 89314
су дом</w> 89282
соответству ет</w> 89281
Моби льный</w> 89278
нау к</w> 89261
ис к</w> 89255
ме т</w> 89218
гра н 89199
пере чень</w> 89193
T RA 89180
пла нов</w> 89162
но чью</w> 89159
НЫ Х</w> 89149
ou p</w> 89148
Гло ба 89133
лу мби 89108
Сер би 89088
откры ть</w> 89055
ко ст 88997
памя ти</w> 88977
пись мен 88976
Ре а 88974
ла н</w> 88910
да р</w> 88889
гла влен 88888
ка ли 88882
y ou</w> 88804
ш ением</w> 88803
сохра ня 88784
фина ла</w> 88779
ин спе 88762
Пор туга 88754
Пе тр</w> 88735
ра ди</w> 88734
Экспер ты</w> 88689
Н К 88688
направлен ных</w> 88665
находи лись</w> 88650
По д</w> 88634
р ные</w> 88612
депута та</w> 88607
Т О 88580
ди м</w> 88561
декла рации</w> 88560
корреспонден т</w> 88559
мар ки</w> 88558
у ма</w> 88556
разви тых</w> 88545
убе жи 88525
Та джи 88522
це ло 88500
мо гло</w> 88457
зна ть</w> 88437
организа цию</w> 88424
да го 88407
институ та</w> 88405
Брази лии</w> 88404
официаль ные</w> 88389
право к</w> 88370
ни ей</w> 88355
9 3</w> 88346
подразде ления</w> 88326
от лич 88308
миро вого</w> 88288
il l</w> 88286
би блиоте 88273
Сове том</w> 88271
энерге тики</w> 88243
теле вид 88231
тель ством</w> 88178
Ж а 88145
тер я 88140
м лад 88139
ля ция</w> 88104
гео графи 88082
о существи 88064
ох от 88061
направлен ные</w> 88061
д ю 88056
медицин ской</w> 88042
бар ре 88042
со ва</w> 88041
i d</w> 88032
I S 88022
ко ри 88020
до пусти 88017
привет ствует</w> 88005
т .</w> 88004
замеча ния</w> 87995
е мости</w> 87990
закон у</w> 87988
жда я</w> 87983
угро зу</w> 87974
кварта ле</w> 87944
множе ство</w> 87934
h ave</w> 87901
пла не 87885
орга н</w> 87881
д я 87876
и ден 87869
w e 87855
s erv 87851
конфлик т</w> 87839
с фе 87810
добро воль 87788
ф и</w> 87767
Газпро м</w> 87723
су дей</w> 87709
ша х 87705
он лайн</w> 87678
пригово р</w> 87665
феде рации</w> 87657
су до 87651
организа цией</w> 87620
m an 87619
рас счита 87615
сотрудниче ству</w> 87610
музы кан 87594
коман д</w> 87590
пар тий</w> 87585
пе тербур 87567
с сы</w> 87553
am e</w> 87538
попа л</w> 87536
жела ние</w> 87534
поез дки</w> 87530
прокомменти ровал</w> 87530
оза главлен 87506
ка кого</w> 87505
Зени та</w> 87479
ры ва</w> 87474
ar t 87470
част ного</w> 87454
бу ква 87431
не пре 87414
ви а 87369
банк ро 87369
следу ющего</w> 87363
сред ствами</w> 87349
основ ным</w> 87347
уда р</w> 87333
пре мии</w> 87250
s t</w> 87245
адвока т</w> 87244
сторо на</w> 87226
оцен ка</w> 87194
т ские</w> 87184
догово ров</w> 87176
про ходят</w> 87171
учрежд ениях</w> 87163
недвижи мости</w> 87138
прибы ль</w> 87137
C on 87135
ж ской</w> 87115
глав ной</w> 87104
Россий ский</w> 87102
ва ш</w> 87072
А х 87052
под лежа 87051
регули рования</w> 86999
а то 86961
Та и 86956
а м</w> 86947
си лами</w> 86920
представля ть</w> 86913
ми ром</w> 86887
Б ур 86839
Михаи ла</w> 86806
у полномо 86799
плен ар 86791
х ло 86784
фор му</w> 86768
си ли</w> 86748
име ли</w> 86708
составля ют</w> 86687
в ъез 86662
сай та</w> 86661
предупре ждения</w> 86655
за ча 86653
инте ллек 86646
кило метров</w> 86636
Дума ю</w> 86558
те бя</w> 86556
тро е</w> 86528
вы ход</w> 86494
д ных</w> 86484
ф ар 86483
приня т</w> 86438
ни ям</w> 86431
готов ности</w> 86423
име ется</w> 86416
СН Г</w> 86407
объек ты</w> 86402
пре зен 86395
оцен кам</w> 86392
о ном</w> 86388
цен е</w> 86388
настояще му</w> 86373
испыта ния</w> 86370
А ль</w> 86354
распростра нен 86347
счита ю</w> 86346
От де 86331
Н П 86314
. html</w> 86310
оди но 86298
требу ют</w> 86294
сред него</w> 86281
препода ва 86279
принад лежит</w> 86278
О чень</w> 86244
Та й 86223
сни жения</w> 86215
выступи ли</w> 86208
Представи тели</w> 86158
язы ка</w> 86152
беспла тно</w> 86146
вы зо 86139
Пе тро 86135
про голосо 86134
мен те</w> 86120
И рина</w> 86101
фак торов</w> 86085
ва йте</w> 86082
сы н</w> 86082
ни кова</w> 86071
8 9</w> 86068
З на 86063
Ира ка</w> 86062
ди ни 86049
под чи 86030
дела ют</w> 86025
нало гов</w> 86019
с прави 85992
с мар 85992
большин стве</w> 85986
ни ках</w> 85983
Че рез</w> 85957
кварти ре</w> 85954
щен о</w> 85951
под ряд</w> 85929
при вод 85910
од ному</w> 85909
й ных</w> 85893
чен ными</w> 85893
9 4</w> 85886
е .</w> 85866
дан ному</w> 85859
обеспечи вает</w> 85857
Win do 85857
пись ма</w> 85846
оке ан 85829
структу р</w> 85791
J u 85777
се ми</w> 85767
верси я</w> 85759
до вой</w> 85695
бере мен 85686
отве чает</w> 85679
мониторин га</w> 85674
Ф ак 85670
сооб щ 85669
бе н</w> 85570
упо мина 85566
u c 85564
боль ницы</w> 85557
авто ри 85555
куро р 85540
обрати ться</w> 85497
обще е</w> 85494
Ми р</w> 85460
Трам па</w> 85451
До пол 85427
обы гра 85413
представля ют</w> 85378
х ле 85348
гото ва</w> 85341
Соединен ные</w> 85334
te m 85316
я вно</w> 85310
НД Р</w> 85301
специаль ные</w> 85270
Па ра 85259
снаб жения</w> 85258
жа ется</w> 85254
мар ке 85214
отказа ться</w> 85205
продолжи ть</w> 85192
администра тивных</w> 85188
ль ному</w> 85173
ста я</w> 85152
ко сть</w> 85133
ве с</w> 85112
не уда 85109
отсут ствия</w> 85093
Ита лия</w> 85089
раз личи 85073
Анато лий</w> 85052
учиты вая</w> 85043
предоста влении</w> 85023
За щи 85020
С пи 85015
миллиар да</w> 84997
взаимо действия</w> 84980
региональ ной</w> 84973
us si 84928
представля ется</w> 84877
провер ку</w> 84874
i r</w> 84852
медлен но</w> 84835
зая влении</w> 84816
граду сов</w> 84806
ко вые</w> 84779
вспо мина 84776
Украин у</w> 84776
сторо не</w> 84774
болель щиков</w> 84728
Благо даря</w> 84701
ли ши 84682
вто рых</w> 84682
З оло 84653
Са н</w> 84625
представлен а</w> 84604
обязан ностей</w> 84585
ter s</w> 84572
9 7</w> 84551
я пон 84548
э м 84538
раз уме 84524
С .</w> 84506
о созна 84497
катего ри 84476
полномочи я</w> 84475
откры тия</w> 84472
стратеги й</w> 84472
су пер 84469
Бан к</w> 84459
юри с 84454
бу ю</w> 84448
кни ги</w> 84434
намер ены</w> 84411
дове рия</w> 84383
власт ями</w> 84371
те матиче 84370
лич ности</w> 84364
С У</w> 84319
извест ный</w> 84314
ла нд 84294
ф ан 84288
сель ских</w> 84263
си ла</w> 84257
воз ле</w> 84241
КП РФ</w> 84237
тран зи 84232
по грани 84213
ми на</w> 84202
д ного</w> 84199
спи ске</w> 84191
E C 84182
es t</w> 84162
следу ющей</w> 84156
Фон д</w> 84144
убе ди 84129
em ber</w> 84122
направлен ы</w> 84113
сы на</w> 84099
Ра й 84085
сторо нами</w> 84082
путе ше 84061
из мер 84024
поз днее</w> 84018
ж дет</w> 84005
н ки</w> 83995
Лю ди</w> 83969
девя ть</w> 83967
систе мой</w> 83919
резолю цию</w> 83887
торго вых</w> 83856
Windo ws</w> 83819
Извести ям</w> 83810
ви н</w> 83799
дево чек</w> 83794
ин фек 83776
Националь ного</w> 83775
отды ха</w> 83772
ч ность</w> 83768
студен тов</w> 83765
раз работать</w> 83756
ква дра 83747
стре ль 83732
испол нения</w> 83727
9 1</w> 83726
э ли 83717
мо ря</w> 83711
ВТ Б</w> 83698
подоз ре 83696
Оба ма</w> 83690
насе ление</w> 83687
На ша</w> 83673
по й 83644
возвра ща 83644
Йор ке</w> 83617
се г 83603
Ap ple</w> 83574
мигра ции</w> 83564
второ е</w> 83538
ля ми</w> 83530
с вет 83503
кар ты</w> 83491
Лу ка 83472
д вой 83468
согласи я</w> 83460
T wit 83456
то рами</w> 83440
vi e 83437
с ъ 83412
На кануне</w> 83397
гу ю</w> 83366
ле та 83348
Н ПО</w> 83306
л ениями</w> 83294
игра ли</w> 83245
мер у</w> 83204
ur e</w> 83192
Во прос</w> 83141
пор т 83140
про возгла 83139
дол га</w> 83134
манда та</w> 83126
рез ко</w> 83110
от вер 83107
выпу ска 83105
en c 83086
К НДР</w> 83078
Бори с</w> 83076
фотографи и</w> 83049
об щую</w> 83045
проси ть</w> 83032
показа ли</w> 83017
ли цами</w> 83011
госпита лизи 82995
президен ту</w> 82984
спра ши 82961
ме тра</w> 82957
боеви ков</w> 82955
Вита лий</w> 82934
ван ного</w> 82927
a u 82917
За коно 82908
меж правитель 82893
ж де 82889
i z 82883
предполага ет</w> 82858
on s</w> 82842
д ные</w> 82839
вя за 82831
по ла</w> 82802
струк тур 82800
не при 82790
предела ми</w> 82782
a in 82774
Белару сь</w> 82768
зо н</w> 82739
ве ц</w> 82732
рь я</w> 82718
Ре чь</w> 82693
ров ку</w> 82676
аэропор ту</w> 82672
2 3 82666
проф ессо 82661
си г 82639
Ро ди 82607
наличи и</w> 82606
пар ка</w> 82602
утвержда ют</w> 82596
превы шает</w> 82573
Т И 82568
тин ской</w> 82552
принима ют</w> 82542
ви ру 82536
случа и</w> 82536
Красно дар 82533
д ж</w> 82531
Пере д</w> 82504
P ro 82492
цер кви</w> 82490
город ских</w> 82465
уточ нил</w> 82458
ку ри 82457
ло жен</w> 82448
привле чь</w> 82394
перево д</w> 82355
оказа ть</w> 82344
Twit ter</w> 82338
све т</w> 82333
Ре зульта 82330
прибли зи 82328
ва ющий</w> 82319
Констан тин</w> 82294
эффектив но</w> 82272
ша й 82268
2 4 82259
ре за 82245
про даже</w> 82200
прилож ении</w> 82197
Болга рии</w> 82187
пе даго 82175
Международ ная</w> 82175
тури сти 82174
осно вания</w> 82166
ю го</w> 82165
от кло 82152
право м</w> 82125
фина л</w> 82119
с ный</w> 82115
влен а</w> 82065
нач нется</w> 82065
д ка</w> 82063
С вобо 82029
учре жден 82028
за каз 82022
П К</w> 82007
диа лог</w> 81988
ли зация</w> 81974
пенси оне 81971
участи и</w> 81914
контрак та</w> 81884
o g 81818
пред ставлен</w> 81793
ре зиден 81782
ac k</w> 81770
води ть</w> 81767
Спарта ка</w> 81746
начи ная</w> 81739
га ет</w> 81734
повы шен 81725
целе сообраз 81698
А ссоциа 81681
Восто ке</w> 81651
показыва ет</w> 81623
кон фи 81615
я н</w> 81613
Дру гие</w> 81606
Сотрудни ки</w> 81584
то ва</w> 81574
вой ска</w> 81550
ка жды 81549
Ру мы 81549
област ной</w> 81539
опы том</w> 81523
инициа тив</w> 81518
ти ту 81515
смар т 81510
О соб 81500
находя щихся</w> 81484
темпера тура</w> 81484
тель ница</w> 81457
Л ав 81456
на пи 81446
ен ной</w> 81430
сообща ют</w> 81428
заклю ченных</w> 81419
в скоре</w> 81414
та цию</w> 81397
. php</w> 81396
со ору 81373
дальней шем</w> 81373
провин ции</w> 81365
T im 81351
россий ском</w> 81351
пробле мам</w> 81335
соче та 81319
нуж ны</w> 81303
предвари тельным</w> 81302
До м</w> 81270
н ра 81269
Необходи мо</w> 81254
государствен ные</w> 81250
украин ской</w> 81240
хо й</w> 81228
социаль ные</w> 81225
щен а</w> 81222
то рии</w> 81173
Афри кан 81168
С порт</w> 81156
ме л 81132
под нима 81113
ре ж 81091
выро с</w> 81057
С ла 81054
право защит 81009
Ко ло 81000
представи л</w> 81000
использо вании</w> 80976
Вен г 80967
сооб ра 80951
большин ства</w> 80919
выс шем</w> 80915
ба ров 80910
ор дини 80878
ти зации</w> 80867
да ния</w> 80857
партне рами</w> 80842
ро ли 80829
поста вок</w> 80827
Доб а 80815
хва тает</w> 80814
воз му 80805
я ви 80797
при ста 80736
чи ли</w> 80717
тя ж 80716
ща яся</w> 80693
о гонь</w> 80670
струк тура</w> 80664
учиты вать</w> 80655
до сро 80626
прав у</w> 80616
разработ ку</w> 80605
роди тели</w> 80589
име л</w> 80586
ссыла ясь</w> 80563
b er 80557
ре в</w> 80531
тер ы</w> 80529
россий ская</w> 80511
сооб щений</w> 80494
спосо б</w> 80456
спу т 80448
мене дже 80446
пла н 80435
B C</w> 80417
рассмотр ению</w> 80405
сло вами</w> 80397
республи кан 80396
Зако на</w> 80394
E R 80383
О де 80369
И е 80366
использу ется</w> 80336
под ряд 80329
го л</w> 80319
приня тые</w> 80314
у тра</w> 80297
а ук 80295
u e</w> 80291
и н</w> 80290
оста лось</w> 80288
во шли</w> 80270
Но вой</w> 80246
но сят</w> 80238
полу чает</w> 80231
предвари тельной</w> 80202
б ла 80191
ста дии</w> 80187
Ира на</w> 80183
имуще ство</w> 80161
инвести ции</w> 80142
Б ос 80129
би ть</w> 80127
оста нется</w> 80127
части чно</w> 80109
в ке</w> 80107
ши на</w> 80105
чита йте</w> 80102
ве дут</w> 80097
Жен щи 80097
соответству ющими</w> 80053
не от 80049
обеспоко енность</w> 80032
th er</w> 80021
генераль ный</w> 79990
лик види 79960
по са 79956
обсу ждение</w> 79866
кад ров</w> 79864
s oci 79858
гла вой</w> 79857
испол ня 79821
во к 79820
хо че 79798
най ден 79792
основ у</w> 79783
ви ков</w> 79782
о ставля 79759
сказа ли</w> 79753
нача лась</w> 79743
рассмотр ении</w> 79741
по ст 79732
от ка 79728
ти те</w> 79711
попы тки</w> 79698
информа ционных</w> 79694
Б ор 79692
х ен 79689
оконча ния</w> 79671
п лей</w> 79670
пра ши 79667
юрис дик 79659
Боль шин 79643
глу б 79638
появи лся</w> 79632
Таи лан 79600
потреби телей</w> 79596
зо н 79575
украин ского</w> 79547
све та</w> 79527
предела х</w> 79519
здоров ье</w> 79511
в ку 79506
м об 79504
э коно 79492
в ного</w> 79469
ti m 79457
москов ского</w> 79441
t u 79435
науч ных</w> 79428
рован ным</w> 79419
расска зыва 79417
ма ги 79398
на столько</w> 79380
пи ра 79373
i k 79358
ду ш 79336
счаст ли 79292
архи тек 79266
об зор 79250
ни тельно</w> 79248
спо собо 79248
чинов ники</w> 79239
Че мпи 79201
Ч ис 79198
эфи ре</w> 79194
Я ку 79180
дру же 79173
эк спорта</w> 79166
Ан тон</w> 79134
з доро 79124
Те х 79122
зна ний</w> 79108
появи тся</w> 79101
ва сто 79093
спро са</w> 79065
международ ному</w> 79036
ни т</w> 79030
стра нице</w> 79025
от каз</w> 79004
раст ет</w> 79001
a ted</w> 78983
пози ция</w> 78981
характери сти 78972
у тра 78970
S p 78962
в ведения</w> 78953
увер ены</w> 78950
ко вым</w> 78939
ле чение</w> 78925
сконча лся</w> 78913
структу ру</w> 78909
напад ения</w> 78888
сен су 78882
мир ного</w> 78878
ль ского</w> 78873
стро й</w> 78864
иде и</w> 78848
у де 78842
состоя лась</w> 78772
е ц</w> 78770
не су 78766
зна я</w> 78727
ЮНИ СЕ 78679
ак тов</w> 78669
пассажи р 78653
сбо р</w> 78630
сох ранения</w> 78606
обу чение</w> 78604
претен зи 78595
З ак 78567
подтвер дили</w> 78562
ска чать</w> 78543
това ры</w> 78541
эпи зо 78539
us t</w> 78510
ЮНИСЕ Ф</w> 78506
a te 78505
зри телей</w> 78504
ве личи 78503
вопро сом</w> 78486
Та тар 78473
бар ди 78469
цер ков 78468
руководя щих</w> 78468
беспо ряд 78468
право вых</w> 78456
т ров 78446
зи ть</w> 78445
ству ющие</w> 78441
ар мей 78437
совер ша 78433
по смотреть</w> 78422
подтвержда ет</w> 78419
област ного</w> 78407
ent s</w> 78400
фили а 78388
верну лся</w> 78360
пе ше 78354
сть десят</w> 78351
лич ных</w> 78344
комисса ра</w> 78307
ation al</w> 78306
сла ва</w> 78285
в ходя 78270
Националь ной</w> 78254
разно образи 78254
настояще й</w> 78244
призна ет</w> 78238
в зы 78235
обеспе чении</w> 78230
запи си</w> 78226
закон ы</w> 78223
важ ды</w> 78199
сани тар 78171
за м</w> 78121
му ль 78118
вро де</w> 78097
о сторо 78064
наз вать</w> 78061
свидетель ствует</w> 78057
пожа ра</w> 78056
у ступи 78023
рабо той</w> 78006
и ной</w> 78005
пользо ваться</w> 78001
пыта ются</w> 77999
участ ков</w> 77997
удовлет вори 77992
ме да 77983
сфер у</w> 77978
террори змом</w> 77970
кон тинен 77966
й ста</w> 77961
работо да 77921
особен ности</w> 77909
ника кой</w> 77896
постепен но</w> 77844
ги н</w> 77835
ядер ной</w> 77833
парла мента 77807
до ходы</w> 77803
ра совой</w> 77797
кра е</w> 77787
реги он</w> 77778
потер и</w> 77770
оте ц</w> 77748
поддержа ть</w> 77744
се риа 77736
уча сток</w> 77729
аре ст</w> 77725
соответству ющей</w> 77722
Волго гра 77718
ресур сами</w> 77676
вы воды</w> 77671
мир ных</w> 77650
м ные</w> 77626
се л</w> 77611
неде ль</w> 77592
предусмотрен о</w> 77590
стре е</w> 77571
в ни 77569
тив ном</w> 77569
А м 77560
по правок</w> 77559
На и 77557
на вы 77556
ю би 77545
Ин доне 77540
пе р</w> 77528
про явля 77517
международ ный</w> 77506
до пу 77497
оста льные</w> 77491
На до</w> 77481
в ной</w> 77475
са да</w> 77452
общи н</w> 77430
жи вет</w> 77429
О пера 77414
рас стоя 77397
обли га 77395
плю с</w> 77385
да н</w> 77367
Вене суэ 77359
кон сенсу 77338
об ру 77332
террористи ческой</w> 77328
Крас нояр 77326
ност ям</w> 77319
эле ментов</w> 77302
показа л</w> 77292
культур ных</w> 77274
i e 77254
про пу 77253
В ра 77251
доклад чик</w> 77245
дости жение</w> 77241
выясни лось</w> 77234
сты е</w> 77220
веду щих</w> 77208
чу к</w> 77191
ри т</w> 77189
по ведения</w> 77185
In ter 77181
Я нуко 77167
перево зок</w> 77160
я вление</w> 77159
бое при 77152
ль ский</w> 77145
л ли</w> 77123
же ле 77104
высо кий</w> 77094
Большин ство</w> 77088
от ходов</w> 77083
рас т</w> 77079
s k 77073
ак три 77020
Ген на 77020
ро ванием</w> 77017
каза лось</w> 77011
парла мент</w> 77011
во сть</w> 77005
собеседни к</w> 77003
иска ть</w> 77001
воору жений</w> 76997
Ко лумби 76985
ла я</w> 76980
Н К</w> 76977
опас ных</w> 76946
ме сторо 76915
хоте лось</w> 76909
медицин ского</w> 76901
двадца ть</w> 76896
живу т</w> 76889
мо к</w> 76862
п р 76861
тель ствах</w> 76861
у жа 76840
правитель стве</w> 76832
ру ках</w> 76818
ступ ление</w> 76812
у важ 76801
Тур ция</w> 76784
мо я</w> 76774
харак тер 76774
ли л</w> 76770
влен ных</w> 76763
Европей ский</w> 76755
Департа мента</w> 76734
гибе ли</w> 76719
наблюда телей</w> 76714
до жд 76689
празд но 76681
ко рей 76676
доро ге</w> 76674
Ан на</w> 76657
тре во 76656
реши ла</w> 76655
упра влении</w> 76623
оста лся</w> 76575
ту рой</w> 76562
у дар 76556
организа циям</w> 76531
двухгоди чный</w> 76529
о пять</w> 76513
е вич</w> 76474
компа нию</w> 76456
отказа лись</w> 76443
Кон го</w> 76441
конкурен ции</w> 76440
ша ги</w> 76414
Евг ения</w> 76405
ic e</w> 76404
г ры 76401
сче ту</w> 76395
да вать</w> 76394
се реб 76387
Исла м 76386
круп ные</w> 76365
скоро сть</w> 76364
чита ть</w> 76344
m ar 76334
вл ениями</w> 76312
П А</w> 76299
Демокра тической</w> 76290
те ма</w> 76284
не прия 76276
услови и</w> 76275
смы сле</w> 76267
Ассамбле ей</w> 76263
неожи дан 76256
ле ген 76255
ни те</w> 76249
Комите том</w> 76233
совер шении</w> 76220
В стре 76174
жиль е</w> 76172
го дам</w> 76161
теа тра 76129
ЮН КТА 76125
Институ та</w> 76124
мето ды</w> 76084
ш ка 76052
ЮНКТА Д</w> 76050
мор ского</w> 76038
бы вает</w> 76024
моб или</w> 76019
К ХЛ</w> 76015
o k 76014
ст ся</w> 76013
авто ра</w> 76002
до ли</w> 75973
А Т 75965
ча ются</w> 75963
кан чи 75939
созда вать</w> 75935
c ap 75933
убий стве</w> 75927
остров е</w> 75926
Ро ман</w> 75904
Сло ва 75893
Ин те 75892
кандида та</w> 75823
емы ми</w> 75815
сте н</w> 75781
то п</w> 75780
по рации</w> 75777
О че 75759
Жене ве</w> 75736
официаль ной</w> 75735
смер ть</w> 75734
D e 75733
у воль 75731
показа ть</w> 75724
Ки ева</w> 75723
графи и</w> 75722
ви ну</w> 75714
Ки ев 75706
треть ем</w> 75700
вза им 75657
писа ние</w> 75648
треть его</w> 75640
за тро 75630
ко во</w> 75597
у стро 75576
сбор ную</w> 75566
ро вок</w> 75562
взры ва</w> 75560
лич ные</w> 75539
чи ком</w> 75535
ра си 75497
по ставить</w> 75496
политиче ским</w> 75491
пад ения</w> 75485
прове дет</w> 75470
ков ского</w> 75468
с мяг 75460
не достаточ 75457
Амери ке</w> 75433
энер ги 75419
над зор 75409
Л Ь 75408
ж ки</w> 75406
о во 75402
бо ры</w> 75395
К ру 75383
судеб ной</w> 75368
полу ченных</w> 75365
Да ни 75362
Х ри 75352
де ть</w> 75345
f f 75335
т кой</w> 75332
кров и</w> 75330
выгля дит</w> 75322
благо твори 75299
пользо вания</w> 75286
стро го</w> 75270
Лондо не</w> 75260
пыта ется</w> 75237
узна ть</w> 75223
ка кая</w> 75221
p m</w> 75211
ри ей</w> 75151
при лага 75151
Сове ща 75151
перевоз ки</w> 75150
меньшин ств</w> 75109
ва ль 75087
участ нику</w> 75086
потреб ления</w> 75076
пере пи 75075
Из вест 75069
ну тся</w> 75064
времен ного</w> 75047
мини стром</w> 75030
призна ть</w> 75024
ь те</w> 75020
Gr oup</w> 75017
опла чи 75015
собствен ной</w> 75011
ти ями</w> 75000
ф она</w> 74999
защи та</w> 74946
ы х</w> 74941
зача стую</w> 74940
ст рен 74898
озабочен ность</w> 74896
ро к 74889
деся тки</w> 74883
ма шину</w> 74882
спортсмен ов</w> 74873
об мен 74872
Си би 74872
министер ство</w> 74855
заме дли 74850
ключе вых</w> 74827
ОБ СЕ</w> 74826
назна чен</w> 74818
террори зма</w> 74813
эконо м 74808
10 . 74800
бри га 74791
сокра тить</w> 74771
ю сти 74738
Кита е</w> 74732
веде тся</w> 74691
вши ми</w> 74668
член а</w> 74643
Япо ния</w> 74641
секто р</w> 74636
фор ма</w> 74630
бое вых</w> 74625
предложи ли</w> 74619
О жида 74604
режиссе р</w> 74599
ме мо 74588
простран ства</w> 74573
чис лу</w> 74572
л лю 74565
Подроб нее</w> 74562
по един 74557
продолж ение</w> 74545
Запад ной</w> 74504
TRA NS</w> 74478
мен ту</w> 74472
зву ча 74442
стра и 74403
боль нице</w> 74402
Вы со 74398
пред ше 74366
продолжа ется</w> 74359
прео доле 74358
дет ских</w> 74352
це лый</w> 74344
пообеща л</w> 74340
строитель ству</w> 74316
но ри 74315
o t</w> 74308
ФА С</w> 74218
в ступления</w> 74205
право слав 74165
внеш ней</w> 74155
ни ж 74140
Д жи 74117
m e 74078
Гри го 74074
луч шим</w> 74048
ва го 74027
Р обер 74026
квали фикации</w> 74020
содержи т</w> 74016
мат чах</w> 74004
ne t</w> 74002
ло го 73996
у ти 73964
по стави 73962
буква льно</w> 73961
прове ла</w> 73955
il l 73949
ст ской</w> 73946
суще ствуют</w> 73943
миро твор 73938
Т вер 73932
простран ство</w> 73930
обще стве</w> 73892
сер ва 73889
о пол 73882
s . 73862
штра ф</w> 73858
зо й</w> 73853
те мы</w> 73835
тен ни 73829
сле жи 73812
сред ней</w> 73799
пер вен 73787
С ы 73779
моло до 73751
виде ть</w> 73747
измен ение</w> 73744
пар к</w> 73743
е вре 73723
Анг лии</w> 73717
Австра лии</w> 73716
пар у</w> 73714
на ше</w> 73704
из бран 73703
вше му</w> 73677
необ ы 73669
вя з 73651
Испа ния</w> 73618
поко ления</w> 73611
не лега 73606
ру ющие</w> 73603
види м</w> 73595
но п 73583
д важды</w> 73579
поли цию</w> 73578
й ский</w> 73567
фестива ль</w> 73539
ходи л</w> 73516
предлага ют</w> 73502
ме ча 73499
ви ки</w> 73487
н ью</w> 73484
фици ен 73484
э по 73472
ка дро 73463
Догово ра</w> 73443
й ного</w> 73434
о дина 73426
матер и</w> 73417
эф фициен 73413
вай п</w> 73410
N ov 73387
резолю ций</w> 73379
поощ рения</w> 73367
кну ть</w> 73355
А ли 73341
воз действие</w> 73341
демокра тии</w> 73331
выпу ск 73319
д жа</w> 73273
С о</w> 73270
Сле дует</w> 73270
фир мы</w> 73258
опера тивно</w> 73257
са мая</w> 73252
семь я</w> 73245
ри ск</w> 73239
Од на</w> 73196
мо раль 73193
устра и 73192
е мую</w> 73191
процес сов</w> 73191
благо дар 73181
Се васто 73179
V I</w> 73164
Р С</w> 73155
конкур с</w> 73148
Лу ган 73139
у крепи 73138
источ ника</w> 73129
ва ющей</w> 73115
ком муни 73102
упра влением</w> 73101
о скор 73089
Ан то 73089
Р О 73083
сле дить</w> 73067
экономи ка</w> 73053
сет ях</w> 73037
E x 73017
иде я</w> 73007
до вери 73006
дости чь</w> 73002
до пин 72987
при ва 72983
ру емых</w> 72961
хо тим</w> 72955
установлен о</w> 72923
возмож ные</w> 72919
провод ятся</w> 72917
мину те</w> 72898
рабо ти 72895
А ра 72889
до ль 72868
пыта лись</w> 72806
ны не</w> 72805
вра чи</w> 72802
мест ной</w> 72767
Дже й 72750
участ никам</w> 72727
ско ро</w> 72710
опла ты</w> 72689
ке ль</w> 72684
же к</w> 72659
предприя тие</w> 72642
Реги ональ 72641
авто ров</w> 72633
ри н</w> 72625
действу ющих</w> 72621
в шую</w> 72614
ва ю</w> 72608
Дени с</w> 72604
д вор 72596
Вяче слав</w> 72588
регу ля 72578
поме щений</w> 72576
e ar 72571
из ба 72563
С во 72559
Бе л 72556
распростра ня 72532
практи ка</w> 72524
па ль 72515
выпол нить</w> 72509
вра та 72496
Пред полага 72451
Ки ров 72449
Ж К 72404
получа т</w> 72396
l ine</w> 72392
попа сть</w> 72390
ло ка 72377
совеща ний</w> 72361
за служи 72359
во куп 72341
О но</w> 72330
юсти ции</w> 72293
шко лу</w> 72291
креди тов</w> 72283
Д ва</w> 72280
ко лон 72268
де те</w> 72263
Ха баров 72255
провер ка</w> 72253
суд ья</w> 72250
подразде лений</w> 72217
о пу 72205
те ло</w> 72201
Л О 72200
д ре 72197
По том</w> 72168
состоя лся</w> 72149
прода жу</w> 72147
по ни 72142
ня ми</w> 72138
Т Е 72127
2 6 72123
бро н 72110
глав у</w> 72109
име ются</w> 72098
Г ви 72095
Комите ту</w> 72086
персо нал</w> 72078
пред поч 72063
разме щения</w> 72058
охра не</w> 72057
Э н 72040
те ме</w> 72032
Хо ро 72030
чемпи он 72026
воен но</w> 72015
ра н</w> 72001
по ставля 71974
W or 71951
мето ди 71951
тр л 71918
регуляр ного</w> 71916
ча ми</w> 71897
Сторо ны</w> 71890
Ко ман 71881
теа тр</w> 71877
ло м 71863
важ ную</w> 71853
четвер той</w> 71835
неправитель ственных</w> 71826
бы стрее</w> 71823
рефор м</w> 71808
раз ы 71784
т ли 71767
сня ть</w> 71763
шта ба</w> 71761
с ны</w> 71741
принци п</w> 71716
A m 71703
удо воль 71695
сотрудни чать</w> 71692
гене ра 71692
вос ьми</w> 71691
субъек тов</w> 71687
о держа 71670
чи е</w> 71667
уда стся</w> 71662
за ла</w> 71621
жи л</w> 71614
ду мы</w> 71612
d s</w> 71607
ка фе</w> 71607
пи аль 71571
грози т</w> 71565
судь и</w> 71558
взы ска 71536
б рь 71526
ст ные</w> 71514
озна коми 71498
об щая</w> 71485
игро ки</w> 71485
пу сть</w> 71470
переда ть</w> 71454
Аи Ф</w> 71445
ща ют</w> 71404
цион ном</w> 71394
ми ссий</w> 71383
Ка и 71362
созда на</w> 71352
вы зыва 71351
Ж у 71343
Д НР</w> 71341
прокуро ра</w> 71333
рь е</w> 71322
табли це</w> 71309
серьез ных</w> 71303
Ч П</w> 71290
f e 71284
вы вод</w> 71265
вспо м 71261
а ль</w> 71230
не большой</w> 71199
национа ли 71191
ка кую</w> 71176
ку льта 71168
Пу ш 71155
времен а</w> 71149
Л ь 71139
не достаточно</w> 71130
Слу ж 71128
ве ден</w> 71120
Ч М</w> 71112
Пре сс</w> 71104
h as</w> 71087
б лю 71083
позволя ют</w> 71075
акти визи 71073
гла за</w> 71070
Ж Д</w> 71067
тель ному</w> 71039
памя т 71036
заме тил</w> 71018
А эро 71009
пад ение</w> 71003
реали зу 70985
И Г</w> 70952
воро т</w> 70946
S h 70933
стви й</w> 70933
независи мо</w> 70929
К ла 70928
американ ские</w> 70925
плани руют</w> 70921
бер г</w> 70903
ку х 70896
цве та</w> 70843
за канчи 70840
футбо ла</w> 70827
любо е</w> 70822
уг ле 70789
прово ка 70788
Евро союза</w> 70763
теле кана 70757
группи ровки</w> 70756
установ ки</w> 70748
еха ли</w> 70735
ь ер 70715
перспек тивы</w> 70709
Йор к</w> 70699
201 9</w> 70687
Департа мент</w> 70672
рабочи е</w> 70666
рова я</w> 70654
американ ский</w> 70651
принци пе</w> 70636
ка ком</w> 70618
рус ского</w> 70604
ров ке</w> 70574
Ш о 70538
предпринима телей</w> 70538
отде ление</w> 70533
лан дия</w> 70528
по ва</w> 70510
р ного</w> 70509
моло дой</w> 70504
голов у</w> 70474
раз ум 70473
На деж 70443
мигра н 70440
ж дут</w> 70426
пере числен 70420
ло ги</w> 70418
Пе сков</w> 70394
участ ка</w> 70388
вы шла</w> 70386
провод ят</w> 70384
очевид но</w> 70376
соверши л</w> 70371
эк спо 70363
мор ской</w> 70343
секретариа т</w> 70342
действу ют</w> 70339
исследо вание</w> 70322
е к</w> 70321
s o</w> 70321
све те</w> 70308
в друг</w> 70307
По ч 70286
упра влению</w> 70266
визи та</w> 70256
су ток</w> 70193
кра со 70186
не ра</w> 70183
за пас 70182
поя сня 70177
гене рал</w> 70177
коман дой</w> 70174
кон гре 70155
мест у</w> 70150
ду хов 70148
пла сти 70134
попа ли</w> 70123
en d</w> 70099
ст ка</w> 70079
муниципа льных</w> 70058
му со 70025
дру гую</w> 70023
приве дет</w> 70016
ги на 70007
под ви 69992
много е</w> 69992
эффектив ной</w> 69991
хоро ший</w> 69990
писа ть</w> 69982
Ф ут 69981
определен ные</w> 69979
Ман че 69977
вы воду</w> 69965
пере смо 69957
се й 69946
ч ному</w> 69920
маши на</w> 69917
зда ний</w> 69904
Си ти</w> 69903
секретариа та</w> 69888
праздни к</w> 69887
с прос</w> 69869
па кет</w> 69868
с кла 69854
послед ней</w> 69853
ля ют</w> 69813
C or 69799
О м 69792
re f</w> 69785
вы ставки</w> 69756
Т ра 69755
Р од 69745
Локо мо 69744
Ру би 69739
ядер ных</w> 69738
професси она 69722
пол ный</w> 69721
устано вления</w> 69714
указа но</w> 69702
C O 69701
сотрудни кам</w> 69699
рован ная</w> 69657
резолю цией</w> 69653
обстоя тельства</w> 69650
ay s</w> 69645
Националь ный</w> 69639
работа ющих</w> 69622
мер но</w> 69613
M a 69609
фон дов</w> 69585
проис ходя 69576
ги й</w> 69564
от клю 69548
уров нем</w> 69548
соответству ющего</w> 69529
П ло 69488
тиче ским</w> 69481
юриди ческих</w> 69475
а ф 69473
Ко рея</w> 69467
ре спонден 69431
пре д</w> 69420
то в 69399
и ми 69385
Да ге 69378
масшта бов</w> 69372
К А</w> 69360
к стати</w> 69351
нынеш нем</w> 69349
за прос</w> 69326
институ т</w> 69320
сси он 69310
М еди 69299
Ла т 69269
полови не</w> 69260
авиа компании</w> 69239
музе я</w> 69229
включа ть</w> 69220
акаде ми 69216
современ ных</w> 69183
поме щения</w> 69158
Add .1</w> 69153
объясни л</w> 69130
несовершенно летних</w> 69104
грани цу</w> 69088
w i 69082
Брю ссе 69058
борь ба</w> 69050
за ранее</w> 69038
н ном</w> 69032
све то 69032
без работи 69018
спе кти 69008
Совет у</w> 69004
страхо вания</w> 69003
футбо л</w> 68949
кра е 68942
ли ли</w> 68940
полож ениями</w> 68933
че б 68932
пробле мой</w> 68930
re m 68928
ди рек 68927
навер ное</w> 68927
И ли</w> 68920
щу юся</w> 68904
o s</w> 68900
над зор</w> 68876
задержа ны</w> 68876
дол г</w> 68873
эк стрен 68856
кварти ру</w> 68845
проз ра 68832
es s 68830
Чис ло</w> 68815
заболе ваний</w> 68796
само летов</w> 68785
Ал тай 68777
res s</w> 68759
на оборот</w> 68756
фу н 68754
дости жению</w> 68753
с верх 68745
ос во 68733
прекра тить</w> 68715
зав тра</w> 68698
Конферен ция</w> 68688
по просил</w> 68683
церемо нии</w> 68679
Россий ские</w> 68662
нача льно</w> 68660
з вание</w> 68659
государствен ный</w> 68651
по й</w> 68637
воспользо ваться</w> 68634
наимен ее</w> 68629
Еги пе 68619
болез ни</w> 68608
й ной</w> 68594
и ных</w> 68591
экономи ческим</w> 68548
вед ений</w> 68529
принад ле 68496
мат чи</w> 68485
выну ждены</w> 68484
пла нах</w> 68481
пар ен 68471
партнер ства</w> 68462
материа ле</w> 68461
насе ленных</w> 68456
Ф К</w> 68455
указа нных</w> 68436
пере смотрен 68428
луч ший</w> 68423
ви ло</w> 68403
до чь</w> 68386
долла ра</w> 68385
при держи 68378
гражда нам</w> 68365
ство вала</w> 68363
изу чения</w> 68349
выступа ть</w> 68343
ада п 68341
ти ло</w> 68331
Иль я</w> 68325
м ный</w> 68308
ен ным</w> 68308
служи ть</w> 68306
собствен ных</w> 68293
ста тей</w> 68291
Си м 68287
Су ще 68287
рубе жом</w> 68282
ри ска</w> 68273
пол ков 68265
Со ответ 68261
Шве ции</w> 68255
Экономи ка</w> 68247
ха м 68242
ва й</w> 68237
и поте 68213
раке ты</w> 68196
Не сколько</w> 68180
Кана ды</w> 68174
име ющихся</w> 68155
стра ной</w> 68151
профила кти 68142
ai d</w> 68132
T o 68127
со проти 68127
от ста 68126
занима ются</w> 68092
предотвра щения</w> 68066
добы чи</w> 68063
ссо м</w> 68060
кар то 68056
Поль ши</w> 68047
про информи 68028
тер пи 67996
гру зов</w> 67990
h ref</w> 67985
ин ди 67984
шен а</w> 67974
при мут</w> 67928
институ циональ 67921
заби л</w> 67920
ло е</w> 67896
en ce</w> 67894
три дца 67885
доба вить</w> 67852
зая вляет</w> 67841
испыта ний</w> 67839
в ведение</w> 67837
R ussi 67832
организо вать</w> 67831
распоря жении</w> 67779
на значи 67775
тель ских</w> 67772
И о 67757
Му ж 67757
граждан ства</w> 67750
возвра щения</w> 67749
го сла 67743
фору м</w> 67728
памя ть</w> 67719
Р ез 67708
вы стре 67700
моск ви 67695
ря ет</w> 67693
жен ные</w> 67689
ou ld</w> 67673
моби лизации</w> 67669
ле ва</w> 67654
х ристи 67645
оказа ться</w> 67644
труд ности</w> 67644
приве ло</w> 67641
привле чения</w> 67640
пусти л</w> 67614
u ters</w> 67610
участ ником</w> 67610
миро вых</w> 67610
т. д.</w> 67607
прекра щения</w> 67606
обстоя тельств</w> 67603
ог не 67594
ст ной</w> 67589
игра ют</w> 67577
р ении</w> 67553
буду щих</w> 67536
со на</w> 67534
потребу ется</w> 67489
Анд ре 67459
а пелля 67454
an g 67440
тив ными</w> 67398
по прежнему</w> 67395
ги м 67379
ря ды</w> 67378
Т ан 67369
пере чис 67365
тури зма</w> 67361
ПР О 67357
у строи 67342
жа н 67340
r e</w> 67336
использо ваться</w> 67320
пребы вания</w> 67319
эле менты</w> 67312
бур г</w> 67307
шан сы</w> 67301
С вер 67279
да вления</w> 67271
определен ных</w> 67252
Ирку тской</w> 67250
интере су 67249
ба зу</w> 67244
возмож ным</w> 67242
прогно з</w> 67241
Ну жно</w> 67239
вод ных</w> 67236
д ве 67191
об щие</w> 67180
Швейца рии</w> 67158
зо на</w> 67157
результа том</w> 67156
А ле 67152
созда н</w> 67146
помога ет</w> 67136
Гра ждан 67109
прош ло</w> 67101
По жа 67093
пропаган ди 67093
шко лах</w> 67091
А ЭС</w> 67088
мень шей</w> 67079
оф ф</w> 67047
Лат вии</w> 67044
Кари б 67041
буд то</w> 67035
Н и</w> 67022
ност и 67017
Рос бал 67014
зая влений</w> 67008
жи е</w> 66996
конферен ция</w> 66992
рейтин г</w> 66971
мор ских</w> 66969
полови ны</w> 66969
взно сы</w> 66967
использу ются</w> 66956
с ъем 66947
по пол 66931
мили ции</w> 66920
различ ными</w> 66916
приня тии</w> 66912
ма лых</w> 66906
лабо рато 66901
от чет</w> 66897
i o</w> 66891
Спе циали 66888
Поли ция</w> 66869
Ф ору 66861
принци пиаль 66856
гла в</w> 66848
снизи ть</w> 66831
Финлян дии</w> 66831
постано вление</w> 66828
Леони д</w> 66824
иде аль 66816
утвер жден 66814
тен си 66809
ж ная</w> 66804
Про бле 66791
жи тель</w> 66778
ЖК Х</w> 66778
д лов 66776
хи и</w> 66762
зе млю</w> 66750
пыта лся</w> 66733
ден а</w> 66729
Секретариа та</w> 66729
фрак ции</w> 66727
прину ди 66719
подгото вить</w> 66713
про бе 66707
та н</w> 66699
се р</w> 66694
рен а</w> 66687
петербур г 66681
зда нии</w> 66663
жд ением</w> 66660
на в 66641
цион ными</w> 66625
контро лю</w> 66624
обяза ны</w> 66616
на став 66613
раз решение</w> 66609
орга нам</w> 66591
стоя т</w> 66581
ль я</w> 66568
высо кие</w> 66567
женщи нами</w> 66557
точ ка</w> 66554
Вашинг тон</w> 66545
мэ р</w> 66540
взя л</w> 66529
обо й 66517
ры бо 66513
авто мобили</w> 66505
Ни ге 66492
массо вых</w> 66480
ть ев</w> 66468
луч шие</w> 66460
генераль ного</w> 66459
оста льных</w> 66452
о ра 66445
по ток</w> 66438
г ин 66429
ac h 66407
нача лся</w> 66402
сло м</w> 66390
Ир ландии</w> 66378
защит ника</w> 66362
Е дин 66347
Re uters</w> 66328
тю ре 66313
шан с</w> 66305
теле канала</w> 66288
удосто вер 66281
о ли 66265
женщи нам</w> 66255
работа ла</w> 66242
лиц ом</w> 66239
вырос ла</w> 66238
сосе д 66217
успе х</w> 66205
бо л</w> 66196
следова тели</w> 66194
сдела но</w> 66191
жало бы</w> 66191
Соб я 66187
соблюд ение</w> 66174
в ных</w> 66173
ма лы 66167
ске т 66158
успе ха</w> 66150
трл н</w> 66149
докумен тации</w> 66147
ограни чений</w> 66143
мо на 66137
Ан жи</w> 66129
го ль 66118
по иско 66108
с ъез 66103
напра вл 66096
порта л</w> 66089
ру к</w> 66087
суд на</w> 66085
Ма ка 66079
е два</w> 66075
го ст 66075
наблюд ения</w> 66054
с нения</w> 66050
эваку и 66038
води теля</w> 66024
С начала</w> 66022
f ound</w> 66021
ба зи 66014
па л</w> 66013
штра ф 66009
по свя 65995
иско рен 65993
грани це</w> 65992
вра чей</w> 65988
Ви ктора</w> 65988
муниципа ли 65980
ра чи 65977
Отме чается</w> 65949
объясня ет</w> 65948
рам ки</w> 65938
комби на 65924
теле канал</w> 65910
иден ти 65904
находи ться</w> 65899
прось бе</w> 65896
реш ено</w> 65881
го сти</w> 65879
ж ным</w> 65877
площад ью</w> 65875
Б и</w> 65862
су ды</w> 65851
оцени ть</w> 65851
Ne ws</w> 65847
бе ру 65843
Пар ла 65841
пред выбор 65831
по дар 65815
устрой ств</w> 65813
ви в</w> 65773
использо ванию</w> 65769
полно цен 65769
об жало 65745
т. е.</w> 65744
мо то 65739
К ы 65717
ле тие</w> 65705
обви нение</w> 65698
у жесто 65692
поступи ло</w> 65691
мину ты</w> 65681
да ты</w> 65669
УВ КБ</w> 65661
дене жных</w> 65644
МВ Ф</w> 65626
железно дорож 65613
5 0 65604
опа са 65601
С ар 65599
фигу ран 65592
взя ли</w> 65591
ки сло 65588
Кана да</w> 65561
разде ле</w> 65554
З АО</w> 65546
Ю г</w> 65541
и ран 65524
пара лле 65518
Егип та</w> 65518
го лу 65517
жерт вами</w> 65485
па тру 65464
причи нам</w> 65441
террори стов</w> 65438
выступ ление</w> 65438
ри ла</w> 65434
нынеш ней</w> 65431
тр я 65426
К э 65421
ска ми</w> 65417
ди те</w> 65414
инициа тиве</w> 65412
скоро сти</w> 65393
oin ed</w> 65380
виде л</w> 65371
вы игры 65350
функ циональ 65349
Бан ка</w> 65343
ье т 65336
Дж он</w> 65334
нача лись</w> 65331
дет ского</w> 65326
оказыва ет</w> 65319
on g</w> 65313
Ph one</w> 65305
В С</w> 65288
со рок</w> 65270
пол ное</w> 65259
у с</w> 65244
жа н</w> 65231
ста вок</w> 65228
стано вятся</w> 65223
по ш 65218
Сою з</w> 65217
сообща л</w> 65216
за п 65211
многочислен ные</w> 65211
Фе до 65202
са ли 65199
по строить</w> 65180
бу к 65180
влен ные</w> 65175
И К 65156
Никола я</w> 65154
Па три 65149
ти ке</w> 65126
предложи ть</w> 65125
ведом ство</w> 65111
иде ю</w> 65095
кон центра 65075
ц кого</w> 65066
Секретариа т</w> 65061
ду ющий</w> 65043
ча м</w> 65041
по благода 65039
лен ной</w> 65037
Президен та</w> 65034
ти ться</w> 65026
и щ 65025
роз ни 65021
ка ет</w> 65020
до вер 65019
сво й 65010
друз ей</w> 65009
re qu 65005
пробле мами</w> 65000
ш вей 64990
жи ли</w> 64976
использу ют</w> 64974
поки нуть</w> 64969
прав ки</w> 64949
я тно</w> 64946
пере хода</w> 64929
ф ра 64923
россия не</w> 64903
гаран тии</w> 64891
E N 64883
Слова ки 64870
зая влением</w> 64863
в последствии</w> 64851
ис к 64835
актив ы</w> 64793
ти ны</w> 64790
ша яся</w> 64781
ен ь 64754
ви ны</w> 64752
ж ном</w> 64749
поста нов 64745
са д</w> 64743
рати фици 64734
во де</w> 64724
Та кой</w> 64718
t e</w> 64716
гендер ного</w> 64715
указыва ет</w> 64696
осен ью</w> 64690
Стра теги 64681
от стра 64680
циф ро 64676
К уве 64674
начина ет</w> 64674
сыгра ть</w> 64652
дет ской</w> 64640
зе р</w> 64639
упа л</w> 64629
каждо му</w> 64605
Л ан 64601
экономи ческий</w> 64599
писа ли</w> 64592
тиче ское</w> 64579
сто л</w> 64564
Директо р</w> 64563
участ ке</w> 64557
адре су</w> 64548
Оте че 64543
Миха й 64540
в ред 64537
раз вер 64532
А . 64526
вы несен 64521
разработ ка</w> 64520
распреде ления</w> 64512
обла стей</w> 64496
удовлетвор ением</w> 64490
органи зу 64489
внутрен ней</w> 64478
затра т</w> 64472
ле со 64471
раз обра 64446
Й о 64440
власт ям</w> 64438
Че ч 64431
рус ский</w> 64422
Це ль</w> 64408
не хва 64399
el e 64391
надеж ду</w> 64390
ц ом</w> 64387
ра но</w> 64382
экспор т</w> 64377
фло та</w> 64362
O c 64334
Го во 64329
карь еру</w> 64318
Свет лана</w> 64318
прожи вания</w> 64306
M ic 64294
Лю бо 64294
p ar 64291
транс парен 64288
жур на 64287
фа бри 64278
законо проекта</w> 64272
побе да</w> 64268
инциден та</w> 64266
Стро и 64254
стратеги ческих</w> 64239
ни цей</w> 64210
an k</w> 64209
оста ваться</w> 64209
аук ци 64194
ри сков</w> 64188
нуж на</w> 64156
се ла</w> 64152
наз вали</w> 64146
фо нов</w> 64126
Ва с</w> 64121
Й е 64096
на сило 64079
хоче тся</w> 64076
Д ви 64074
интеллек туаль 64074
ва кан 64069
н но</w> 64063
точ ку</w> 64061
националь ным</w> 64057
тро й 64051
спи ска</w> 64032
глоба льной</w> 64031
бан ке</w> 64025
реконструк ции</w> 64015
м ян 64013
испол нении</w> 64010
заку пок</w> 64003
ребя та</w> 64001
член ом</w> 63999
во ин 63972
П от 63964
ab le</w> 63964
объек та</w> 63946
хоте ла</w> 63920
st r 63911
аспек ты</w> 63902
заинтересован ных</w> 63895
но выми</w> 63885
Эсто нии</w> 63883
ген о 63876
в ные</w> 63873
вой на</w> 63860
но ви 63853
J oined</w> 63832
осно вы 63817
от ца</w> 63813
ш ос 63810
Лав ров</w> 63807
EC E</w> 63798
ро д</w> 63796
кон стати 63771
до ход</w> 63754
турни ре</w> 63739
эксплуата цию</w> 63737
за тя 63734
работ ка</w> 63728
P l 63711
со вокуп 63711
дан ными</w> 63699
прове рить</w> 63699
учены х</w> 63696
Ве сти</w> 63677
разви вать</w> 63673
м бу 63663
зарпла ты</w> 63650
Б У</w> 63648
т ства</w> 63640
ги дро 63636
созда ет</w> 63622
бы вшей</w> 63617
договорен ности</w> 63599
ведом стве</w> 63597
санк циони 63597
види т</w> 63593
администра ция</w> 63585
улуч шению</w> 63584
свидетель ствуют</w> 63571
состоя лось</w> 63562
вше мся</w> 63549
3 ,5</w> 63542
му ж</w> 63537
ня ка</w> 63526
Екатери на</w> 63525
состави ли</w> 63521
дума л</w> 63521
З и 63515
al ly</w> 63514
Ю лия</w> 63490
про ходить</w> 63466
разору жению</w> 63465
следу ющее</w> 63464
хи н</w> 63463
w n</w> 63462
Ни же 63456
те рии</w> 63452
пол тора</w> 63440
ис ходя</w> 63436
лу ю</w> 63435
стан ций</w> 63435
ин тенси 63434
вы нес 63416
еди ниц</w> 63404
вра ч</w> 63403
лидер ы</w> 63384
CN . 63366
ко эффициен 63363
ста ро 63351
B r 63348
от зы 63306
вой не</w> 63306
много м</w> 63285
нра вится</w> 63280
чемпи он</w> 63268
намер ена</w> 63265
A T 63256
с ное</w> 63252
се к</w> 63242
Н ХЛ</w> 63234
вто рая</w> 63232
L e 63228
ве ла</w> 63193
е ю</w> 63188
разде л</w> 63173
Глав ное</w> 63169
М Е 63140
недо воль 63112
называ ется</w> 63097
РА Н</w> 63096
б рас 63092
собствен ные</w> 63069
С пра 63061
на силь 63059
Олимпий ских</w> 63047
реали зацию</w> 63034
Са ма 63030
инициа тиву</w> 63030
Че л 63027
Стои т</w> 63025
теле фон</w> 63004
владе лец</w> 62994
Бю ро</w> 62993
Стои мость</w> 62971
пи ще 62970
На ши</w> 62960
клу бов</w> 62953
пенси и</w> 62946
1 10</w> 62944
ли ю</w> 62927
соответ ствие</w> 62924
тех ника</w> 62923
B o 62920
в шем</w> 62919
широ ко</w> 62910
перспек тиве</w> 62905
H o 62900
пар ков 62883
Дж ор 62873
полу чении</w> 62872
Сол н 62864
om e</w> 62858
пи сы 62850
жен ный</w> 62825
косми ческой</w> 62818
Информа ция</w> 62814
вклю чения</w> 62809
Лю д 62794
y s 62788
би леты</w> 62782
т ному</w> 62770
раз или</w> 62757
ai l</w> 62752
по э 62748
Пер вая</w> 62745
культур ного</w> 62742
спе ци 62729
де пози 62728
роди лся</w> 62710
Де лега 62698
й ских</w> 62686
пе ти 62686
l in 62681
наде ется</w> 62672
Р Г</w> 62651
обе их</w> 62651
си пе 62640
сер тифика 62636
обе з 62625
балан си 62615
кры м 62610
сол не 62556
зем ле</w> 62543
хи ру 62539
Совет ского</w> 62528
el l</w> 62525
В ин 62521
бюдже те</w> 62521
связа нной</w> 62512
дан ное</w> 62510
пер спекти 62497
преступ ление</w> 62496
обсу дить</w> 62489
тель стве</w> 62478
Бе з</w> 62478
прово ци 62478
техниче ские</w> 62477
ва ясь</w> 62469
применя ть</w> 62450
Верхов ный</w> 62440
ва в</w> 62429
Крем ля</w> 62408
выро сли</w> 62392
н ь 62383
О стро 62382
карти ны</w> 62375
Та кая</w> 62328
ошиб ки</w> 62323
воз награ 62298
сопер ника</w> 62270
га л 62260
проек том</w> 62256
у ка 62239
г ности 62237
Л ДП 62229
у те 62224
со мо 62224
Ка кие</w> 62213
претен зии</w> 62208
о пе 62197
совмест ных</w> 62191
заверши ть</w> 62183
работ ке</w> 62175
ме д</w> 62174
мо ли 62171
ру ем</w> 62167
Бы ли</w> 62160
выпол нению</w> 62149
буду чи</w> 62148
х уже</w> 62142
1 .</w> 62141
Манче стер</w> 62129
держ ки</w> 62122
игро к</w> 62119
ложи л</w> 62110
об работки</w> 62099
Че твер 62090
в ступа 62042
аре ста</w> 62042
ма гни 62034
ре с</w> 62032
анали зи 62005
те бе</w> 61985
ig ht</w> 61981
си бо</w> 61979
Д О 61973
же л 61973
фай л</w> 61965
понима ния</w> 61963
филь мов</w> 61958
Ле бе 61925
пу ль 61920
да ст</w> 61915
из ве 61914
грани ц</w> 61900
штра фо 61898
Ф О</w> 61892
организо ванной</w> 61890
игро ка</w> 61885
Ад вока 61871
маги стра 61867
опера цию</w> 61866
повест ку</w> 61864
участво вали</w> 61862
зо ну</w> 61857
предусмотрен ных</w> 61852
4 0 61849
ар гу 61840
t on</w> 61836
пред ска 61835
Ли вии</w> 61834
бро са 61834
Ф ло 61830
гри вен</w> 61826
со ч 61823
стар ший</w> 61819
нд и</w> 61818
руководи тели</w> 61817
бы вших</w> 61814
отде льные</w> 61808
готов ность</w> 61797
пора жение</w> 61794
Ирку т 61791
ра ться</w> 61790
ков ский</w> 61786
рова лись</w> 61779
ен ности</w> 61769
люб ви</w> 61752
ва емые</w> 61741
объеди нения</w> 61731
ю щаяся</w> 61728
б рази 61712
те ми</w> 61712
зна ем</w> 61712
ве сной</w> 61704
Ц и 61696
крат ко 61669
ди ю</w> 61664
рен ы</w> 61660
за вери 61641
влия ния</w> 61613
Ф у 61610
обо их</w> 61607
эффек т</w> 61599
Гер це 61597
числен ности</w> 61592
инф ляции</w> 61589
секрета рем</w> 61583
Государ ственной</w> 61556
вы брать</w> 61555
Муж чи 61544
един ственный</w> 61543
и стре 61526
зна ния</w> 61526
тин ген 61526
ec t</w> 61526
ст ров 61506
специали ст</w> 61496
ва ющего</w> 61456
Спра ведли 61455
х ранения</w> 61453
тр у</w> 61448
показа ния</w> 61424
ак ты</w> 61421
споко и 61412
ту ет</w> 61399
север о</w> 61397
законодатель ством</w> 61394
Иго ря</w> 61380
значи тельной</w> 61375
получа ется</w> 61374
вклю чены</w> 61370
Ли бе 61369
Восто ка</w> 61363
встре ч</w> 61343
метра х</w> 61342
Куз не 61333
бе зна 61332
След ственного</w> 61307
от слежи 61300
ба я</w> 61291
начина ется</w> 61276
голо са</w> 61272
Ро сте 61246
О ко 61224
an t</w> 61222
Герце го 61219
хо ждение</w> 61216
фи ло 61199
цен три 61197
функциони рования</w> 61195
цен тры</w> 61194
пожалу йста</w> 61169
Ру ан 61168
шос се</w> 61146
Си рий 61137
у шел</w> 61125
интер нете</w> 61112
у лы 61108
обрати лись</w> 61106
rig ht</w> 61104
тради ции</w> 61098
лич ного</w> 61094
обра з</w> 61076
кварти р</w> 61076
В ТО</w> 61071
ЕНИ Е</w> 61062
А С 61056
ру сали 61056
в ченко</w> 61054
К лин 61053
не по 61053
ак тер</w> 61051
Х ан 61048
бедстви й</w> 61043
от кро 61035
Э ри 61034
произ веден 61034
сче те</w> 61033
Ю рия</w> 61024
об е</w> 60981
п ления</w> 60951
нача лось</w> 60940
це ва</w> 60936
требо вание</w> 60934
до хода</w> 60906
сохра ни 60899
макси му 60849
оз ву 60843
установлен ы</w> 60818
ю ме</w> 60814
Госду му</w> 60812
У лья 60806
ремон та</w> 60805
a in</w> 60786
и на</w> 60781
на много</w> 60774
Каза ни</w> 60767
I X</w> 60748
оппози ционе 60741
лен ного</w> 60738
ше ль 60727
вла д 60727
ше стьдесят</w> 60716
ле ст 60705
ц ы 60699
строитель стве</w> 60693
выигра л</w> 60691
Систе ма</w> 60690
корре к 60684
производ стве</w> 60680
выпол нении</w> 60667
квали фика 60662
концеп ции</w> 60651
ну жен</w> 60646
акаде мии</w> 60641
осуществля ться</w> 60628
выпла чи 60614
Побе ды</w> 60607
Мо ро 60584
част ей</w> 60581
serv er</w> 60569
ЛДП Р</w> 60565
ин струк 60562
сы ла 60553
et y</w> 60543
боепри па 60541
w ill</w> 60540
Экономи ческого</w> 60540
ти п</w> 60535
1 30</w> 60532
филь ме</w> 60529
В ес 60518
M e 60496
маши не</w> 60490
П ис 60450
Локомо тив</w> 60431
на це 60428
З у 60422
заболе вания</w> 60420
Еди ная</w> 60420
предоставля ть</w> 60416
спокой но</w> 60413
мо и</w> 60403
m in 60400
9 00</w> 60396
челове ком</w> 60395
а ссо 60385
До ро 60385
сси ях</w> 60381
Египе т</w> 60380
процес суаль 60379
ру ку</w> 60341
счита ем</w> 60324
води телей</w> 60321
коммер ческих</w> 60319
предме т</w> 60318
современ ной</w> 60299
e y</w> 60294
к ем</w> 60289
валю ты</w> 60289
Кали нин 60282
p ri 60268
за ли 60267
стать ю</w> 60259
из насило 60238
це ден 60233
обла дает</w> 60226
Гос под 60223
тор говой</w> 60220
кон тинген 60212
сцен е</w> 60212
ок купа 60199
с ла</w> 60190
дру гая</w> 60188
тель ской</w> 60182
вл е</w> 60178
опас ность</w> 60178
соревно ваний</w> 60169
улуч шение</w> 60116
ш кин</w> 60107
рын ках</w> 60103
контро лем</w> 60080
а х</w> 60069
смотри т</w> 60068
Tim es</w> 60052
огово р 60047
ки ев 60045
интере сно</w> 60033
сувер ени 60025
при сво 60015
n ational</w> 60003
по бы 59991
Ч Е 59987
веще ства</w> 59974
все сторон 59970
мо его</w> 59963
переда че</w> 59962
язы ках</w> 59959
Ла тинской</w> 59954
ра циональ 59950
солда т</w> 59946
Авто р</w> 59928
природ ных</w> 59902
t d</w> 59889
ко вого</w> 59859
ак ция</w> 59859
несу т</w> 59824
вы ходит</w> 59819
ос ведом 59805
вело сипе 59793
Со мали</w> 59780
в шаяся</w> 59773
коло ни 59753
ку б 59749
до вать</w> 59746
постано вил</w> 59734
турни р</w> 59733
доказа тельств</w> 59709
при част 59705
сами х</w> 59703
воен ный</w> 59694
статисти ки</w> 59688
боль шее</w> 59676
не которым</w> 59675
пла ка 59670
оста н 59664
шен ные</w> 59658
Вели кой</w> 59652
претен ден 59647
u p 59637
Ста р 59630
результа тах</w> 59626
и ллю 59611
Конвен ция</w> 59602
Пари же</w> 59599
территори ях</w> 59595
ро сту</w> 59592
необходи мым</w> 59571
з ме</w> 59570
Ал жи 59565
Е му</w> 59563
с кро 59558
деву шка</w> 59558
ше в</w> 59557
s aid</w> 59551
информа ционной</w> 59534
Б Р</w> 59532
рован ными</w> 59513
те ма 59497
Васили й</w> 59495
стои мостью</w> 59486
в ный</w> 59474
10 00</w> 59467
федераль ных</w> 59451
с на 59425
извест ных</w> 59412
S k 59370
пробле ме</w> 59369
ЕН НЫХ</w> 59355
О Н 59350
площа дки</w> 59342
Б А 59332
предыду щих</w> 59326
массо вого</w> 59312
во дой</w> 59288
о м 59287
мо ду 59252
l l</w> 59251
н ениями</w> 59251
лы ми</w> 59244
возду х</w> 59230
оказыва ется</w> 59230
хоро шие</w> 59227
экономи ку</w> 59210
аль ян 59209
Ие русали 59206
важ ные</w> 59197
Со в 59196
под ъ 59193
фигу ри 59192
приве ден 59190
о ставить</w> 59183
Ма гни 59168
U S 59150
включа ют</w> 59146
Уни версите 59129
тор у</w> 59121
пресе чения</w> 59118
Медведе ва</w> 59108
А каде 59103
сто р 59088
выпол нен 59087
колле г</w> 59082
земле тряс 59076
устойчи вому</w> 59071
комите том</w> 59044
ц вет 59043
у йти</w> 59034
О дним</w> 59030
специаль ного</w> 59028
за действо 59027
Всемир ного</w> 59023
косми ческого</w> 59018
безу словно</w> 59010
журнали сты</w> 59009
региональ ными</w> 59001
тер мина 58983
ну ла</w> 58969
модерни зации</w> 58967
диа гности 58959
д зе</w> 58944
Ре комен 58937
Око ло</w> 58929
эффектив ных</w> 58926
пред писа 58925
ситуа цией</w> 58906
т т</w> 58891
бом барди 58889
жало б</w> 58881
нен ко</w> 58880
аэропор т</w> 58855
ци ви 58851
продук цию</w> 58843
П П</w> 58835
Б ес 58831
ков у</w> 58830
рын ки</w> 58796
Са рато 58788
ре ки</w> 58763
да на</w> 58753
O n 58752
развер ты 58745
запа сов</w> 58740
пере ч 58739
Ста ни 58729
не восто 58715
за строй 58712
СК О</w> 58707
со вест 58705
ю к</w> 58679
д жи</w> 58666
площад ке</w> 58658
при ви 58647
ген директор</w> 58645
Т уни 58637
за менить</w> 58629
заня л</w> 58629
темпера туры</w> 58629
пи сь</w> 58627
во вле 58626
молоды е</w> 58626
про ми 58620
ю но 58618
t op 58605
пар ке</w> 58605
ново му</w> 58604
об народо 58586
счита ли</w> 58584
иск рен 58575
ни цах</w> 58554
s ch 58552
РФ С</w> 58551
согласи лся</w> 58549
А нали 58544
Р У 58541
рова ло</w> 58536
Ста вро 58533
предпо чита 58531
ду ю</w> 58522
пора жения</w> 58520
побе реж 58516
не м 58498
она м</w> 58484
Свер длов 58484
по сту</w> 58475
сов мести 58460
но вич</w> 58457
похо же</w> 58453
Ж ур 58451
у реа 58448
ля ли</w> 58443
последни м</w> 58437
es ted</w> 58417
гуманитар ного</w> 58412
согласи е</w> 58410
г вар 58396
мен тами</w> 58396
ч ка 58393
предложен о</w> 58388
кандида т</w> 58365
сла бы 58360
кон стру 58358
фе й 58356
заклю ча 58341
ри ски</w> 58340
Об щая</w> 58339
расши рить</w> 58332
ня т</w> 58331
от рази 58324
П он 58308
иг нори 58308
ди стан 58302
кило грам 58296
Н И</w> 58285
националь ный</w> 58285
Ал та 58270
высо ким</w> 58268
совмест ной</w> 58266
деву шки</w> 58249
вши мся</w> 58238
сом не 58230
Особ енно</w> 58225
пере кры 58219
На й 58210
смо гла</w> 58199
рассматри вает</w> 58198
высо ких</w> 58166
очеред и</w> 58160
зна к</w> 58152
по ведение</w> 58130
а бо 58126
Допол нитель 58099
Три бу 58090
Де ся 58087
шта та</w> 58068
выпла т</w> 58062
т ках</w> 58055
З О</w> 58055
ра сти</w> 58053
примен ении</w> 58053
На стоя 58038
преследо вания</w> 58037
И м</w> 58033
к ен 58028
телефон у</w> 58020
фан та 58016
.. .. 58011
Пак та</w> 57993
Оле га</w> 57987
По каза 57986
основ ы</w> 57978
с ном</w> 57975
К НР</w> 57965
вше е</w> 57959
запи сь</w> 57957
сто е</w> 57944
Сове те</w> 57941
10 5</w> 57939
инстру ментов</w> 57936
нач нет</w> 57935
по хоро 57931
напра влений</w> 57930
Лука шенко</w> 57921
щен ные</w> 57906
ни сти 57904
И но 57896
друго му</w> 57895
С О</w> 57862
шен о</w> 57861
1, 2</w> 57858
пере ход</w> 57855
ви лся</w> 57831
теку щем</w> 57831
ре ц</w> 57804
фак ты</w> 57804
револю ции</w> 57797
манда т</w> 57795
в пло 57746
ги ган 57741
Феде рация</w> 57714
на дея 57699
при шла</w> 57696
пози ций</w> 57694
договори лись</w> 57691
ну лся</w> 57685
времен ной</w> 57677
направи ть</w> 57671
предупре ждению</w> 57653
Ч ем</w> 57641
Ц Р 57630
энер го</w> 57625
зи на</w> 57619
офор м 57609
i e</w> 57606
ж ени 57606
ше стой</w> 57596
личе ство</w> 57589
опера ция</w> 57584
игра х</w> 57578
о пере 57571
Ю госла 57569
муз ей</w> 57567
пись ме</w> 57546
сы но 57540
ю р 57532
тяже ло</w> 57529
д нях</w> 57527
треть е</w> 57519
П ан 57517
ван ная</w> 57514
зада чу</w> 57514
НА ЦИ 57513
действи ях</w> 57512
вариан ты</w> 57507
Дж о 57503
глоба льного</w> 57486
Мер кель</w> 57485
с мени 57481
утвер ждение</w> 57476
от куда</w> 57465
франц у 57462
порт фе 57454
торго в</w> 57436
ат ло 57430
сро ком</w> 57414
столкнов ения</w> 57409
вре мен</w> 57400
по жи 57389
Ко ордина 57387
Пре ж 57385
Н ОВ 57378
зло умышлен 57371
вы вать</w> 57364
не мало</w> 57355
ст я 57348
патри о 57334
ж ениями</w> 57331
вну три 57331
Цен а</w> 57327
физи ческих</w> 57317
мероприя тие</w> 57315
ще му</w> 57298
И ме 57293
виде ли</w> 57291
ер е</w> 57276
основ ного</w> 57269
задержа ния</w> 57259
Га й 57258
гаран тий</w> 57250
наруш ении</w> 57236
тюрь мы</w> 57216
выска зы 57206
оста ться</w> 57200
Ар сена 57198
диску ссии</w> 57195
сте ре 57194
капита л</w> 57193
лицен зии</w> 57188
получи лось</w> 57168
Д вор 57163
пол года</w> 57159
бан ком</w> 57155
На конец</w> 57145
Кон гре 57144
объя вили</w> 57138
рын ков</w> 57126
у хода</w> 57120
пи н</w> 57089
Од но 57088
де ль</w> 57080
as t</w> 57077
владель цев</w> 57067
воз раст</w> 57062
связа на</w> 57062
Афгани стане</w> 57054
ма ма</w> 57053
нача лу</w> 57050
Э ква 57034
ВВ С</w> 57034
сле д</w> 57033
серд це</w> 57032
земе ль</w> 57026
напря мую</w> 56999
b o 56997
ра цию</w> 56991
рок ко</w> 56983
пере мен 56968
заме тно</w> 56967
лич ной</w> 56966
район ы</w> 56957
Э д 56954
Мос гор 56946
бу х 56939
g l 56927
случай но</w> 56907
ц о</w> 56906
Госпо дин</w> 56904
ну ться</w> 56903
разбира тельства</w> 56890
из де 56883
ц у 56871
бу ты 56869
от каза</w> 56851
призна лся</w> 56850
африкан ских</w> 56849
трагеди и</w> 56845
сообщи ло</w> 56834
пе ви 56827
Консульта тивный</w> 56823
por t</w> 56803
пу т 56793
президен тских</w> 56788
способ ствует</w> 56779
Ч или</w> 56775
на жды</w> 56771
нало га</w> 56771
социаль ным</w> 56757
Су м 56757
Москов ского</w> 56755
осла б 56734
ш ке</w> 56730
колле ги</w> 56707
футболи стов</w> 56702
У читы 56699
не медленно</w> 56696
Ин дия</w> 56695
Норве гии</w> 56685
прокуро р</w> 56684
У чены 56680
види мо</w> 56670
О публико 56631
Донец кой</w> 56631
S e 56629
откры тие</w> 56619
ва шей</w> 56614
г не 56610
сокра щению</w> 56608
прод ю 56597
случи лось</w> 56593
пол ную</w> 56582
сче тов</w> 56580
Р П 56579
чи ться</w> 56576
труд я 56568
Са м 56562
аппара та</w> 56559
гражда нина</w> 56552
серви с</w> 56550
М О</w> 56542
горо ду</w> 56539
откры того</w> 56535
Про сто</w> 56529
Дж он 56528
улуч шить</w> 56522
вы разили</w> 56515
фун да 56503
упра влен 56497
G R 56492
арен ду</w> 56475
претензи й</w> 56466
ч ую</w> 56465
образо ванию</w> 56465
пер ене 56448
воз рос 56444
наруш ениях</w> 56441
эваку а 56439
i Phone</w> 56432
республи ке</w> 56424
пре цеден 56422
контрак тов</w> 56401
ком пенси 56397
ви р 56393
Федераль ной</w> 56389
взры в</w> 56384
Б изне 56378
материа ла</w> 56377
Р ЖД</w> 56369
Тимо шенко</w> 56362
лиде ром</w> 56359
ac k 56345
di a</w> 56342
ПР ЕД 56338
Пис ь 56327
предполага ется</w> 56318
Y ou</w> 56316
деся тков</w> 56315
отве чать</w> 56310
Поз же</w> 56297
голосо вание</w> 56286
рассматри вается</w> 56280
предложи ла</w> 56280
Л И 56268
нен а 56264
Руковод ство</w> 56261
любо вь</w> 56256
фа ми 56248
устано вили</w> 56234
Ан ти 56231
Не извест 56213
кор порации</w> 56202
ру г 56185
мен ко</w> 56184
собира ются</w> 56179
Ко реи</w> 56173
Чемпи она 56170
поез д 56162
ля ется</w> 56160
особо го</w> 56143
А НИ 56133
у мер</w> 56129
те ле</w> 56123
важ ный</w> 56122
W h 56120
взрос лых</w> 56099
b l 56086
приобре сти</w> 56083
специаль ный</w> 56069
вы жи 56067
директо ром</w> 56064
рус ской</w> 56061
Последни й</w> 56060
призна ли</w> 56050
То л 56048
восстано вление</w> 56045
пожа р</w> 56042
бе ль 56041
соблюда ть</w> 56041
откры л</w> 56028
содержа тся</w> 56024
на ции</w> 56020
опти ма 56012
бал ла</w> 56007
влен ной</w> 55997
годо вщи 55991
о де 55988
то вой</w> 55988
Глав ная</w> 55988
сти ческой</w> 55986
отве та</w> 55978
институ тов</w> 55971
ми те</w> 55966
ме сто 55952
спи р 55936
принци па</w> 55936
6 0 55926
форма те</w> 55903
Да лее</w> 55903
пода чи</w> 55900
ба м</w> 55895
кол лега 55878
ба скет 55873
r o</w> 55865
те ром</w> 55834
от кров 55816
лле тен 55815
Юж ная</w> 55815
ти ям</w> 55814
кто ров</w> 55811
барре ль</w> 55791
прода ть</w> 55786
ver y</w> 55774
инциден т</w> 55768
за ставля 55758
доро гу</w> 55758
де лом</w> 55757
ба бу 55753
значи тельные</w> 55751
при ем</w> 55748
перегово рах</w> 55738
по йти</w> 55731
u p</w> 55729
ф ру 55724
U ni 55716
ка над 55711
ско рой</w> 55694
высо ко</w> 55689
незакон ного</w> 55685
Ма лай 55683
жа ться</w> 55677
ти ка 55666
широ кого</w> 55661
англий ски</w> 55660
степен ь</w> 55652
вы те 55645
от мени 55640
Государ ство</w> 55637
Социаль ного</w> 55637
стра хов 55627
се ле</w> 55625
реаги рования</w> 55622
экономи кой</w> 55618
теля х</w> 55615
По доб 55604
учи ться</w> 55590
причи на</w> 55573
украин ские</w> 55568
проек ти 55558
материа л</w> 55546
на бира 55535
ня ют</w> 55532
авто матиче 55522
ЕД ИН 55520
ото бра 55508
на считы 55506
дне вно</w> 55502
последу ющих</w> 55500
из ви 55497
понима ть</w> 55495
политиче ский</w> 55491
автобу с</w> 55491
в следствие</w> 55486
i es</w> 55477
выход ные</w> 55473
с право 55470
винов ным</w> 55466
проведен ы</w> 55462
мероприя тиях</w> 55455
тер е</w> 55453
производ ству</w> 55449
не замедли 55436
ви дом</w> 55434
з му</w> 55431
соответству ющий</w> 55431
гражда нин</w> 55421
аспек тов</w> 55420
глоба льных</w> 55417
дву м</w> 55406
че ва</w> 55402
I .</w> 55399
кон серва 55379
ситуа ций</w> 55359
электро нных</w> 55356
лете л</w> 55348
про дви 55344
моде лей</w> 55338
формиро вание</w> 55326
1 60</w> 55319
Д О</w> 55315
И ор 55285
поли то 55276
Г О 55259
под зем 55253
вс пы 55238
авто ры</w> 55230
чи й</w> 55228
ш тей 55224
Олимпиа ды</w> 55218
авиа ции</w> 55216
эк стра 55214
призна ния</w> 55207
дни к</w> 55201
покры тия</w> 55201
а ка 55178
h is</w> 55163
цело ст 55156
структу ре</w> 55150
сказа но</w> 55147
вид ят</w> 55137
P ar 55132
ЮНЕ П</w> 55132
понима ние</w> 55131
в ском</w> 55114
ча р 55106
при гото 55104
Ме та 55097
администра тивного</w> 55093
реаль но</w> 55093
по все 55086
Евро пу</w> 55085
На де 55074
ш пи 55073
европей ской</w> 55070
лен ный</w> 55064
призна н</w> 55061
Азербайджа на</w> 55060
си гна 55058
призна тельность</w> 55054
по клон 55047
тради ционно</w> 55043
бро ни 55027
подрост ков</w> 55017
Бри тан 55013
Д П</w> 55007
Поль ша</w> 55004
ви к</w> 54999
пи сто 54999
Д Е 54995
необходи мы</w> 54994
дан ная</w> 54991
ru .</w> 54986
Про це 54981
с х 54979
тре ть</w> 54971
народ ного</w> 54971
окру ге</w> 54971
Т ри</w> 54964
ак цен 54953
га л</w> 54952
Пе тра</w> 54942
обраща ться</w> 54930
призна ние</w> 54918
Во ору 54915
процес сы</w> 54915
контроли ровать</w> 54914
Си туа 54913
requ ested</w> 54911
рус ских</w> 54910
С бор 54889
бли же</w> 54884
прекрас но</w> 54884
ть е</w> 54875
транспор т</w> 54873
незакон но</w> 54873
Кон так 54868
силь нее</w> 54855
настояще м</w> 54852
услу гам</w> 54837
ини ции 54834
пря мой</w> 54828
практи ку 54813
В з 54804
бере т</w> 54778
ди ло</w> 54758
Большо й</w> 54755
креди т</w> 54751
законодатель ству</w> 54737
бо л 54736
клу бе</w> 54736
жи д 54720
Донба ссе</w> 54718
дево чки</w> 54712
ре ме 54708
продолжи т</w> 54704
приве ли</w> 54702
зи ди 54697
коммента рии</w> 54693
рован ное</w> 54685
за чем</w> 54684
про би 54680
транспор тной</w> 54666
ди ться</w> 54663
подозрева емых</w> 54659
уголов ных</w> 54637
внеш не 54630
позволи ло</w> 54629
за мени 54625
во дом</w> 54621
да ние</w> 54621
высоко поставлен 54620
ья н</w> 54617
подписа ли</w> 54614
Ожида ется</w> 54610
bu t</w> 54598
представи тельства</w> 54597
Европей ской</w> 54595
д рев 54590
удовлетво рения</w> 54590
ле ра</w> 54571
не известно</w> 54557
из дели 54552
Ко личество</w> 54549
ори гина 54548
вос ста 54544
П лю 54539
скоро стью</w> 54526
д жер 54521
современ ного</w> 54521
ка лен 54509
Учиты вая</w> 54490
Э ль 54487
мэ рии</w> 54485
вопро се</w> 54480
стре бо 54478
вз ор 54477
напра вление</w> 54467
зна л</w> 54460
ро бо 54457
золо то</w> 54456
пере ди</w> 54445
В ьет 54443
иде ологи 54441
il e</w> 54413
соли дар 54411
добро совест 54407
электро энергии</w> 54404
пе в 54402
пациен тов</w> 54397
м ский</w> 54386
име ющие</w> 54381
вариан тов</w> 54381
к лет 54364
cap tion</w> 54362
справедли вости</w> 54348
Кали фор 54344
но чи</w> 54343
де мо 54321
заседа ниях</w> 54319
П И 54298
состави ть</w> 54298
доро жной</w> 54296
возника ет</w> 54296
нала жи 54292
к рова 54287
У твер 54287
О МО 54284
теа тре</w> 54261
пода л</w> 54258
Уста ва</w> 54253
сред ство</w> 54251
до про 54245
ь ем</w> 54241
ба ра 54240
из начально</w> 54227
V II</w> 54219
инициа ти 54203
офи це 54193
природ ы</w> 54185
Арм ения</w> 54173
но у 54161
челове ку</w> 54157
ме тр</w> 54136
начина ют</w> 54136
пи ть</w> 54133
мест ном</w> 54125
Ана ста 54116
Результа ты</w> 54115
ор би 54108
ак цию</w> 54092
че ре 54087
Со вмест 54080
кру г 54075
смыс л</w> 54071
ab out</w> 54067
о пер 54061
экипа жа</w> 54057
Фа культа 54039
концер т</w> 54038
опера тивной</w> 54034
Га и 54028
не измен 54012
о сад 54006
катастро фы</w> 53999
конкур се</w> 53979
доказа тельства</w> 53969
обо зна 53957
конферен ций</w> 53950
При ня 53919
про м 53905
постоян ного</w> 53893
н ском</w> 53886
предоставля ет</w> 53874
по на 53867
of t</w> 53853
по ста</w> 53851
Вы с 53851
физи ческой</w> 53851
Сбер банка</w> 53848
ча сы</w> 53843
предусматри вается</w> 53840
н ка</w> 53826
га ле 53822
s on</w> 53821
примен ением</w> 53813
актив ности</w> 53800
ч кой</w> 53797
вероя тность</w> 53780
год но</w> 53774
рова лось</w> 53764
ОБ Ъ 53754
не которое</w> 53745
пострада л</w> 53741
об я 53732
цен ности</w> 53731
За то</w> 53712
ing s</w> 53712
нало г</w> 53708
заработ ной</w> 53700
Ма рокко</w> 53687
ру лем</w> 53685
ев у</w> 53673
визи он 53670
гон ки</w> 53670
мето до 53666
фору ме</w> 53665
швей цар 53646
ставлен ы</w> 53640
глав ная</w> 53637
гра до 53634
С В 53631
би летов</w> 53627
зна ете</w> 53620
В ан 53613
сты м</w> 53611
лле р</w> 53609
С У 53606
у ст 53592
участ ки</w> 53586
ма т</w> 53578
тем пы</w> 53563
перен ос 53554
ве ж 53552
обра тно</w> 53551
указа л</w> 53551
проведен а</w> 53540
во лон 53526
са мо</w> 53524
угро зой</w> 53523
зада чей</w> 53512
за блоки 53496
За мести 53496
Вашинг то 53492
вой ну</w> 53490
нов ский</w> 53481
да ла</w> 53477
Постоян ного</w> 53472
кла сс</w> 53469
до че 53463
Евро па</w> 53463
a . 53444
официаль ным</w> 53432
за ба 53429
ю ж 53419
Ки тай 53414
бере гу</w> 53409
ново стей</w> 53406
с бы 53401
З вез 53392
президен ты</w> 53389
кар т</w> 53370
отме чено</w> 53358
един ственным</w> 53357
пиш ут</w> 53353
то лко 53348
приро до 53345
Пред лага 53342
коммента риев</w> 53330
ву а 53327
существо вания</w> 53321
выпу ска</w> 53319
жи телям</w> 53310
груп пами</w> 53309
способ ны</w> 53309
под ру 53306
ради о</w> 53293
Саудов ской</w> 53289
п лы 53283
управля ющих</w> 53276
свиде телей</w> 53270
освобо ждения</w> 53264
бри фин 53243
приеха л</w> 53243
у ль 53242
пон рави 53237
. ру</w> 53235
Q u 53226
in a</w> 53222
выступа я</w> 53213
руководя щие</w> 53207
ми ла</w> 53193
под москов 53191
Поли тика</w> 53190
юще еся</w> 53184
вер х</w> 53182
Г С</w> 53175
щи мся</w> 53175
спор тивных</w> 53158
оборо та</w> 53148
корруп цией</w> 53133
от реаги 53126
чинов ник</w> 53126
отде л</w> 53125
выступа л</w> 53125
ситуа циях</w> 53120
А зиат 53114
с ная</w> 53113
осуществля ет</w> 53113
вы ставка</w> 53112
Не ф 53108
L oc 53101
Ф ПА</w> 53101
пере до 53096
198 9</w> 53094
ви лись</w> 53093
рабо чего</w> 53092
протоко л</w> 53091
р ный</w> 53088
прави лам</w> 53080
газе те</w> 53068
позна коми 53063
ч ники</w> 53047
стандар ты</w> 53032
пре ми 53031
сро ков</w> 53030
конкурен то 53021
ля цию</w> 53012
С ти 52986
пользу ются</w> 52981
Да та</w> 52975
по йдет</w> 52974
СИ ЗО</w> 52971
18 0</w> 52950
коне чном</w> 52948
раз верну 52946
произо йдет</w> 52931
насе лению</w> 52928
плате жей</w> 52927
во стребо 52925
р э 52915
Р ан 52903
су гу 52898
объе мы</w> 52892
Ма ла 52890
осно ваний</w> 52886
бло ка</w> 52881
О бе 52879
т ская</w> 52878
посе лке</w> 52874
ци р 52867
полови ну</w> 52866
мест ный</w> 52840
т ти</w> 52836
объек т</w> 52830
M on 52825
пя той</w> 52818
процеду ра</w> 52803
обсу дили</w> 52802
многи м</w> 52800
ст ры</w> 52777
я ть</w> 52776
зарубе жных</w> 52768
is h</w> 52740
Лебе де 52735
де ра</w> 52734
звез ды</w> 52734
внеш них</w> 52727
Те а 52715
государствен ным</w> 52713
тор мо 52711
собствен ного</w> 52709
ок на</w> 52707
режиссе ра</w> 52697
Ира ке</w> 52696
Д Н 52694
U n 52682
A .</w> 52673
ва лен 52669
Чел си</w> 52656
университе т</w> 52647
помощ ник</w> 52641
партне ры</w> 52639
ма стер</w> 52638
Бар нау 52633
взя тки</w> 52627
правоохра ни 52625
ни в</w> 52618
ка меры</w> 52616
ю ге</w> 52607
полага ют</w> 52602
еже меся 52592
воз гора 52589
участи ю</w> 52581
Т ы</w> 52575
Э нер 52571
ва шего</w> 52567
тру д</w> 52567
оконча тельно</w> 52548
Д А 52547
Г К</w> 52542
сообщи ть</w> 52537
Че лове 52529
ЮН ФПА</w> 52527
Влади миром</w> 52521
пу тей</w> 52518
четыре х 52505
доно ров</w> 52494
оста навли 52484
. 2</w> 52482
in de 52471
посети телей</w> 52469
инициа тива</w> 52468
Подмосков ье</w> 52467
практи ку</w> 52452
лег ко 52440
принима я</w> 52438
убежи ща</w> 52436
на ряду</w> 52434
ЮНЕ СКО</w> 52430
свобод ной</w> 52427
от менить</w> 52426
созда ли</w> 52419
наличи я</w> 52406
времен ных</w> 52396
би т 52385
оке ана</w> 52381
постано вляет</w> 52373
о по 52353
щи ками</w> 52353
да ции</w> 52347
поддержа ли</w> 52346
Ка д 52344
програм мой</w> 52342
подроб но</w> 52341
ожида ет</w> 52337
про гу 52324
лич ный</w> 52305
нен ави 52296
жи х</w> 52284
Мак е 52284
ма лого</w> 52281
т то</w> 52280
свобо д</w> 52271
Ва дим</w> 52270
профессо р</w> 52258
прео дол 52255
он у</w> 52254
распо ложен</w> 52244
Цен тро 52242
10 , 52241
в води 52229
араб ских</w> 52226
ува жения</w> 52223
со действии</w> 52222
со во</w> 52221
непре ры 52221
ги х</w> 52220
у держи 52214
пору чил</w> 52206
кон ди 52202
материаль но</w> 52202
фа куль 52194
призы в</w> 52178
чь и</w> 52174
ме дали</w> 52165
al s</w> 52161
г г.</w> 52155
стади оне</w> 52150
сохран ение</w> 52150
рейтин ге</w> 52140
Сле дова 52134
XX I</w> 52134
бю ллетен 52125
делега ций</w> 52115
се те 52099
ФИ ФА</w> 52097
19 80</w> 52088
уголов ной</w> 52087
На ш</w> 52070
ба за</w> 52062
ма нов</w> 52055
Вто ро 52049
ле са</w> 52047
e . 52039
приня ло</w> 52037
наркоти ками</w> 52033
кур сы</w> 52030
g i 52021
о теля</w> 52015
рекор д</w> 52015
пла ту</w> 52012
наруш ением</w> 52003
д ная</w> 52002
э ми 51996
на нес 51990
на копи 51987
обяза тельство</w> 51985
з ю 51980
ново сти</w> 51970
h ad</w> 51963
Вре мя</w> 51963
При меча 51960
допол нительно</w> 51959
ти лся</w> 51954
расши рению</w> 51950
е мость</w> 51928
компани ями</w> 51915
самми та</w> 51912
о чи 51910
об уча 51902
представи ла</w> 51897
по каж 51884
мест ным</w> 51882
задержа нных</w> 51879
процеду ру</w> 51873
пра вами</w> 51870
сти му 51865
е во</w> 51850
ОБЪ ЕДИН 51842
а зиат 51828
имен а</w> 51823
г ы 51820
Боль ше</w> 51817
Газпро ма</w> 51814
щи кам</w> 51809
ГА Т 51804
сыгра л</w> 51802
Ку бок</w> 51801
насили е</w> 51796
ре пута 51786
право защи 51785
шко ла</w> 51780
рова лся</w> 51768
подчеркну ла</w> 51766
re c 51762
уча щихся</w> 51758
выступи ть</w> 51757
полу ченные</w> 51746
позволи ть</w> 51742
созда ны</w> 51741
россий скими</w> 51740
полож ению</w> 51739
визи т</w> 51737
по сад 51736
же ли</w> 51723
С тре 51717
че е</w> 51716
Б он 51715
Генна дий</w> 51711
с держи 51709
докла ду</w> 51695
процес су</w> 51677
отве тить</w> 51668
С аль 51663
ска х</w> 51659
защи щать</w> 51654
наро ду</w> 51649
c ri 51640
под ходя 51639
но ги</w> 51638
актив ное</w> 51638
Ку ль 51637
журнали ст</w> 51625
Королев ства</w> 51618
работ ники</w> 51617
иностран цев</w> 51609
u t</w> 51604
ней тра 51596
за пла 51590
сторон ников</w> 51578
ре ва</w> 51577
Ближ нем</w> 51570
Ев ро</w> 51565
на против</w> 51557
из вле 51535
жур нала</w> 51529
поки нул</w> 51524
транс грани 51523
Пер во 51520
Авст рии</w> 51512
b or 51509
уничто жения</w> 51490
н г</w> 51463
По со 51453
кодек с</w> 51452
фай ла</w> 51449
магази нов</w> 51449
A ir 51443
т ко</w> 51429
рекомендо вал</w> 51426
ло вой</w> 51416
спи кер</w> 51406
принима ется</w> 51398
за то 51394
за лож 51394
цик ла</w> 51377
фи ни 51376
уча ствуют</w> 51359
Ро са 51359
понима ю</w> 51358
КО МИ 51345
насле дия</w> 51345
Ди а 51343
Го л 51339
it s</w> 51330
затра ты</w> 51321
Брази лия</w> 51316
приве л</w> 51302
к ци 51298
выбо ра</w> 51293
направлен о</w> 51291
остано вить</w> 51282
осу жден 51279
интере со 51271
плане ты</w> 51263
постано вления</w> 51257
на зем 51254
и стин 51250
f e</w> 51245
рак ет</w> 51234
Ве ро 51225
or t</w> 51222
та ния</w> 51209
m an</w> 51208
ду мы 51204
цен тром</w> 51202
T ele 51186
Предполага ется</w> 51184
с су</w> 51171
тя брь 51170
ч ок</w> 51169
седь мой</w> 51168
до ра</w> 51159
Гви не 51158
у бор 51152
Ки м</w> 51150
ди зе 51139
понима ют</w> 51115
эпи де 51110
Е Г 51109
зна ли</w> 51109
С П</w> 51102
О А 51096
секрета рю</w> 51088
арен ды</w> 51082
т ками</w> 51059
объя вила</w> 51051
кру гло 51048
сфер а</w> 51046
финансо вым</w> 51033
извест ны</w> 51023
числен ность</w> 51020
доби ваться</w> 51010
for um</w> 51005
ОБЪЕДИН ЕННЫХ</w> 51005
до пустить</w> 51002
про меж 51002
подо пе 50996
П ес 50995
политиче скую</w> 50994
из ы 50991
адвока та</w> 50975
k s</w> 50966
ЦИ И</w> 50961
Са мар 50959
ата ки</w> 50959
профессиональ ных</w> 50948
внутрен ние</w> 50940
рас стре 50934
прекра щении</w> 50929
проводи ться</w> 50925
Преж де</w> 50919
Ne w</w> 50914
С лов 50910
за рабаты 50906
щи йся</w> 50897
простран стве</w> 50891
Пути ным</w> 50876
у глуб 50872
C E 50857
экс кур 50835
об основан 50834
ж ность</w> 50830
успе л</w> 50827
кра ю</w> 50824
необходи мую</w> 50801
отве ты</w> 50799
осуществ лением</w> 50797
объ един 50796
жда ли</w> 50791
тща тельно</w> 50781
поддержа ния</w> 50741
го ла</w> 50738
националь ными</w> 50725
га ют</w> 50724
Во й 50723
по шел</w> 50721
по чув 50711
дру ж 50706
до ход 50701
го н</w> 50694
при су 50692
o m</w> 50679
га пу 50673
Е же 50672
англий ском</w> 50665
поясни ли</w> 50648
ро ма</w> 50626
продук т</w> 50623
стре лко 50617
откры то</w> 50617
пла та</w> 50605
т с</w> 50600
фай лов</w> 50597
под суди 50596
ad ding</w> 50591
разо ча 50589
проек там</w> 50587
Г де</w> 50561
заклю чении</w> 50559
поис ка</w> 50538
ма хи 50537
ван ном</w> 50535
Р ен 50534
доро го 50530
ли ны</w> 50522
M er 50519
Газе та 50514
ни же 50503
ст ров</w> 50500
связа н</w> 50497
t y</w> 50478
бе ль</w> 50474
еди ного</w> 50464
ОВ Е 50459
Ча сть</w> 50452
Про из 50438
сты й</w> 50435
к ноп 50424
жа х</w> 50415
разме ра</w> 50413
ва вших</w> 50386
га на</w> 50380
выдели ть</w> 50364
настоя щим</w> 50363
Ф Н 50356
би атло 50355
Те ре 50346
Локо моти 50346
ме ль 50337
о форми 50332
совершенство вания</w> 50332
3 3 50328
показыва ют</w> 50328
обстоя тельствах</w> 50327
Швейца рия</w> 50317
поддержи вают</w> 50316
Прави тельства</w> 50313
с су 50288
ла уреа 50287
бума ги</w> 50281
фон ды</w> 50273
Финан со 50273
ри су 50270
прово да</w> 50266
r y</w> 50265
тель ского</w> 50265
ле с</w> 50264
налого об 50263
б ь 50261
рей сы</w> 50260
un e</w> 50254
ос лож 50251
СК А 50247
экологи ческой</w> 50242
Бо ли 50239
вре да</w> 50230
c an</w> 50229
на правил</w> 50228
Москов ский</w> 50228
отды ха 50228
финансо вый</w> 50217
аль бо 50216
реги оны</w> 50209
наблюда ется</w> 50198
от а</w> 50177
О се 50170
по ступления</w> 50170
незакон ной</w> 50156
подо т 50152
хо тите</w> 50151
реализо вать</w> 50150
О Т 50147
Основ ные</w> 50121
Ка пита 50119
y le</w> 50106
совмест ного</w> 50104
и ст 50103
коали ции</w> 50073
[...]
