, 47718256
. 25614521
и 23307286
в 22767286
на 8481482
) 7763076
: 7347317
по 7279763
с 7216168
/ 6967812
@-@ 6646441
( 6177473
&quot; 5060594
для 4145912
что 3997981
о 3691030
не 3346186
к 3088288
В 2851076
года 2774052
; 2688860
- 2685612
или 2122319
а 2068679
также 2065882
от 1869160
за 1770884
из 1696086
* 1649498
как 1636908
1 1630001
Наций 1617605
Объединенных 1617564
Организации 1554878
&gt; 1466658
том 1399173
их 1374627
&lt; 1346210
2 1304854
его 1276562
которые 1267113
не@@ 1147392
3 1107132
чтобы 1082311
области 1036131
того 991845
10 948349
ные 932099
ных 922960
при 912500
4 910603
развития 905770
человека 903165
то 900909
будет 871861
ной 868057
до 859500
но 849496
более 842543
5 815465
я 812490
году 809582
ного 794331
отношении 783424
этой 777501
связи 771638
ным 764233
# 762042
деятельности 745312
вопросам 744163
это 742747
ее 741541
12 737041
бы 732888
прав 716605
все 715869
всех 715365
является 705872
6 705312
было 702522
00 698211
во 691948
соответствии 689512
ли 688772
были 683066
об 675234
н 675170
11 672918
женщин 669537
время 666791
7 662822
между 661053
ный 656710
ное 651362
может 645622
рамках 642427
? 641738
15 640028
a 626741
быть 619001
тем 618649
т 615326
ными 613967
стран 606886
со 597741
мы 594184
8 589543
2@@ 582280
он 579875
у@@ 579873
целях 574601
9 574459
резолюции 573824
работы 569457
этого 567709
у 567708
Комитет 567279
A 564173
ном 558319
сессии 553792
20 553033
С@@ 552052
был 541315
14 538623
США 537908
3@@ 535981
системы 534113
они 531608
ная 529934
та 528982
других 528941
за@@ 528273
включая 527839
13 525870
&#93; 521917
безопасности 521333
С 520354
16 519842
м 519722
30 514542
А@@ 512818
.@@ 510886
У@@ 506881
права 503688
государств 503432
на@@ 502052
же 501898
ную 500654
обеспечения 499777
18 497540
помощи 496660
который 493368
должны 490975
Совета 487564
этом 485630
О@@ 483851
ты 481458
могут 477639
по@@ 476702
ла 474589
+ 471575
информации 471510
&#91; 466110
этих 465448
дня 463379
е 462282
17 462073
те 460039
страны 459901
г 459551
государства 458098
25 455981
На 454946
которых 451829
меры 451364
период 446037
4@@ 444462
ному 442577
b 442161
качестве 440080
S@@ 440033
22 439477
Конвенции 437354
19 437286
21 436948
частности 434697
долл 433203
ка 431899
осуществления 430099
Генеральной 429850
л 428740
2009 428354
образом 424281
после 423929
год 423168
основе 421628
мира 420747
будут 420403
только 419176
% 417841
если 417661
лиц 413902
Генерального 412750
программы 411145
ть 409668
5@@ 408351
под 404053
так 403337
23 400954
секретаря 399044
до@@ 398732
P@@ 396667
детей 395553
своей 394790
следует 390139
И@@ 389938
2008 389138
И 388606
уровне 387722
средств 386610
ходе 385918
при@@ 385720
2010 385185
9@@ 381058
ться 380460
была 379427
ской 379350
вы@@ 378287
которая 377586
данных 376409
-- 376381
В@@ 375820
C 374847
ло 374564
6@@ 372355
про@@ 371466
когда 370360
ли@@ 368154
мер 367829
группы 366035
действий 362290
24 361953
доклад 360244
со@@ 360030
решения 358534
организации 358024
http 357670
C@@ 357587
= 357456
с@@ 356732
лет 355302
T@@ 355252
2011 352408
7@@ 351152
ресурсов 351054
пере@@ 348581
on 347781
можно 345842
случае 345529
таких 343906
2012 342764
членов 341954
П@@ 340813
Кроме 339940
is 339936
числе 339228
ются 339221
ки 338549
а@@ 337607
да 337484
ского 337341
ны 336214
2006 335823
2007 334129
ти@@ 333378
Д@@ 333050
под@@ 331656
вы 330265
ка@@ 329264
ности 328075
26 327862
сотрудничества 327307
31 326796
либо 326535
д 325789
статьи 324638
о@@ 323314
2016 322509
своих 322314
Безопасности 320987
международного 320983
р 320960
27 320531
2005 319772
правам 318497
пункт 318158
она 318028
28 317736
К@@ 317610
внимание 316356
ва@@ 315567
стороны 315400
ю 315254
еще 312598
целью 312513
Республики 311493
населения 310243
декабря 309240
D@@ 308702
ющих 308390
положения 307230
вать 306874
но@@ 306685
в@@ 306439
управления 305737
Комитета 305157
Ассамблеи 305136
Т@@ 304858
2013 304349
m@@ 303733
та@@ 303065
от@@ 302933
М@@ 302651
ется 302081
свои 301088
8@@ 299985
информацию 299748
Г 299013
против 298255
E@@ 297998
им 297110
01 294988
усилия 294837
19@@ 294643
Я 294169
M@@ 293274
Мы 292841
ни 292788
... 292587
них 291937
политики 291887
программ 291825
без 290118
защиты 289762
d@@ 289624
ма@@ 288989
А 288490
ри@@ 287756
ем 286014
Это 285623
Э@@ 285405
странах 285258
29 285081
являются 284429
международных 283646
ко@@ 282384
ди@@ 281931
эти 280638
Комиссии 279343
чем 278500
свою 278457
p@@ 277924
50 276706
необходимо 276533
По 276395
и@@ 276320
Г@@ 276127
c@@ 276042
A@@ 275594
которой 275235
ность 275187
04 274800
ских 274509
ция 273698
Он 273468
AM 273438
лись 272141
_ 270987
Р@@ 270277
обеспечить 267399
! 266787
т@@ 266580
учетом 266238
повестки 265881
ро@@ 265746
решение 265574
проведения 265343
02 265020
соответствующих 264234
ре@@ 264038
уже 263938
B@@ 263917
течение 263029
другие 262738
H@@ 262265
05 261403
i 261060
ет 260748
06 260639
ские 260079
b@@ 260073
ра 260042
организаций 259877
вопрос 259270
ке 258940
ции 257383
Б@@ 257373
№ 257134
вопросу 256928
03 256816
вопросы 256260
s@@ 256138
право 256133
органов 256065
этот 255979
ский 255153
раз@@ 254343
особенно 254117
2004 253936
0@@ 253922
Телефон 253876
Совет 253791
ра@@ 253468
проекта 252924
использования 251987
ру@@ 251186
f@@ 251131
к@@ 250812
G@@ 250166
S 250147
PM 250051
К 249601
участие 249356
ту 248440
тов 248052
Е@@ 248008
По@@ 247944
вания 247273
я@@ 247176
d 246865
L@@ 246592
работе 246573
поддержки 246425
Для 245274
ле@@ 243349
i@@ 242332
целей 242312
ни@@ 242104
которое 241288
де@@ 240724
результате 240338
Если 240146
м@@ 240092
то@@ 239920
сотрудников 239345
40 238693
The 238451
деятельность 237818
ма 237504
возможность 236124
07 236113
те@@ 235625
E 234891
c 234734
национальных 234450
июня 233670
комитета 233299
ющие 232993
группа 232890
г@@ 232448
имеет 232177
ская 232161
k@@ 231902
тех 231455
08 231435
образования 231230
ми@@ 231229
ют 230783
09 230635
ООН 230350
2014 230263
подготовки 230077
Н@@ 229529
услуг 229406
всего 228757
мая 228432
I 228172
R@@ 227945
поддержку 226822
й 225834
ния 225746
ку 225443
вопросов 225408
помощь 224754
2000 224291
развитию 224157
000 224108
проект 223912
настоящее 222825
e 222198
возможности 222079
уровня 221914
a@@ 221891
цией 221788
принять 221011
поскольку 220753
2003 220013
правительства 219958
g@@ 219401
д@@ 219179
через 219139
говорит 218532
1@@ 217769
доклада 217730
потенциала 217724
касается 217530
емые 217448
различных 217348
жизни 217207
значение 217185
t@@ 216933
ние 216831
e@@ 216643
роль 216575
средства 216039
ней 215569
новых 215543
проблемы 215497
l@@ 215468
ей 215422
пункте 215275
лось 214994
оружия 214702
годы 214677
2015 214421
расходов 214216
да@@ 214200
рования 214152
должен 214091
оценки 213473
На@@ 213454
ба@@ 213242
где 212865
июля 212744
там 212702
F@@ 212657
решений 211576
вых 211451
х 211309
2002 211028
работу 210735
путем 210501
тами 210237
должна 208947
вая 208790
принятия 207418
0 207329
ском 206409
чных 206284
За@@ 206138
процесса 206064
ровать 205768
па@@ 205487
Как 205149
тных 205081
этим 204536
вание 204386
той 202856
торговли 202468
борьбе 202439
всем 201981
y@@ 201554
емых 200854
территории 200562
2001 199681
такие 199525
комитет 199386
связанных 198866
O@@ 198846
мо@@ 198794
дискриминации 197972
Конференции 197963
&apos; 197939
18@@ 197240
докладе 197100
s 196859
применения 196694
него 196671
n@@ 195891
например 195774
правительство 195690
во@@ 195378
относительно 194977
Ф@@ 194733
дел 194634
де 194627
Ка@@ 194288
н@@ 194132
ноября 194009
октября 193847
пункта 193782
основных 193177
Однако 192996
случаях 192804
ми 192018
З@@ 191767
среди 191375
собой 191285
й@@ 191268
Л@@ 191223
О 191181
ским 191138
см. 190897
са 190885
I@@ 190649
10@@ 190322
цию 190264
Не@@ 189468
ч. 189277
проектов 188552
мере 188140
35 188130
сентября 187905
Председателя 187836
содержа@@ 187629
льных 187493
лы 187325
W@@ 187311
развитие 186789
времени 186749
рекомендации 186722
проблем 186613
об@@ 186593
ш@@ 186461
млн. 186132
создания 185994
1998 185963
ле 185888
части 185343
должно 185169
тах 184867
людей 184845
своем 184786
ку@@ 184732
Ма@@ 184618
себя 184516
тные 184059
ви@@ 183821
49 183615
ве@@ 183377
II 183050
действия 182956
экспертов 182952
1999 182736
другими 182560
б@@ 182412
May 182390
33 182093
32 182001
ла@@ 181174
над 181096
r@@ 181036
вновь 180745
окружающей 180742
ло@@ 180698
данные 180647
ваться 180511
ями 180453
1.@@ 180203
48 180191
процентов 179880
2.@@ 179836
лишь 179234
согласно 178961
учреждений 178892
необходимость 178287
o 178221
1995 178017
га@@ 177976
V@@ 177921
деле 177856
марта 177386
пре@@ 177047
51 177001
л@@ 176623
менее 176592
цели 176576
призывает 176558
° 175888
общества 175846
развивающихся 175568
45 175349
которого 174837
14@@ 174622
контроля 174539
котором 174468
достижения 174286
вые 174279
кой 174210
h@@ 174054
Х@@ 173914
международной 173758
20@@ 173679
содействия 173285
групп 173190
заседании 172829
один 172575
персонала 172493
льной 172483
насилия 172269
ение 172189
ль 172022
вается 171787
рассмотрения 171773
N@@ 171697
16@@ 171341
осуществлению 171313
34 171176
ль@@ 171067
ческой 170582
си@@ 170449
лась 170223
− 170150
Posted 169957
1997 169942
осуществление 169838
нее 169809
льные 169553
1994 169524
ча@@ 169348
человек 168860
обеспечению 168826
36 168653
имеют 168248
чного 168205
представить 167719
двух 167569
Комиссия 167506
участников 167316
льного 167315
М 166825
Ассамблея 166575
17@@ 166506
Со@@ 166497
ностью 166351
Вы 166331
ры 166276
t 165985
р@@ 165943
55 165697
января 165679
37 165455
Р 164777
52 164746
числа 164628
силу 164599
се@@ 164446
годов 164114
Председатель 164056
е@@ 164041
При@@ 163978
er@@ 163753
Что 163635
1996 163547
60 163437
вого 163020
своего 162945
изменения 162483
ческих 162323
га 162142
из@@ 162080
апреля 161953
счет 161728
Д 161659
мероприятий 161566
государство 161233
общего 160897
осуществлении 160830
ре 160782
www.@@ 160683
стране 160658
одной 160485
58 160310
взаимо@@ 160185
члены 160169
лся 159825
участия 159368
v@@ 159157
два 159150
скими 159057
38 158744
реализации 158648
K@@ 158398
чной 157911
the 157725
статье 157336
возможностей 157316
ряд 157143
положений 157037
15@@ 157019
жа 156665
м. 156658
Пункт 156645
число 156321
53 156314
39 156253
го@@ 156107
3.@@ 155843
тельных 155444
44 155346
необходимости 155268
Ко@@ 154888
производства 154681
условиях 154636
57 154625
среды 154355
u@@ 154214
ства 153914
информация 153519
вой 153320
выше 153202
бо@@ 153081
процедуры 152949
выполнения 152915
операций 152908
ющим 152804
разработки 152768
са@@ 152724
лица 152720
отмечает 152713
ы 152585
ко 152279
Reply 152275
больше 152127
41 151609
воз@@ 151586
59 151546
ению 151352
э@@ 150807
координации 150802
зи@@ 150646
Республика 150646
обеспечение 150227
представителей 150119
47 150110
time 149989
су@@ 149867
ar@@ 149558
нам 149550
54 149384
доступа 149280
ё@@ 149255
соответствующие 149198
народов 149126
42 149050
лов 148812
финансирования 148772
странам 148751
общей 148667
категории 148662
L.@@ 148611
now 148448
56 148439
эффективности 148107
оказания 148041
m 148016
контексте 147682
процесс 147599
46 146728
условий 146598
государствами 146443
тельные 146241
нии 146236
ды 146153
пред@@ 146131
некоторых 146114
ему 145850
перед 145558
сфере 145543
вает 145213
чи@@ 145001
региональных 144955
al@@ 144852
жи@@ 144840
есть 144788
Т 144726
вление 144682
конференции 144647
43 144641
ме@@ 144492
ки@@ 144471
ров 144427
4.@@ 144383
Про@@ 144322
однако 144202
w@@ 144087
100 143945
en@@ 143831
систем 143492
ду@@ 143311
ющего 142720
При 142568
стратегии 142529
такой 142252
льный 142166
би@@ 142101
потребностей 141811
щие 141792
ин@@ 141698
интересах 141499
касающихся 141344
борьбы 141148
ж@@ 141076
13@@ 140992
власти 140797
тельного 140668
Ва@@ 140548
ваются 140429
организациями 140362
ющей 140349
es 140313
ющими 140302
п@@ 140261
укрепления 139564
одного 139489
сотрудничество 139422
экономического 139408
место 139358
o@@ 139286
ва 139253
тельной 139230
финансовых 139196
повышения 139094
несколько 138987
Ч@@ 138932
таким 138790
наиболее 138675
It 138654
an@@ 138392
этому 138335
B 138289
рассмотрение 138140
in 138016
ром 137917
рекомендаций 137907
создание 137871
использовать 137841
Группа 137645
ления 137565
нет 137438
помощью 137389
некоторые 136988
продолжать 136365
ях 136264
ста@@ 136203
ша@@ 136166
тной 136099
in@@ 136030
ство 136024
ний 136006
Е 135993
ним 135694
Ц@@ 135688
обязательств 135460
разработке 135348
устойчивого 135286
ними 135239
труда 135203
ением 135187
ту@@ 134995
Организация 134884
правах 134473
положение 134427
Я@@ 134216
currently 134058
Эти 133946
службы 133847
сто@@ 133787
даже 133648
бе@@ 133588
документов 133580
усилий 133451
бюджета 133235
услуги 133144
государствам 132915
ций 132893
свое 132889
го 132715
х@@ 132680
очень 132474
нем 132455
После 132258
защите 132221
февраля 132075
сессия 131827
вопроса 131423
ское 131253
D 131213
ческие 130969
@ 130870
имени 130832
Америки 130611
многих 130467
5.@@ 130375
следующие 130266
августа 130197
процессе 130157
лом 129531
нию 129353
иностранных 129181
тели 129146
кто 129124
новые 128951
Генеральная 128928
обслуживания 128921
1993 128851
ad@@ 128696
совещания 128657
Она 128566
ционного 128533
тся 128426
целом 128242
три 128200
жа@@ 128179
емой 128064
Группы 128021
тельный 127602
тного 127496
здравоохранения 127397
ля@@ 127336
ков 127332
ф@@ 127284
доступ 127151
поддержанию 126924
заседаний 126918
беженцев 126900
размере 126852
день 126713
чные 126676
Под@@ 126614
сотрудничестве 126553
ПРООН 126537
странами 126107
Международного 126054
ги@@ 126015
ении 125901
ющихся 125874
z@@ 125864
СТ@@ 125750
Они 125651
регионе 125500
ками 125423
ядерного 125312
политических 124947
Специальный 124925
63 124771
которым 124523
to 124484
предложения 124414
зрения 124222
членами 124190
обеспечи@@ 124128
U@@ 123910
касающиеся 123893
проведение 123749
мире 123748
делам 123676
it@@ 123632
степени 123570
периода 123526
Ре@@ 123419
гражданского 123360
Ю@@ 123343
ликвидации 123288
ление 123140
система 123088
национального 123059
процента 123029
экономической 122965
плане 122959
Га@@ 122931
пла@@ 122920
оно 122818
часть 122674
местах 122623
здоровья 122607
рование 122475
возможно 122360
ну 122297
2017 122147
ниже 121879
точки 121596
ющий 121347
социальной 121336
сти@@ 121089
тель 120999
ответственности 120996
свой 120715
Са@@ 120683
ст@@ 120669
рами 120555
комиссии 120537
X@@ 120406
з@@ 120399
64 120333
женщины 120111
му 120092
рассмотреть 119855
результатов 119849
65 119674
национальной 119598
документа 119311
вым 119054
компании 119034
рас@@ 118996
порядке 118993
Рабочей 118911
представления 118754
документ 118698
61 118565
мой 117845
вам 117812
районах 117781
коренных 117768
ческого 117751
зо@@ 117712
пи@@ 117701
хотя 117678
of 117625
нение 117600
использование 117463
П 117349
учреждения 117326
or@@ 117248
принципов 117175
обязательства 117161
ю@@ 117017
результаты 116852
6.@@ 116808
ющая 116759
областях 116647
оста@@ 116562
Ш@@ 116484
полностью 116431
кам 116375
g 116341
плана 116233
такого 116086
er 116008
Рабочая 115951
уровнях 115950
III 115723
вших 115650
второй 115607
посредством 115570
Все 115543
связанные 115041
име@@ 115041
случаев 114959
экономических 114928
тот 114666
дом 114645
конвенции 114625
просит 114356
бу@@ 114110
ям 113961
ти 113840
участник 113782
.1 113750
технологий 113742
ческим 113579
получить 113494
материалов 113452
скому 113372
расходы 113257
телей 113254
докладов 113240
государственных 113174
тому 113170
лу 113163
национальном 113097
ши@@ 113095
ограни@@ 113065
y 113054
ответственность 112979
настоятельно 112970
условия 112784
поводу 112747
тный 112354
ха@@ 112295
полиции 112286
ими 112254
ан@@ 112107
Сторон 112030
re@@ 111780
уровень 111668
циями 111598
раз 111550
видов 111507
поддержке 111465
.com 111376
f 111242
Поэтому 111223
всей 111148
28@@ 110976
ру 110934
могли 110850
консульта@@ 110838
представляет 110831
вают 110668
ках 110667
рекомендует 110614
иметь 110604
ме 110587
Африки 110561
ционных 110461
ством 110333
ч@@ 110316
скую 110282
сделать 110247
осуществля@@ 110124
Ба@@ 109858
соглашения 109828
программа 109712
сектора 109606
ющее 109322
подготовке 109096
ванию 109066
P 109025
62 109013
конкретных 108979
Вы@@ 108744
которую 108654
ситуации 108605
am 108588
st@@ 108510
социального 108427
механизмов 108344
сторон 108160
г. 107997
нищеты 107802
характер 107778
фак@@ 107749
ис@@ 107739
кор@@ 107424
льное 107420
сведению 107346
трех 107173
силы 107071
мероприятия 107008
Программы 106951
Доклад 106825
сил 106790
вании 106665
ребенка 106635
должности 106578
первой 106541
29@@ 106513
рованных 106442
нных 106438
пе@@ 106380
щих 106348
цы 106126
ресурсы 105895
ком 105894
ля 105853
Хотя 105843
принял 105835
нас 105808
j@@ 105762
системе 105714
право@@ 105670
27@@ 105666
прежнему 105562
предоставля@@ 105494
тельно 105490
ду 105485
ционные 105464
Этот 105423
приложение 105397
новой 105356
Специального 105259
эту 105041
одним 104983
представля@@ 104972
p 104847
жения 104815
провести 104794
получения 104530
ца 104474
ВИЧ 104461
Л 104311
циям 104295
Соединенных 104179
пу@@ 104135
Ми@@ 104092
документе 104021
качества 103932
66 103882
отметил 103863
считает 103752
щения 103729
много 103560
Ассамблее 103548
Ра@@ 103524
фа@@ 103519
тивных 103353
консультации 103182
on@@ 103057
Эта 103015
консультаций 102916
дней 102899
70 102864
определения 102721
тельное 102688
вали 102624
Его 102431
процедур 102422
at@@ 102392
ше@@ 102350
социальных 102336
рам 102332
нием 102327
R 102214
От@@ 102160
ЕЭК 102160
способ@@ 102151
Во 101932
правовой 101885
региона 101830
принимать 101655
предусматри@@ 101629
правил 101553
делегация 101356
80 101343
органы 101319
суда 101304
ос@@ 101216
Декларации 101170
and 101009
предложение 100957
x@@ 100932
роста 100919
ци@@ 100858
призна@@ 100808
Мо@@ 100768
Генеральный 100673
че@@ 100596
доклады 100526
нами 100391
ству 100171
технической 100068
климата 100009
другой 99945
Се@@ 99831
имя 99667
можете 99585
меж@@ 99524
содействие 99252
-@@ 99202
представители 99176
соблюдения 99175
практики 99028
международным 99006
сообщества 98915
обсуждения 98854
эта 98740
много@@ 98603
льным 98593
правосудия 98527
Н 98524
вом 98281
преступности 98259
el@@ 98183
б 97987
циях 97987
МООН@@ 97967
союза 97929
тая 97905
Ли@@ 97807
сме@@ 97794
последствий 97750
тельным 97658
щение 97603
другим 97559
пути 97504
роли 97326
Международной 97281
хо@@ 97242
линии 97137
ну@@ 97104
находится 97091
законодательства 96982
характера 96909
секретарь 96881
Нью 96880
се 96868
x 96864
нового 96832
расширения 96810
информацией 96801
обзора 96801
организация 96754
равенства 96711
67 96638
переговоров 96618
виде 96522
органами 96281
вклад 96231
рах 95918
Азии 95837
далее 95803
правительством 95734
технического 95469
представителя 95456
ран@@ 95199
90 95128
ческое 95105
кого 95075
теля 95067
стра@@ 94932
Африке 94866
должностей 94764
учета 94744
нашей 94733
представитель 94689
суд 94640
международном 94562
объем 94562
лением 94480
свободы 94452
дов 94407
ь@@ 94336
срок 94295
чения 94233
щий 94212
полной 94009
ения 93867
исследований 93815
содействовать 93797
12@@ 93697
оказывать 93637
семьи 93522
именно 93466
программам 93439
рабочих 93433
ционной 93182
мен@@ 93173
Но 93081
цев 92965
тые 92818
нача@@ 92710
основании 92599
жизнь 92464
чный 92313
какой 92244
ванием 92226
взносов 92064
вер@@ 91967
граждан 91854
мов 91826
У 91797
многие 91732
предоставления 91705
k 91680
Статья 91565
эффективного 91511
Па@@ 91501
разде@@ 91481
ческий 91428
тых 91321
задач 91253
ак@@ 91242
предлагает 91224
ванных 91202
мужчин 91181
внимания 91103
необходимые 91051
создать 90936
составляет 90888
последние 90784
вое 90740
кон@@ 90677
Всемирной 90429
Управление 90327
технологии 90310
последствия 90262
людьми 90229
всеобъемлю@@ 90124
принципы 90101
функции 90074
ic@@ 89912
России 89828
суб@@ 89827
вместе 89814
дать 89746
&amp; 89708
данной 89613
же@@ 89600
резолюция 89547
выра@@ 89496
сообщения 89480
Миссии 89465
статья 89453
объема 89430
план 89419
охраны 89391
нения 89347
нему 89316
п 89198
Штатов 89119
was 89074
дам 88985
чение 88927
экономики 88903
общи@@ 88879
принятие 88825
положении 88733
членам 88701
сом 88686
представлен@@ 88522
ря@@ 88471
содержания 88452
ств 88413
отношений 88406
пунктом 88394
действие 88320
мом 88258
Согласно 88250
пункту 88222
ски 88182
ениях 88178
am@@ 88176
Ж@@ 88162
ch@@ 88118
обще@@ 87971
Де@@ 87924
l 87766
пункты 87731
Организацией 87719
et@@ 87715
полу@@ 87703
воды 87630
систему 87629
потребности 87573
закона 87534
разоружения 87478
образование 87419
Республике 87207
международные 87178
миссии 87151
хотел 87127
каса@@ 87043
прогресса 87027
рия 86864
само@@ 86831
68 86827
предлага@@ 86752
работа 86633
настоящего 86632
заявление 86516
дела 86454
благодаря 86321
сами 86253
данного 86247
делегации 86243
сегодня 86235
ственного 86235
осуществлять 86218
оценке 86173
ениям 86138
вал 86013
возра@@ 85953
местных 85918
указа@@ 85848
ЕС 85793
За 85680
момент 85664
пыток 85564
тивной 85534
показателей 85494
принима@@ 85471
F 85375
стве 85355
льная 85302
тор@@ 85282
тый 85247
нов 85176
принятых 85066
нные 85035
ясь 85029
содержится 84917
различные 84908
ственной 84900
ще@@ 84899
de 84888
N 84815
сокращения 84779
которыми 84769
международными 84752
ь 84745
тивного 84733
выражает 84695
анализа 84681
уголовного 84632
Пере@@ 84629
весьма 84580
an 84527
щим 84410
способствовать 84336
отде@@ 84330
энергии 84298
около 84225
ги 84087
1992 84061
as@@ 83989
культуры 83908
программу 83905
вос@@ 83724
вод@@ 83721
РА@@ 83688
высокого 83667
гаранти@@ 83661
управление 83643
рует 83611
з 83596
мнению 83312
программе 83271
рассматри@@ 83232
исследования 83193
укреплению 83112
стратеги@@ 83082
созданию 82925
ве 82907
важность 82881
обзор 82857
каждого 82840
подход 82818
пока 82814
тным 82729
состав 82712
ников 82619
рованные 82552
учреждениями 82531
вала 82514
69 82496
75 82412
СП@@ 82356
всегда 82298
обеспечивать 82279
распространения 82211
совместно 82208
Пре@@ 82206
тысячелетия 82156
7.@@ 82089
нарушения 82062
проведении 82049
обращения 81994
зы 81945
сети 81889
тивные 81862
участники 81801
принимает 81778
правительств 81754
политической 81747
лен@@ 81707
электро@@ 81701
гражданских 81587
телями 81567
начала 81544
пятьдесят 81421
специалистов 81364
тивный 81363
Верховного 81327
важное 81323
ряда 81321
ориенти@@ 81319
заседания 81302
НА@@ 81148
ких 81076
изменений 81074
предпринима@@ 81061
ческая 81028
Европы 81015
районе 80995
применение 80981
форм 80977
зна@@ 80956
До@@ 80923
щего 80885
отношения 80876
ed 80872
источников 80869
руется 80762
норм 80754
вления 80734
СО@@ 80711
выбросов 80699
Европейского 80511
чены 80473
h 80419
.ru 80383
всеми 80358
достаточ@@ 80354
обяза@@ 80280
количество 80258
ений 80242
следующих 80228
приветствует 80227
факт 80224
состава 80208
решении 80202
пози@@ 80186
месяцев 80076
поэтому 80014
статьей 79960
Add.@@ 79952
подготовку 79940
Ме@@ 79920
кий 79871
чным 79826
J@@ 79825
ник 79789
места 79726
un@@ 79642
центр 79505
национальные 79420
сравнению 79368
Пред@@ 79335
ранее 79273
гу@@ 79195
вались 79133
интеграции 79120
25@@ 79079
прежде 79001
любой 78988
Мобильный 78946
ге@@ 78938
приорите@@ 78935
ведения 78932
Ан@@ 78922
en 78920
сказал 78879
not 78838
n 78817
позволяет 78786
вающих 78722
Су@@ 78715
ениями 78689
документы 78589
инициативы 78468
фонда 78467
чению 78446
региональном 78416
мость 78380
емого 78333
IV 78266
ченных 78263
преступления 78222
Го@@ 78204
общих 78083
использованием 78080
сов 77989
сам 77922
международное 77879
кие 77865
подхода 77760
рии 77756
ня@@ 77753
специальных 77715
te@@ 77705
вас 77624
соответствующим 77608
основные 77569
компетен@@ 77542
торговле 77436
проводить 77432
Бо@@ 77383
оказанию 77381
жение 77342
заклю@@ 77309
Ха@@ 77309
стратегий 77269
емый 77262
защиту 77196
цель 77174
цен@@ 77160
Вместе 77076
планирования 77033
L 76998
Да@@ 76987
оборудования 76839
Было 76837
выборов 76810
предусматривает 76760
конкретные 76752
тное 76667
функций 76666
200 76650
ЕР@@ 76585
Закон 76575
Советом 76482
Проект 76467
конфликтов 76399
es@@ 76371
ac@@ 76274
новый 76175
al 76117
сси@@ 76115
ческом 76091
механизма 76083
рованы 76066
социально 76036
дополнительных 76032
дополнительные 75950
НИ@@ 75938
отметить 75932
ственным 75772
анализ 75753
це@@ 75610
G 75596
ваемых 75592
совещание 75566
отдельных 75428
77 75414
кое 75412
наи@@ 75396
мир 75380
министров 75369
щей 75272
финансовой 75268
прогресс 75265
стать 75262
di@@ 75255
мест 75216
здесь 75162
ЕН@@ 75143
преступлений 75133
сы 75043
8.@@ 74990
КО@@ 74723
методов 74711
ен@@ 74569
приложении 74528
внутренних 74522
вшихся 74516
чего 74433
улучшения 74408
оказыва@@ 74326
опера@@ 74273
влению 74270
созда@@ 74181
пор 74180
центра@@ 74175
ственные 74168
Управления 74158
ответ 74127
назна@@ 74088
докладчик 74059
Правительство 74049
1990 74006
лизации 74002
обучения 73987
транспортных 73955
военных 73934
секторе 73932
главным 73876
Ассамблеей 73873
правила 73866
вооруженных 73864
существует 73800
ченные 73785
ционный 73732
отсутствие 73721
задачи 73651
ЮНИСЕФ 73649
государственного 73625
несмотря 73557
пунктов 73533
народа 73512
каждой 73497
состоянию 73466
pm 73381
двухгодичный 73337
00@@ 73209
Бу@@ 73202
себе 73196
доба@@ 73177
заявления 73150
затраги@@ 73137
T 73121
чет@@ 73110
практике 73096
замечания 73057
TRANS 73054
тер@@ 73029
влении 73026
мерах 73016
регули@@ 72943
занятости 72931
чном 72882
стандартов 72871
протокола 72865
Российской 72843
гре@@ 72810
инвестиций 72799
V 72724
товаров 72707
му@@ 72705
заседание 72671
рабочей 72668
сообщество 72658
финансовые 72626
города 72622
все@@ 72533
ЮНКТАД 72519
щее 72518
Федерации 72469
государственной 72447
веществ 72439
охваты@@ 72426
чная 72324
заключается 72304
зависимости 72294
рав@@ 72275
Комитетом 72261
ри 72241
следующим 72222
Кон@@ 72216
самым 72177
льном 72108
Об@@ 72088
ro@@ 72038
работа@@ 71999
соглашений 71943
информационно 71905
мне 71809
щими 71800
Си@@ 71784
нах 71782
ственных 71747
av@@ 71689
создании 71681
фи@@ 71670
1991 71608
укрепление 71556
чить 71527
деятельностью 71518
применя@@ 71428
ОР@@ 71427
le@@ 71342
требования 71198
URL 71168
веб 71157
бра@@ 71113
проводи@@ 71105
сти 71085
ii 71085
участника 71071
ваны 71015
йте 71005
учебных 70940
состоянии 70912
эксплуатации 70854
какие 70836
Таким 70835
формы 70684
v 70660
сло@@ 70655
норма@@ 70610
ст 70602
участнику 70548
механизмы 70531
выми 70526
полного 70502
соответствующими 70502
кла@@ 70473
учиты@@ 70445
форма@@ 70440
мых 70439
передачи 70425
ri@@ 70346
im@@ 70342
технических 70321
ющиеся 70315
инфраструктуры 70271
стали 70221
ха 70178
мые 70178
массовой 70149
Закона 70146
контроль 70118
ете 70018
ol@@ 69993
проекты 69942
предприятий 69918
чное 69891
государству 69887
операции 69883
Ку@@ 69881
наших 69865
руководящих 69825
приняла 69791
развитых 69750
жен@@ 69729
73 69722
поддерживает 69689
500 69679
вопросах 69663
обязанности 69555
ЮН@@ 69542
тными 69533
сумму 69531
утверждения 69304
повышение 69255
оказание 69252
форме 69243
ска@@ 69239
необходимых 69218
одна 69161
инвалидов 69153
вый 69151
рен@@ 69071
движения 69064
Те@@ 68978
представи@@ 68968
ограничи@@ 68951
комиссара 68922
резолюций 68906
расовой 68904
состоя@@ 68894
означает 68873
совета 68870
мир@@ 68848
районов 68848
Комитету 68842
зу@@ 68829
явля@@ 68816
Ин@@ 68792
стро@@ 68756
ческими 68756
мандата 68720
отра@@ 68688
рованного 68682
приняли 68667
приложения 68629
повышению 68571
представлены 68553
Та@@ 68503
состоит 68455
приняты 68444
Раз@@ 68417
конфликта 68380
совещании 68362
ждения 68346
M 68314
тная 68194
сторонами 68183
НПО 68178
наказания 68171
телем 68158
мости 68136
две 68124
органа 68110
систе@@ 68086
ш 68064
вопросами 68056
диалога 68053
сведения 68025
государством 68021
тия 67985
координа@@ 67902
Экономи@@ 67861
разработа@@ 67846
поощрения 67837
направленных 67775
просто 67767
комплек@@ 67710
рованной 67644
ким 67643
расширение 67598
войны 67553
мым 67534
пло@@ 67510
Международный 67492
центра 67469
молодежи 67428
ге 67266
включа@@ 67212
ена 67194
Це@@ 67166
мнение 67100
требует 67097
$ 67076
включает 67063
ж 66958
секретариат 66920
включить 66889
рован 66834
Ла@@ 66784
законодательство 66726
стандар@@ 66722
обслуживание 66711
нескольких 66687
будущем 66595
три@@ 66517
обмена 66509
продукции 66508
этапе 66467
резолюцию 66442
лей 66411
своим 66409
Армении 66346
декларации 66329
резолюцией 66292
профессиональной 66278
сер@@ 66257
существующих 66252
Не 66226
предупреждения 66223
материалы 66193
сейчас 66146
воздействия 66142
имеющих 66114
правило 66095
вайп 66075
совещаний 66039
фонд 66016
работников 66001
обеспокоенность 65994
льную 65975
организо@@ 65954
Ф 65913
проекту 65906
ОД@@ 65906
порядка 65905
преступ@@ 65867
соз@@ 65788
общин 65787
км 65785
ваний 65732
щению 65695
Штаты 65663
назначения 65651
Й@@ 65629
опыт 65624
текст 65615
внутреннего 65612
общественности 65586
международному 65569
часто 65532
подроб@@ 65525
конферен@@ 65513
попрежнему 65475
полномочий 65458
З 65414
ВО@@ 65405
откры@@ 65355
такое 65309
происхождения 65304
детьми 65290
лении 65258
ющую 65257
ресурсами 65215
неправительственных 65183
вшие 65182
емым 65176
структуры 65130
говорится 65069
чно 64989
проведению 64926
приз@@ 64898
тельная 64875
распространение 64867
гер 64867
тора 64849
ба 64840
рассмотрению 64835
ники 64786
направлен@@ 64747
привет@@ 64724
направленные 64719
группой 64649
Программа 64609
лу@@ 64586
влением 64571
находятся 64557
группе 64550
важно 64497
очередь 64482
емая 64407
at 64387
высшем 64379
this 64377
сельских 64371
непосредственно 64346
заявил 64335
положениями 64321
принятые 64284
ско@@ 64237
работать 64159
ОВ@@ 64131
объеме 64059
каждый 64051
примерно 64050
требований 64047
тро@@ 63954
примени@@ 63930
лицо 63891
гуманитарной 63836
крат@@ 63784
Ри@@ 63717
оценку 63688
выполнять 63674
пунктах 63645
закры@@ 63629
предоставление 63626
Add.1 63598
стражей 63567
представляется 63538
Договора 63528
Joined 63377
ц 63375
данным 63367
Ле@@ 63361
встречи 63334
теле@@ 63319
особое 63302
озабоченность 63298
30@@ 63270
делу 63166
высказа@@ 63149
любых 63135
миссий 63088
сотрудничеству 63069
Совету 63059
ших 63033
Конституции 63019
производ@@ 62992
глоба@@ 62982
хозяйства 62979
сни@@ 62923
УВКБ 62884
il@@ 62883
СЕ@@ 62783
Тем 62782
Казахстан 62767
ing 62740
регистрации 62710
девочек 62690
участием 62666
ч 62653
пять 62652
масштабов 62635
судебных 62613
показатели 62599
пересмотрен@@ 62593
надеж@@ 62573
урегулирования 62552
отчетности 62529
тра@@ 62505
мигрантов 62494
первого 62493
почти 62454
Секретариат 62400
дах 62399
многосторон@@ 62393
сайте 62328
отметила 62323
72 62315
реформы 62274
рост 62184
вне@@ 62182
годах 62173
is@@ 62165
догово@@ 62118
ника 62072
ждение 62063
меньшинств 62060
O 62034
дами 62021
достижению 61999
th@@ 61986
посе@@ 61977
уда@@ 61962
согласован@@ 61894
ор@@ 61890
us@@ 61856
тном 61801
Фонда 61797
лицам 61792
ген@@ 61780
ке@@ 61760
обеспечении 61760
Так 61715
гендерного 61686
рода 61673
лен 61673
тельном 61661
увеличение 61630
тор 61558
закон@@ 61531
вало 61516
прилага@@ 61505
обра@@ 61463
ec@@ 61433
поло@@ 61393
Соединенные 61332
получа@@ 61286
Z@@ 61286
щую 61277
письмен@@ 61275
наименее 61254
H 61243
гла@@ 61227
Конференция 61165
комиссия 61162
ur@@ 61143
сво@@ 61137
безопасность 61122
удовлетворением 61118
Мар@@ 61088
сро@@ 61071
Некоторые 61033
os@@ 60996
выя@@ 60978
решению 60966
основной 60963
большинство 60958
третьей 60950
Конго 60922
жертв 60909
семей 60907
ar 60872
лению 60821
предназна@@ 60754
договора 60737
разоружению 60707
предлагается 60684
среде 60679
типа 60675
Секретариата 60645
вклю@@ 60639
позволит 60639
транспорта 60627
протяжении 60617
служб 60596
Государ@@ 60593
правовых 60558
данный 60543
учреждениях 60495
региональные 60462
добиться 60460
затем 60440
коллек@@ 60337
должность 60295
настоящей 60182
ствам 60132
соответствующей 60113
КА@@ 60099
институциональ@@ 60086
емое 60078
тивным 60046
каких 60041
справедли@@ 60023
щая 60009
промышленности 60008
противо@@ 60002
продолжа@@ 59943
праву 59940
охва@@ 59918
ческую 59908
РЕ@@ 59901
базы 59885
требу@@ 59878
9.@@ 59872
ПО@@ 59848
закреп@@ 59833
исполнение 59812
тельную 59799
препят@@ 59780
дальнейшего 59759
дело 59756
конфлик@@ 59752
четыре 59722
начале 59710
рассмотрении 59704
Му@@ 59683
ден@@ 59650
слова 59600
судов 59595
Ви@@ 59563
соответственно 59489
0,@@ 59438
пяти 59393
договоров 59373
еди@@ 59369
Несмотря 59365
Демократической 59315
авто@@ 59315
осуществляется 59253
подчеркивает 59171
чи 59067
запре@@ 59057
специальной 59021
ПО 59002
подписа@@ 59000
исключением 58978
конце 58936
стало 58919
чено 58885
предложений 58842
Й 58816
заключения 58801
обеспечивает 58792
ев 58756
мин 58724
вов 58711
су 58704
страна 58664
составе 58620
ECE 58597
допол@@ 58584
Украины 58581
зада@@ 58578
переда@@ 58563
нной 58558
обно@@ 58549
Глоба@@ 58534
проблемам 58533
люди 58530
зация 58522
законов 58511
телю 58502
it 58488
обо@@ 58479
продолжает 58478
300 58427
вую 58408
итогам 58394
um@@ 58360
телям 58331
уни@@ 58297
идет 58295
ф 58185
Ве@@ 58135
сы@@ 58084
компаний 58071
Отде@@ 58048
нарушений 58044
политику 58038
То@@ 58018
ени@@ 58018
остается 57976
Би@@ 57912
ар@@ 57901
чен 57877
вен@@ 57867
РИ@@ 57833
показатель 57817
u 57809
диа@@ 57795
культурных 57780
тельными 57763
производи@@ 57740
стабильности 57724
Следует 57652
Израиля 57635
Ки@@ 57630
de@@ 57570
имущества 57550
Стороны 57532
большей 57506
71 57480
рассматривать 57473
потому 57472
участниками 57461
руются 57460
чена 57438
оружием 57426
приня@@ 57400
никаких 57362
закон 57346
ены 57322
пы@@ 57314
чер@@ 57293
жела@@ 57276
Ы 57270
которому 57248
занима@@ 57245
Меж@@ 57147
Южной 57141
универса@@ 57131
ti@@ 57062
Экономического 57028
ствами 57019
Северной 57013
вающие 56991
руководства 56973
Когда 56960
щ@@ 56902
обусло@@ 56895
министра 56887
ровал 56861
информи@@ 56826
механиз@@ 56775
собственности 56774
Х 56742
вра@@ 56726
шие 56726
ющимся 56724
жных 56716
расследования 56711
инициатив 56701
74 56697
W 56691
представлять 56662
завер@@ 56572
предоставить 56556
направлении 56548
пода@@ 56542
должностных 56533
женщинами 56533
сокращение 56520
активно 56503
найти 56470
гра@@ 56406
Пакта 56405
1. 56384
утвер@@ 56381
подготовка 56364
проверки 56342
шего 56300
льными 56293
позволя@@ 56293
няя 56270
Центральной 56238
выполнение 56232
первый 56229
85 56214
судебного 56214
поддержка 56168
Windows 56159
относятся 56151
мониторинга 56133
СИ@@ 56129
тель@@ 56112
Ду@@ 56094
ющейся 56091
Ста@@ 56003
шта@@ 55974
ству@@ 55939
СА@@ 55929
ОП@@ 55920
Бе@@ 55919
устойчивому 55906
самых 55885
воздействие 55872
day 55866
Департамент 55842
знаний 55762
Ти@@ 55644
защи@@ 55643
Международная 55643
восстановления 55630
мого 55622
.html 55602
недавно 55560
вана 55557
шестьдесят 55536
использу@@ 55528
Женеве 55509
момента 55476
имеющихся 55471
требованиям 55458
одоб@@ 55431
месте 55428
планов 55422
ман@@ 55416
организациям 55412
Консультативный 55405
группу 55389
ток 55386
описа@@ 55320
меня 55298
голосования 55293
статус 55268
ссылаясь 55230
Пе@@ 55216
предо@@ 55201
одно 55201
данном 55200
мм 55188
част@@ 55145
ab@@ 55139
важным 55137
бе 55105
секретариата 55102
кодекса 55057
бро@@ 55040
опыта 55037
общественной 55011
безопас@@ 54994
Вам 54979
льно 54943
тивное 54920
бы@@ 54886
Б 54873
ющимися 54830
ap@@ 54808
организа@@ 54787
мар@@ 54765
вести 54737
Восточной 54727
95 54694
тических 54677
тную 54663
програм@@ 54655
Ирака 54632
работ 54609
нской 54606
em@@ 54601
требуется 54495
моби@@ 54415
тен@@ 54398
наличие 54396
сдела@@ 54393
WP.@@ 54377
Юг 54360
ent@@ 54344
предоставлении 54305
разработать 54301
предотвращения 54297
Конвенция 54280
наблюда@@ 54267
достижение 54232
гу 54152
ТА 54140
ска 54120
т.е. 54096
эффективность 54093
вля@@ 54084
миграции 54082
76 54081
челове@@ 54055
роваться 54037
демокра@@ 54034
просьбой 54022
Во@@ 53991
бедствий 53983
ью 53951
зации 53942
заинтересованных 53912
центров 53907
любые 53901
законом 53896
сотрудники 53889
Например 53880
тек@@ 53880
96 53856
ционным 53835
сбора 53832
23@@ 53790
ву@@ 53784
Администра@@ 53784
участвовать 53742
делега@@ 53715
представлен 53713
ница 53671
Европе 53641
торов 53636
любого 53631
базо@@ 53623
правительству 53607
возрасте 53562
хи@@ 53556
аспекты 53548
частью 53531
енные 53529
благо@@ 53526
тогда 53514
ратифици@@ 53509
МА@@ 53507
заключение 53495
Израиль 53488
гом 53478
связь 53472
руют 53457
логи@@ 53439
достаточно 53407
формули@@ 53393
.0@@ 53381
Социального 53345
актов 53273
шим 53260
приемле@@ 53240
четвертой 53229
политике 53189
Поскольку 53180
Все@@ 53163
орган 53150
чную 53139
дети 53138
поправки 53110
GR@@ 53090
партнеров 53088
регионального 53056
израиль@@ 53027
без@@ 53018
уделя@@ 53018
постоянно 53007
языке 52979
важную 52968
сть 52967
водо@@ 52946
дли@@ 52934
экспор@@ 52923
влений 52915
Департамента 52915
Ар@@ 52914
основном 52905
регулирования 52903
Сек@@ 52902
шения 52901
ЮНЕП 52900
посред@@ 52894
развитии 52881
обязанностей 52874
интересов 52820
ван@@ 52788
подготовлен@@ 52776
87 52747
ща@@ 52730
учеб@@ 52723
элементов 52714
дает 52708
задолженности 52699
опасности 52683
ограничения 52677
шение 52604
мер@@ 52595
Региональ@@ 52593
Програм@@ 52586
факторов 52570
определение 52551
основан@@ 52543
лицами 52538
назад 52483
стал 52475
определить 52469
изменить 52468
99 52434
проблема 52392
кри@@ 52389
виды 52389
географи@@ 52381
Бюро 52373
конститу@@ 52364
политика 52349
стов 52347
тан@@ 52343
сь 52333
цами 52301
представление 52282
78 52282
сных 52275
сроки 52275
отношение 52238
дей@@ 52211
био@@ 52202
двадцать 52198
терроризма 52180
файл 52165
каким 52163
научно 52163
МИ@@ 52160
Мон@@ 52155
оценка 52153
А. 52145
кру@@ 52134
частного 52131
статуса 52117
режима 52039
server 52002
учрежден@@ 51981
пол@@ 51956
поддержи@@ 51882
Китая 51878
.org 51850
нормы 51843
ственная 51812
сорок 51810
дискримина@@ 51796
ущерба 51765
r 51740
большое 51713
связей 51692
обеспе@@ 51672
значительно 51669
тыми 51667
ровании 51659
механизм 51651
24@@ 51634
кар@@ 51603
Ше@@ 51580
последова@@ 51564
АО 51545
признательность 51545
found 51538
трудо@@ 51529
процен@@ 51519
фикации 51508
финансирование 51476
vi@@ 51371
тельности 51369
судебной 51363
показа@@ 51350
исключительно 51299
конкре@@ 51285
осу@@ 51283
терроризмом 51274
устойчи@@ 51234
взносы 51226
включать 51221
завершения 51213
значения 51197
поддерживать 51187
разме@@ 51175
первонача@@ 51142
использовании 51132
представителями 51121
z 51102
ir@@ 51089
нарушение 51076
ход 51075
Китай 51013
держа@@ 51009
способности 51004
li@@ 50983
совет 50955
достигну@@ 50943
раздел 50940
Необходимо 50921
первых 50905
находящихся 50857
опытом 50838
эффективной 50819
упомяну@@ 50814
ot@@ 50755
причи@@ 50748
этими 50731
by 50693
министр 50672
конструк@@ 50664
транспортного 50625
ческому 50619
рение 50592
мнения 50543
наши 50523
тельность 50509
низ@@ 50501
причем 50457
информационных 50420
упро@@ 50411
процессов 50409
Ди@@ 50402
тические 50400
ющегося 50385
надлежа@@ 50380
организацией 50368
срока 50358
предупреждению 50355
кая 50262
привести 50261
значи@@ 50259
ди 50252
om@@ 50248
осно@@ 50245
процеду@@ 50244
си 50190
86 50190
фо@@ 50162
сказать 50159
улучшению 50114
разделе 50102
ООН@@ 50102
ЮНФПА 50100
чении 50083
рой 50073
лены 50055
образ@@ 50045
83 50007
реш@@ 50004
аспектов 49993
Ор@@ 49981
региональными 49979
использованию 49963
98 49960
ядерных 49943
согласия 49923
связанной 49913
ленных 49904
административных 49904
соответствующего 49895
ван 49888
ожида@@ 49877
предложен@@ 49866
ностей 49828
подверга@@ 49826
зале 49808
Германии 49776
посвящен@@ 49768
Министерство 49762
четырех 49739
Из 49717
постановляет 49690
всесторон@@ 49654
важных 49638
суммы 49615
прави@@ 49561
бюджет 49554
избира@@ 49545
мирного 49515
действовать 49510
ком@@ 49506
строительства 49502
разработку 49496
чением 49491
определя@@ 49488
представляют 49483
ВИ@@ 49450
честь 49449
Ча@@ 49432
рынке 49431
най@@ 49416
поро@@ 49413
ложения 49393
мог 49378
ву 49373
93 49365
ченного 49362
ag@@ 49361
функционирования 49358
Помимо 49344
минима@@ 49310
кра@@ 49251
учитывать 49247
сообщений 49241
нужно 49232
88 49229
правом 49217
тельства 49180
включения 49172
94 49169
объектов 49156
ru 49142
проя@@ 49110
82 49108
мое 49096
учре@@ 49049
81 49007
запи@@ 49005
вами 49002
указанных 49000
реаль@@ 48968
облада@@ 48967
выполнению 48965
Постоянного 48948
КС 48929
файла 48918
имеется 48915
Ни@@ 48902
ТИ@@ 48902
КА 48881
испытания 48876
Более 48873
requested 48866
полез@@ 48855
Устава 48853
граждан@@ 48839
установления 48825
настоящем 48815
тно 48801
оборудование 48789
вался 48777
удовлетво@@ 48774
Националь@@ 48761
свободу 48755
статисти@@ 48752
хорошо 48744
носи@@ 48722
79 48699
использо@@ 48668
доля 48665
класса 48655
протоко@@ 48634
et 48617
ровки 48603
выделя@@ 48597
26@@ 48591
Кар@@ 48587
гражданской 48576
гуманитарного 48554
руководство 48501
крайней 48497
просила 48450
Но@@ 48448
условии 48439
методы 48436
особенности 48422
жи 48420
Y@@ 48410
МО@@ 48392
независимости 48364
\ 48364
In@@ 48330
игры 48329
числу 48287
распреде@@ 48281
сохраня@@ 48259
пле@@ 48208
нес@@ 48201
статей 48194
он@@ 48180
друг 48179
97 48163
продуктов 48153
Фонд 48148
президента 48130
предварительной 48093
прекра@@ 48086
союз 48060
межправитель@@ 48056
VI 48027
персонал 48016
изда@@ 47999
английски 47977
решением 47972
миру 47959
изложен@@ 47958
судей 47953
своими 47935
особо 47920
НО@@ 47914
поощ@@ 47913
средствами 47892
ущерб 47874
подтверждает 47842
список 47841
существу@@ 47821
мам 47808
играть 47801
лю@@ 47798
крупных 47797
африканских 47768
рынка 47760
взя@@ 47745
рованию 47740
потенциал 47722
мах 47721
ul@@ 47672
сохранения 47654
самом 47651
Сомали 47626
часов 47622
тесь 47614
основу 47582
компенсации 47546
дома 47544
ста 47544
мо 47542
X 47506
независи@@ 47502
выда@@ 47471
Беларусь 47432
вано 47417
большой 47404
электронной 47395
перечень 47392
озаглавлен@@ 47392
эффективно 47364
принятии 47353
полном 47349
соглашение 47343
eb@@ 47328
общее 47321
банк 47272
включают 47268
тии 47262
последних 47249
гиб@@ 47203
84 47152
ЛА@@ 47148
питания 47140
центре 47127
установить 47110
отходов 47107
92 47107
гор@@ 47073
91 47073
ниях 47055
экономическим 47052
позиции 47042
Представитель 47042
финансового 46997
никами 46991
as 46926
увеличения 46918
поч@@ 46910
ско 46892
отсутствия 46879
отда@@ 46870
женщинам 46866
тя@@ 46834
кро@@ 46808
тического 46794
дой 46765
содержит 46750
обычно 46744
внести 46734
осуществлением 46723
фе@@ 46708
Также 46707
щении 46684
национальным 46675
пола 46650
докладу 46647
анти@@ 46642
сформули@@ 46639
палестин@@ 46638
партнерами 46636
доступ@@ 46622
графи@@ 46611
сла@@ 46610
каче@@ 46607
четко 46548
науки 46547
функциони@@ 46547
кризиса 46544
состояния 46540
экономические 46532
делать 46526
сосредото@@ 46519
распределения 46500
компания 46497
первую 46492
информа@@ 46485
РК 46468
перевоз@@ 46452
ванные 46448
частных 46440
12.@@ 46423
tion 46411
финанси@@ 46380
Генеральному 46366
выхода 46353
Ы@@ 46338
us 46269
расши@@ 46264
sp@@ 46263
доверия 46229
гуманитар@@ 46218
дирек@@ 46205
Ь 46204
различными 46127
гру@@ 46090
содержание 46084
фер@@ 46076
щены 46073
доно@@ 46072
ственное 46071
такими 46068
тации 46058
язы@@ 46036
тру@@ 46019
участником 46010
Латинской 46001
органам 45973
Франции 45959
Иран 45893
w 45856
стре@@ 45829
зы@@ 45825
емыми 45811
конференций 45787
школы 45786
ed@@ 45750
МЕ@@ 45739
техники 45727
сте@@ 45726
Комиссией 45720
кими 45719
печа@@ 45717
использоваться 45711
независимо 45710
Другие 45694
кадров 45691
проинформи@@ 45685
сотрудника 45685
вооружений 45680
соблюдение 45679
реши@@ 45674
кре@@ 45656
млрд. 45646
счета 45645
официального 45645
ing@@ 45636
трансграни@@ 45621
пригла@@ 45590
Генеральным 45589
руководящие 45541
системой 45534
имеются 45522
тки 45514
доноров 45513
глубо@@ 45493
продолжение 45477
forum 45470
им@@ 45452
эффективных 45451
ц@@ 45447
предусмотрено 45441
касающимся 45437
глобальной 45435
представил 45418
сса@@ 45413
повестку 45404
одну 45380
анали@@ 45378
последующих 45376
нное 45367
разных 45329
Рас@@ 45289
бор@@ 45287
прак@@ 45287
Лу@@ 45282
производство 45277
теперь 45257
основным 45250
повысить 45225
ВА@@ 45222
общие 45165
согла@@ 45161
ционная 45150
сумма 45147
сотрудничать 45108
внутри 45090
ший 45065
принципа 45055
шей 45040
нного 45002
двумя 44990
ay@@ 44969
St@@ 44964
Германия 44934
этниче@@ 44914
переме@@ 44897
опасных 44886
89 44885
предусмотрен@@ 44880
руководя@@ 44861
мирных 44858
ровали 44844
валось 44806
политические 44805
стала 44798
предусмотренных 44796
речь 44793
возобно@@ 44792
2. 44789
све@@ 44738
индивидуаль@@ 44718
ющем 44699
выше@@ 44696
шее 44688
заседаниях 44684
принцип 44672
рована 44669
тым 44666
мый 44641
тельств 44607
микро@@ 44568
партии 44557
секретарю 44557
составля@@ 44550
банка 44542
ску 44536
жением 44496
надца@@ 44482
руководством 44474
услугам 44469
разработка 44460
IN@@ 44451
шаги 44444
файлов 44439
рующих 44423
удалось 44418
обы@@ 44417
скорее 44381
переговоры 44376
рамки 44374
фон@@ 44369
семье 44346
пра@@ 44339
лучше 44293
возраста 44291
стоимости 44279
• 44228
миро@@ 44222
50@@ 44219
утвержден@@ 44198
праве 44175
докладчика 44172
IS@@ 44161
делегаций 44157
согласо@@ 44156
широкого 44153
свидетельствует 44141
жителей 44138
кан@@ 44134
чности 44133
Ро@@ 44124
специальные 44115
действует 44079
пор@@ 44049
обязательство 44047
способность 44040
ющему 44031
официальных 44029
руемых 44029
угрозу 44026
Целевой 44018
предоставлен@@ 44007
серьезные 44001
пределах 43988
воздуха 43988
обмен 43969
оказа@@ 43961
400 43944
уде@@ 43924
практику@@ 43896
нашего 43893
главы 43885
ЧЕ@@ 43860
секретарем 43857
мандат 43849
взаимодействия 43838
ждении 43836
пользования 43834
ежегод@@ 43833
нным 43826
сложности 43768
инвести@@ 43744
политического 43739
экономикой 43733
основы@@ 43727
количества 43724
прошлом 43699
получение 43675
выполнении 43632
используется 43619
национальными 43597
адеква@@ 43596
фору@@ 43583
Секретариа@@ 43583
поведения 43581
ковых 43577
связаны 43545
лли@@ 43543
Центральных 43521
правительствами 43518
бес@@ 43499
чать 43492
определенных 43365
предприятия 43359
следу@@ 43353
технологи@@ 43347
недостаточ@@ 43323
предусматривается 43319
комитетом 43293
C.@@ 43285
мировой 43277
форума 43244
выполня@@ 43226
ut@@ 43190
указано 43183
Государства 43155
Франция 43152
цен 43111
действительно 43075
людских 43071
енных 43049
толко@@ 43047
хозяй@@ 43037
принимая 43008
подтвер@@ 42987
гендер@@ 42982
настоящему 42980
министерства 42961
МС@@ 42955
Из@@ 42951
AC.@@ 42950
языках 42947
лах 42943
точ@@ 42923
удовлетворения 42920
sh@@ 42909
партнерства 42887
ственный 42887
возвра@@ 42851
наблюдателей 42847
ряде 42841
are 42839
Ша@@ 42838
помочь 42795
испытаний 42777
медицинских 42749
нер@@ 42737
активов 42722
ОБЪЕДИНЕННЫХ 42669
конец 42663
доходов 42662
глобальных 42652
просьбе 42621
шению 42597
Интернет 42593
общий 42575
перемещенных 42563
НАЦИЙ 42555
ченным 42538
сах 42527
преде@@ 42524
Японии 42510
крайне 42509
11.@@ 42501
малых 42491
упомина@@ 42486
ня 42473
мных 42463
оказывает 42451
получили 42450
распростра@@ 42437
работает 42434
замеча@@ 42433
расширению 42430
ru@@ 42425
Западной 42421
зе@@ 42416
охране 42408
or 42405
руководителей 42401
положению 42394
содействии 42391
региональной 42371
евро 42365
кроме 42356
600 42351
объя@@ 42329
Протокола 42323
управлению 42316
ЕНИЕ 42315
сообщил 42282
подразде@@ 42268
ратификации 42257
Новости 42239
продоволь@@ 42219
физи@@ 42218
социальным 42211
проводится 42193
постав@@ 42177
глобального 42172
разби@@ 42155
пропаганди@@ 42153
ностях 42138
планы 42085
op@@ 42085
ствующие 42075
уязви@@ 42056
дости@@ 42050
жда@@ 42036
юриди@@ 42018
рез@@ 42005
Йорк 41999
находя@@ 41988
гов 41985
двусторон@@ 41975
ответствен@@ 41974
регионах 41969
хода 41942
формирования 41915
times 41901
Ирландии 41893
документации 41876
ЮНИДО 41873
ak@@ 41869
смер@@ 41858
основы 41810
шести 41735
запол@@ 41732
учитывая 41692
новым 41691
Отдел 41688
заместитель 41685
событий 41672
тие 41663
направления 41641
общество 41640
научных 41629
надзора 41619
тность 41617
политическим 41612
приверженность 41610
континген@@ 41602
причине 41587
признает 41567
автора 41560
СМ@@ 41539
актуаль@@ 41534
ТО@@ 41518
периоди@@ 41479
заме@@ 41476
интерес 41460
осуществляться 41433
составляют 41429
наличии 41420
мыми 41419
обороны 41410
практически 41402
Великобритании 41400
Сегодня 41393
контролю 41383
перевозок 41342
принято 41326
ровала 41323
Европейский 41316
ниям 41314
щем 41313
Координа@@ 41312
WP.29 41307
ваш 41295
следующее 41289
одном 41287
кризи@@ 41272
оказать 41272
ющийся 41271
Королевства 41244
свете 41239
ственными 41222
измен@@ 41221
первом 41198
нен@@ 41198
ia 41198
произ@@ 41181
приведен@@ 41166
промышлен@@ 41154
испыта@@ 41149
ры@@ 41110
валась 41108
€ 41104
заключи@@ 41090
структур 41081
возможных 41069
будущих 41048
группами 41035
бой 41028
разру@@ 41017
обсуждение 41008
утверждение 40979
наркотиков 40976
сельского 40959
причин 40949
iii 40943
сной 40922
наме@@ 40892
угрозы 40868
бед@@ 40857
личности 40847
никогда 40845
Королевство 40837
могла 40836
утверждает 40823
постано@@ 40804
тической 40787
второго 40784
сообщение 40766
кому 40747
пределами 40715
диалог 40709
разрешения 40681
территорий 40653
подчеркнул 40636
местного 40635
Суда 40607
В. 40599
специализи@@ 40571
нару@@ 40553
Гу@@ 40545
заключенных 40525
Руководя@@ 40523
дания 40517
отношению 40508
возника@@ 40505
Национальный 40483
демократии 40479
администра@@ 40445
Беларуси 40444
временного 40439
стоя@@ 40438
ваемые 40380
бан@@ 40365
акты 40345
Цель 40344
фици@@ 40317
июне 40316
обучение 40301
Казахстана 40277
Соглашения 40275
изучения 40273
защита 40272
постро@@ 40269
Президент 40261
истории 40259
элементы 40255
уст@@ 40243
имели 40240
лениями 40235
лизация 40231
объек@@ 40230
сные 40207
щением 40200
Консультативного 40188
охвата 40151
поправок 40150
КП@@ 40142
поли@@ 40128
понимания 40120
нную 40108
перевозки 40099
действующих 40097
голо@@ 40087
постановил 40066
провел 40059
вод 40058
рядом 40054
уз@@ 40049
C.3 40046
рованный 40045
тка 40040
ждены 40029
реагирования 40024
нный 40016
ts 40016
любое 40015
end@@ 40013
сферы 40012
спи@@ 39998
совершенствования 39991
Гаити 39989
конвен@@ 39966
чными 39965
предложено 39947
строительство 39926
че 39902
разви@@ 39900
уделять 39899
опас@@ 39888
субъек@@ 39884
СС@@ 39867
реги@@ 39861
административным 39857
Многие 39854
содержатся 39850
внутрен@@ 39824
определен@@ 39795
зом 39793
щи@@ 39788
тари@@ 39769
мобилизации 39755
заниматься 39753
рованным 39741
мами 39726
бюджетных 39717
ша 39717
номера 39691
надцатой 39690
свобод 39682
выводы 39657
таблице 39651
отмечая 39648
зоны 39645
тивы 39642
качество 39637
вступления 39632
До 39615
чу@@ 39606
администрации 39585
секто@@ 39583
10.@@ 39544
роди@@ 39516
A. 39484
кг 39473
Пра@@ 39466
суще@@ 39464
развивающимся 39431
уровнем 39388
совместных 39388
пресс 39388
Исполнительного 39384
покры@@ 39382
адрес 39377
40@@ 39376
Центр 39374
максима@@ 39367
ДО@@ 39304
.2 39295
процессу 39259
пользователей 39249
шестой 39239
Хо@@ 39219
жению 39216
кур@@ 39214
oc@@ 39203
изменение 39186
влияние 39183
интересы 39174
емую 39168
I. 39167
мор@@ 39160
зов 39160
нюю 39156
нять 39149
торы 39139
ou@@ 39114
вшиеся 39109
тивная 39089
модели 39059
CC@@ 39058
co@@ 39044
распространен@@ 39041
Боснии 39033
значительной 39030
страну 39023
ченный 39020
состоится 39006
ЗА@@ 39002
стоимость 38999
шая 38958
ation 38932
Совмест@@ 38912
принят 38902
ключевых 38895
чиков 38893
тамож@@ 38870
кандидатов 38857
выразил 38856
November 38852
бо 38844
используются 38844
продолжить 38838
активизировать 38774
нал 38771
наращи@@ 38769
това@@ 38766
Воз@@ 38762
Q@@ 38762
Конвенцию 38760
ро 38748
официальные 38748
ov@@ 38732
Йорке 38729
эко@@ 38724
предоставлять 38718
сокращению 38689
энерго@@ 38673
трудности 38671
входят 38668
ней@@ 38637
бассейна 38616
ig@@ 38606
обсу@@ 38604
наркотиками 38588
ПА@@ 38581
получил 38580
подтвержда@@ 38575
выз@@ 38544
теме 38536
Япония 38534
Вас 38531
Ак@@ 38516
ine 38498
ляет 38496
ter 38496
радио@@ 38482
Высо@@ 38481
предписа@@ 38477
воль@@ 38470
зма 38469
ху@@ 38458
постановила 38450
одновременно 38440
топлива 38431
принуди@@ 38413
стан@@ 38409
вленных 38402
ствах 38401
ствующих 38395
Государство 38394
Э 38379
слово 38372
тивную 38344
налажи@@ 38339
проекте 38316
гендерной 38312
высоко@@ 38296
пара@@ 38295
организованной 38294
поездки 38287
правами 38271
всю 38261
обработки 38258
шесть 38253
опублико@@ 38243
связанным 38221
отношениях 38212
жать 38210
соответствие 38210
lo@@ 38203
указыва@@ 38187
ряет 38186
занимающихся 38183
Ch@@ 38175
зависит 38171
автор 38165
письмо 38160
плани@@ 38157
гражданства 38129
Письмо 38127
Национального 38122
манда@@ 38083
согласованных 38077
тво@@ 38073
общую 38065
час 38057
экологи@@ 38052
временных 38046
относится 38022
мент 38019
глава 38014
материально 38000
результатах 37994
рассмотр@@ 37970
одно@@ 37969
1,@@ 37965
открытого 37960
включены 37944
содержащихся 37934
Чтобы 37920
Индии 37904
альтерна@@ 37880
наблюдения 37880
самого 37874
рей@@ 37871
статистики 37868
Югославии 37858
численности 37835
соверша@@ 37814
судеб@@ 37807
служить 37805
нить 37798
водных 37797
вспомога@@ 37796
бюро 37793
Карибского 37767
получать 37755
грузо@@ 37754
отмечено 37726
сс 37710
лож@@ 37709
улучшение 37708
направля@@ 37691
десятой 37674
аль@@ 37662
чрезвычай@@ 37662
данному 37649
следующей 37648
Участники 37641
Вен@@ 37641
аспек@@ 37637
Сер@@ 37631
риска 37630
вышеупомяну@@ 37627
реша@@ 37619
Ис@@ 37611
экспер@@ 37610
усилиях 37602
вне 37580
оказании 37574
номер 37573
района 37539
продолжи@@ 37535
осуществляет 37531
сайт 37522
CO@@ 37519
пя@@ 37518
пересе@@ 37506
такая 37505
лами 37466
нными 37465
нашу 37463
Канада 37460
расхо@@ 37459
покрытия 37459
соответствует 37457
удоб@@ 37453
тности 37449
торговлей 37435
Просьба 37435
бре@@ 37433
ТА@@ 37428
ассоциации 37425
рения 37424
исклю@@ 37419
подготовить 37404
шении 37386
пятой 37354
лежа@@ 37341
запрещении 37341
поддержания 37330
вспомогательных 37295
подразделений 37284
ЮНИ@@ 37277
штаб 37270
ЦИИ 37268
ды@@ 37267
приводится 37256
социальные 37254
джи@@ 37232
грузов 37218
сред@@ 37211
пору@@ 37200
чик 37177
ят 37175
ер@@ 37175
Социаль@@ 37169
соглаш@@ 37167
лым 37163
следующий 37158
выступили 37123
приобре@@ 37122
CE@@ 37121
чая 37117
люд@@ 37115
сообщили 37115
достоинство 37112
убе@@ 37110
тить 37108
вающей 37104
Марокко 37100
уполномо@@ 37068
60@@ 37044
просил 37020
девя@@ 37018
Th@@ 37014
запасов 37009
ниями 37004
широ@@ 37001
статистических 37001
активизации 36996
Италия 36985
член@@ 36974
сектор 36963
седьмой 36953
йской 36925
сексуаль@@ 36925
какого 36920
оперативной 36915
помещений 36899
труд@@ 36884
материаль@@ 36882
сты 36879
заня@@ 36873
другого 36859
доб@@ 36853
соста@@ 36847
ситуация 36842
Национальной 36830
пунктам 36821
достичь 36820
and@@ 36811
беспла@@ 36810
корпора@@ 36795
нная 36793
ею 36787
словами 36779
основания 36778
тради@@ 36771
начать 36750
просьбы 36749
медицинского 36730
Гн 36722
Африкан@@ 36721
задача 36716
вить 36708
МАГАТЭ 36703
силами 36682
ядерной 36679
VII 36674
законы 36667
принципами 36664
благоприя@@ 36655
применять 36650
жена 36647
Министерства 36640
применении 36626
ЮНЕСКО 36622
начиная 36603
сформулированных 36600
замечаний 36581
сентябре 36566
признаку 36537
раза 36529
последу@@ 36529
среду 36523
сокра@@ 36521
восьмой 36506
экологических 36486
проводит 36480
ассигнования 36455
Положение 36452
Сьерра 36430
Соединенное 36421
лег@@ 36416
пяти@@ 36403
резер@@ 36401
Леоне 36401
пы 36393
УВКПЧ 36393
ваем 36382
характер@@ 36377
содержащиеся 36371
рисков 36367
Кор@@ 36367
члена 36357
Маль@@ 36344
юстиции 36308
щен@@ 36300
времен@@ 36298
кли@@ 36291
инструментов 36286
pro@@ 36285
контро@@ 36285
организацию 36284
жены 36267
эффективное 36266
пользу 36247
Приложение 36246
конференция 36243
полное 36230
тар@@ 36219
Отдела 36210
устройства 36177
B. 36177
улуч@@ 36172
стаби@@ 36113
стратегических 36097
ПП 36094
поме@@ 36093
справо@@ 36071
поступлений 36069
разбирательства 36040
оценок 36035
премьер 36031
озаглавленный 36030
органом 36004
ГС 35999
чей 35996
араб@@ 35988
официальной 35976
заявляет 35974
помимо 35951
совмест@@ 35951
отметили 35948
трудящихся 35947
доброво@@ 35944
земли 35935
тельство 35927
ex@@ 35925
порядок 35924
месяца 35922
Корея 35917
Новой 35916
сталкиваются 35912
отве@@ 35911
щимся 35908
вынесен@@ 35900
конвенций 35882
насиль@@ 35879
возможные 35877
убежища 35865
жесто@@ 35862
выпла@@ 35856
ляции 35853
наличия 35846
существуют 35834
Консульта@@ 35830
морских 35828
прав@@ 35826
незаконного 35823
большинстве 35822
слишком 35817
вследствие 35817
KASE 35816
осозна@@ 35800
приходится 35791
вому 35789
государственные 35788
вшего 35777
реформ 35767
вшим 35758
потребления 35731
позднее 35730
тую 35723
бер@@ 35721
Стра@@ 35721
интер@@ 35715
лан@@ 35707
представленных 35697
рий 35690
детям 35657
всему 35657
менты 35642
Европейской 35637
ковой 35631
лений 35624
ствуя 35621
положи@@ 35619
веду@@ 35616
Новая 35611
ционными 35610
уважения 35599
пространства 35598
предоставляет 35595
биологи@@ 35592
сражение 35587
режим 35578
Россия 35558
3. 35547
меньше 35546
председа@@ 35545
уничтожения 35534
Федерация 35533
тто 35532
станет 35503
нь 35503
Турции 35498
бывшей 35492
широко 35491
лам 35483
влены 35476
школ 35474
for 35471
случаи 35468
уче@@ 35465
прямо 35433
консенсуса 35426
мента@@ 35423
отделения 35422
несовершеннолетних 35411
правительствам 35410
самой 35408
поощрять 35405
цам 35400
быстро 35386
тическим 35386
отвечает 35379
Бурунди 35377
кампании 35369
отрица@@ 35369
последнее 35343
девятой 35340
Информация 35333
новую 35332
мае 35313
Такие 35272
местном 35272
ждена 35265
ведо@@ 35255
участникам 35253
партнер@@ 35243
per@@ 35226
6,@@ 35225
дея@@ 35214
директор 35208
капита@@ 35207
высокой 35203
ья 35202
континен@@ 35201
Председателем 35196
концепции 35194
вах 35188
ПРА@@ 35180
арабских 35176
занимается 35167
ен 35167
террористи@@ 35166
ted 35162
az@@ 35143
координи@@ 35114
щается 35114
даты 35110
президент 35105
компьютер@@ 35090
гн 35073
выполнить 35044
ментов 35036
Осуществление 35034
ОБ@@ 35031
Хабитат 35028
рай@@ 35027
продовольственной 35002
предвари@@ 35002
дан@@ 34996
нельзя 34988
ассигнований 34987
отчет 34984
службе 34978
e.@@ 34975
Сейчас 34967
Неизвестное 34961
лет@@ 34956
НК@@ 34928
эк@@ 34922
правитель@@ 34922
постоянного 34918
ски@@ 34915
Четвер@@ 34898
МОТ 34894
важней@@ 34887
платы 34886
зая@@ 34883
ты@@ 34882
работающих 34879
гуманитарных 34851
городе 34836
выступа@@ 34832
необходимым 34810
надлежащего 34802
сопровожда@@ 34785
предполага@@ 34778
800 34778
дополнение 34773
следующего 34769
комитету 34765
рекоменду@@ 34764
жертвам 34760
углуб@@ 34755
применительно 34747
непреры@@ 34730
Суд 34728
зм 34727
основополага@@ 34707
ПИ@@ 34701
5,@@ 34685
НЕ@@ 34675
150 34661
участии 34660
С. 34656
химических 34652
сле@@ 34651
социаль@@ 34644
население 34644
последующей 34642
иной 34639
Рабо@@ 34607
Чили 34593
равенство 34584
недо@@ 34584
ственную 34579
Дата 34579
рованными 34574
серии 34571
ющееся 34546
секретариатом 34542
поправ@@ 34533
Таблица 34530
постоянных 34509
проблеме 34505
выступил 34500
военной 34496
жении 34495
201@@ 34477
решить 34472
гарантий 34471
зе 34465
оконча@@ 34465
ок@@ 34425
распоряжении 34410
жилья 34406
обслужи@@ 34394
si@@ 34376
Всемирного 34353
выплаты 34348
Судана 34331
авиа@@ 34309
функциональ@@ 34301
провин@@ 34292
принятию 34289
проектам 34279
язык 34251
Pro@@ 34245
свя@@ 34234
лин@@ 34224
ведение 34216
прожи@@ 34206
ющаяся 34205
120 34203
текста 34196
марте 34193
June 34192
пля@@ 34190
рок 34176
данными 34176
исте@@ 34174
внед@@ 34167
открыть 34164
емом 34158
процессуаль@@ 34156
долж@@ 34152
управляющих 34144
декабре 34135
располага@@ 34114
осведомленности 34114
Африканского 34091
границы 34083
управля@@ 34080
практика 34080
жного 34079
Кыргыз@@ 34079
Соединенного 34079
wipe 34076
здоровье 34051
среднесро@@ 34049
гарантии 34037
нарко@@ 34028
бога@@ 34021
религии 34019
тридцать 34011
надлежащих 34005
транс@@ 33992
полицейских 33987
дис@@ 33967
Армения 33960
сор@@ 33952
состояние 33940
Африка 33933
считать 33927
режи@@ 33918
пленар@@ 33915
ванного 33908
ье 33900
исследователь@@ 33888
Глава 33887
класси@@ 33882
фондов 33876
незакон@@ 33867
каждом 33865
темы 33853
4,@@ 33852
официально 33848
равно@@ 33819
обеспоко@@ 33811
становится 33803
Ту@@ 33794
шены 33788
преследования 33775
облег@@ 33774
главе 33770
африкан@@ 33763
ционное 33762
обеспокоен 33760
переходной 33759
нали@@ 33750
Ж 33737
200@@ 33737
восто@@ 33732
полученных 33732
Российская 33731
проживания 33730
ноябре 33727
You 33716
Прави@@ 33712
привлечения 33694
отвеча@@ 33664
заинтересованными 33661
ито@@ 33659
ходом 33653
мента 33643
СУ@@ 33641
Сан@@ 33629
проблемами 33619
следующем 33592
просьба 33587
па 33573
жалоб 33572
конкуренции 33566
90@@ 33566
существенно 33554
льности 33541
превра@@ 33537
путь 33533
санкций 33529
ядерным 33525
поставлен@@ 33517
новая 33514
тематиче@@ 33503
океана 33499
Име@@ 33494
учебные 33486
бесплатно 33485
XXI 33474
разум@@ 33462
вид@@ 33461
предупре@@ 33456
Предлага@@ 33436
ленные 33434
фа 33413
докладах 33402
ссыл@@ 33399
общественного 33386
se@@ 33377
тему 33375
заключа@@ 33364
ждений 33362
насилие 33347
систематиче@@ 33346
ЕЛ@@ 33342
базе 33334
тивными 33321
tr@@ 33311
стандарты 33299
работой 33288
находи@@ 33282
юридических 33270
гах 33261
id@@ 33255
лесо@@ 33252
свое@@ 33234
юрисдик@@ 33188
обе@@ 33179
заместителя 33178
сотрудник 33177
Сан 33175
вки 33172
стом 33170
сих 33165
призыв 33165
угро@@ 33162
лениях 33150
нен 33149
Благодаря 33139
положениям 33122
взно@@ 33116
экспорта 33113
средствах 33110
проблему 33106
возмож@@ 33085
тое 33083
происходит 33059
избежать 33050
Договарива@@ 33043
лечения 33037
большую 33036
этапа 33024
Свя@@ 32993
вызывает 32990
пом 32988
хими@@ 32982
семей@@ 32979
ver@@ 32966
нике 32957
тию 32952
напоминает 32946
технические 32940
лл 32939
ежегодно 32937
ОТ@@ 32922
ником 32889
прекращения 32882
увеличи@@ 32871
Грузии 32858
тыс. 32844
участию 32838
ad 32832
ФАО 32827
вший 32823
стен@@ 32816
зу 32809
установки 32805
Джа@@ 32802
туры 32800
областей 32800
вместо 32779
ад@@ 32774
Народно 32774
un.org 32767
ше 32751
Еще 32740
проблемой 32739
выявления 32738
внешней 32737
пользоваться 32705
просить 32694
ванной 32687
совмести@@ 32686
СПИДом 32686
СТА@@ 32679
мно@@ 32669
C.1 32668
ся@@ 32666
признания 32651
Пи@@ 32650
енного 32650
един@@ 32634
пли@@ 32628
институтов 32625
образованию 32624
сеть 32603
измер@@ 32595
пар@@ 32590
эффектив@@ 32588
жено 32588
регулярно 32581
экологической 32573
укрепить 32563
применяется 32563
креди@@ 32553
санитар@@ 32550
ё 32545
рассмотрел 32528
общины 32516
СК@@ 32508
привлека@@ 32497
води@@ 32479
считается 32466
дви@@ 32463
известно 32460
городов 32453
вающего 32449
Специаль@@ 32447
национальный 32436
понима@@ 32434
нефти 32433
споров 32431
мало@@ 32425
полномочия 32412
предотвращению 32411
поощрение 32353
своему 32349
сексуального 32343
институ@@ 32341
внедрения 32326
наце@@ 32315
языка 32306
можем 32296
форум 32287
Совете 32282
продолжают 32281
газов 32269
сотрудниками 32268
освобо@@ 32267
Rev.1 32253
клиентов 32252
Канады 32247
местные 32246
столь 32238
военнослужащих 32236
программах 32235
вного 32231
законодательством 32219
вот 32216
сессий 32208
зачастую 32202
многосторонних 32194
ши 32181
тельному 32175
аналоги@@ 32175
подразделения 32166
Лю@@ 32159
Ц 32150
приблизительно 32131
события 32129
Женева 32110
рассматриваются 32107
Конститу@@ 32103
дж@@ 32102
потенциаль@@ 32101
успеш@@ 32089
выпол@@ 32088
ПРО@@ 32087
ПР@@ 32070
главных 32066
развивающиеся 32060
вели@@ 32054
торговой 32032
перевод 32028
необходимую 32020
вид 32010
пер@@ 32002
Пу@@ 31996
т.д. 31995
дополнительную 31990
приоритетных 31984
сохранить 31981
бюджетным 31964
программой 31951
управлен@@ 31944
Опера@@ 31941
хотели 31918
нужда@@ 31916
выпу@@ 31907
реинтеграции 31900
расизма 31899
спа@@ 31896
море 31884
представлена 31879
продук@@ 31878
закупок 31873
Косово 31866
December 31865
названием 31860
октябре 31851
йского 31849
имеющие 31849
бесчелове@@ 31849
смерти 31842
загряз@@ 31838
капитала 31831
эта@@ 31823
путей 31804
вет@@ 31802
являющихся 31798
дол@@ 31787
усилиям 31786
оп@@ 31783
угле@@ 31781
содействию 31774
хотела 31757
представительства 31752
миллионов 31742
ваемого 31739
UN@@ 31737
тон 31734
мина@@ 31729
природных 31724
ожидается 31724
дохода 31720
СПИДа 31709
высоко 31708
Финансо@@ 31703
коррупции 31696
рассматриваться 31691
цах 31684
ВОЗ 31681
сен@@ 31680
уника@@ 31679
мероприятиях 31665
Вопрос 31655
яви@@ 31647
сетей 31643
космического 31638
расследований 31628
сту@@ 31626
весь 31621
связа@@ 31619
вовле@@ 31616
лиза@@ 31611
став@@ 31608
вопросом 31604
P.@@ 31596
ск 31591
чрезвычайных 31585
удовлетворение 31585
смертности 31584
готовности 31580
ситуациях 31579
практику 31576
способствует 31573
ЛЬ@@ 31569
рить 31559
ча 31552
несет 31532
Индия 31528
доли 31526
носят 31525
долларов 31524
забо@@ 31515
направлены 31511
K 31503
земель 31502
укреплении 31501
населению 31499
Стати@@ 31499
le 31498
новое 31479
адаптации 31476
Правил 31476
учреждениям 31475
pl@@ 31475
тический 31474
рассматривается 31473
группам 31465
ТРА@@ 31443
Постоян@@ 31442
выразить 31436
рей 31426
тура 31414
шен@@ 31413
добавить 31407
лена 31394
вин@@ 31392
временной 31370
затрат 31369
Перу 31365
письма 31365
долю 31363
ванный 31360
Право 31356
4. 31316
глобальном 31315
кости 31310
вопро@@ 31295
признавая 31293
Ию@@ 31284
html 31270
арбитра@@ 31267
департа@@ 31261
летний 31249
шка@@ 31242
Щ@@ 31241
изъя@@ 31226
важные 31224
вариант 31209
el 31204
нению 31200
устра@@ 31192
разнообрази@@ 31184
призвал 31173
пу 31159
определенные 31154
транспарентности 31150
бежен@@ 31134
применяются 31124
Исполнительный 31124
укреплять 31122
необходимы 31119
Боли@@ 31111
требуют 31105
коммуника@@ 31103
свыше 31100
поощрению 31094
дер@@ 31086
успешно 31086
Специальным 31081
хранения 31080
бюдже@@ 31078
Делегация 31066
осна@@ 31061
пожела@@ 31054
неотъемле@@ 31051
ман 31050
целевых 31048
CN.@@ 31046
передо@@ 31040
органах 31038
молодых 31036
це 31034
предыдущих 31008
спо@@ 31003
33@@ 31002
шему 30998
денег 30998
территориях 30987
жной 30984
Бер@@ 30963
едино@@ 30951
миротвор@@ 30950
EN@@ 30926
гарантировать 30924
полага@@ 30922
консульти@@ 30922
ятся 30921
Re@@ 30921
ЛИ@@ 30912
меня@@ 30912
запа@@ 30911
серьезных 30902
тай@@ 30898
борьбу 30891
основное 30879
Тимо@@ 30877
непосред@@ 30874
потребуется 30871
стату@@ 30868
впредь 30868
джа@@ 30859
сторон@@ 30851
мнений 30849
Украина 30849
Пла@@ 30846
начало 30844
принимается 30838
страда@@ 30834
ой 30828
эксплуата@@ 30826
твор@@ 30824
куль@@ 30822
отмеча@@ 30822
твер@@ 30809
законодательных 30804
провела 30803
Согла@@ 30793
максимально 30789
РУ@@ 30776
обсуждений 30772
Введение 30766
принадлежа@@ 30761
возвращения 30760
выразили 30758
заявлений 30758
род@@ 30757
табли@@ 30757
После@@ 30754
МДП 30748
вывод 30734
вленные 30731
проведенных 30725
цены 30718
избра@@ 30712
Уста@@ 30699
расширить 30698
стихийных 30696
ваниях 30693
света 30684
признание 30654
ЦИ@@ 30651
парламен@@ 30648
исследование 30643
моду@@ 30640
ствовала 30637
стоит 30627
апреле 30627
рующие 30626
режиме 30621
Утверждение 30620
CN.4 30613
мужчинами 30602
властей 30600
предложил 30593
ено 30586
Вопросы 30585
газа 30584
расту@@ 30572
жений 30564
эффективные 30560
окру@@ 30559
ra@@ 30556
тре@@ 30554
изучить 30544
общая 30535
измерения 30525
правовые 30524
Аль@@ 30521
зарегистри@@ 30479
впервые 30475
исполнения 30471
правовым 30466
ситуаций 30466
значительные 30458
сбаланси@@ 30454
1989 30450
дела@@ 30450
снабжения 30442
тысяч 30424
ров@@ 30424
публи@@ 30424
Ком@@ 30423
Времен@@ 30414
учащихся 30407
грани@@ 30406
совместного 30404
разрабаты@@ 30400
Ь@@ 30395
справедливого 30385
оружие 30378
делает 30368
почему 30366
тельством 30364
соблюда@@ 30359
сделал 30358
Доба@@ 30353
сайта 30339
проведены 30338
свидетель@@ 30332
ви 30331
ствовали 30297
ствуют 30296
Управлением 30280
уро@@ 30266
наш 30253
Востоке 30248
решать 30244
вшийся 30237
кры@@ 30230
рекомендовал 30221
отме@@ 30219
цикла 30215
хи 30209
щено 30196
вающий 30185
морской 30182
тором 30164
заявлениями 30163
ченными 30155
публикации 30151
яс@@ 30148
инспек@@ 30144
неправительственными 30142
ввиду 30141
квалифици@@ 30130
представленный 30122
Основ@@ 30106
Аб@@ 30083
Независи@@ 30081
70@@ 30077
степень 30068
стью 30064
сня@@ 30053
транспарен@@ 30048
уча@@ 30045
финансовым 30037
ограничений 30033
позволяют 30032
предложить 30031
чита@@ 30030
щен 30027
воспользоваться 30021
получают 30014
ответы 30001
отмечается 29997
ровано 29996
подготови@@ 29971
вед@@ 29970
D. 29969
авторов 29963
вперед 29959
C.2 29943
Австралии 29940
ИН@@ 29928
трех@@ 29927
обре@@ 29926
курсов 29916
регионов 29915
проводятся 29913
Центра 29911
курс 29906
будучи 29891
брифин@@ 29887
жертвами 29880
ER@@ 29877
Арабской 29869
активное 29869
Маври@@ 29868
Конвенцией 29864
Ман@@ 29856
исключи@@ 29854
Америке 29849
дели@@ 29849
Ливана 29825
документах 29825
млн 29823
лия 29819
рома 29813
чки 29797
пространство 29789
Уган@@ 29779
Ал@@ 29778
вленной 29774
ресурсах 29768
добровольных 29764
мера 29763
выбор 29752
September 29741
государствах 29735
июле 29731
тивно 29730
обществе 29724
бизнес 29717
ть@@ 29714
тол@@ 29702
уменьшения 29701
80@@ 29699
рати@@ 29695
специального 29694
знания 29692
персона@@ 29691
культур@@ 29677
провозгла@@ 29675
нынешней 29667
торговых 29657
предварительного 29653
ход@@ 29643
August 29643
конца 29642
ne@@ 29639
директора 29636
осуществить 29633
затрону@@ 29632
справедливости 29632
играет 29629
настоящим 29627
приоритетов 29618
Оно 29615
зон 29613
док 29604
отвер@@ 29587
применению 29582
особого 29574
рекомендацию 29546
ора@@ 29544
наконец 29539
компонентов 29535
средствам 29533
совершен@@ 29527
такую 29523
сексуальной 29522
обзору 29521
рабочего 29517
должност@@ 29514
Лан@@ 29514
консенсу@@ 29507
кадро@@ 29506
700 29503
представленные 29498
pe@@ 29498
эффективным 29497
извле@@ 29492
свидетельствуют 29489
установлению 29487
Наша 29485
сно@@ 29477
ющуюся 29475
величи@@ 29471
вызыва@@ 29466
оперативных 29463
невозможно 29460
ОЭСР 29454
Либерии 29440
Фа@@ 29437
енным 29430
нд@@ 29429
вшей 29419
шем 29414
ката@@ 29409
Затем 29402
внутренней 29401
ходя@@ 29400
двух@@ 29398
массового 29398
ОАО 29394
вступи@@ 29393
ждает 29390
сков 29388
ДЕ@@ 29385
Международное 29383
динами@@ 29381
Гватема@@ 29381
рий@@ 29380
вя@@ 29377
усили@@ 29376
военного 29366
соблюдать 29356
позицию 29350
дискуссии 29347
легко 29346
ото@@ 29341
корректи@@ 29335
ске 29324
сотрудни@@ 29320
существующие 29317
чрезвычайной 29300
протокол 29298
шко@@ 29298
тер 29297
точно 29284
ведет 29276
ated 29257
дия 29251
введен@@ 29249
дить 29248
Вер@@ 29246
od@@ 29241
нуть 29238
курсы 29230
разнообразия 29227
Решение 29219
медицинской 29211
летнего 29206
дар@@ 29202
али@@ 29197
совместной 29197
любом 29195
народ 29186
ционную 29184
коне@@ 29174
Члены 29174
иных 29173
проведен@@ 29166
2.1 29138
размер 29137
рекомендо@@ 29137
Объединен@@ 29129
фика@@ 29128
гостей 29127
вер 29124
тин@@ 29124
Бангладеш 29121
оцен@@ 29119
принятой 29119
бюджете 29119
тет 29115
правосудию 29115
сообщить 29097
ченной 29096
Миссия 29090
October 29090
минут 29088
практических 29086
сообщает 29084
щать 29080
действу@@ 29077
рамок 29066
US@@ 29039
жалобы 29034
средство 29032
Южная 29031
увеличить 29028
моря 29024
няется 29015
бази@@ 29006
дополнительной 28997
палестинского 28994
a.@@ 28989
насилием 28981
Корей@@ 28967
исходя 28960
общественных 28955
природ@@ 28948
устранения 28933
соответствующий 28932
народонаселения 28928
самое 28920
пря@@ 28919
экологически 28899
viewtopic.php 28887
джи 28886
шенных 28882
доказа@@ 28881
сов@@ 28880
злоупотреб@@ 28877
самые 28877
Ближнем 28875
родителей 28869
оптима@@ 28868
предлож@@ 28867
днев@@ 28866
нены 28848
применением 28841
неу@@ 28833
Ю 28832
создана 28831
согласие 28802
страной 28799
Число 28776
подходов 28775
различия 28773
носит 28772
инстру@@ 28759
Исполнитель@@ 28755
входит 28754
подотчетности 28744
проведено 28741
зыва@@ 28738
ВВП 28735
материала 28735
j 28732
перево@@ 28730
услугами 28726
религиоз@@ 28712
уничто@@ 28688
свиде@@ 28687
лью 28681
эксперимента@@ 28678
наряду 28673
действуют 28650
ИКТ 28643
Испания 28642
ГИ@@ 28633
ственно 28630
кс 28608
испол@@ 28596
первоочеред@@ 28593
судом 28588
тип 28582
рь 28581
техническую 28581
нов@@ 28570
ВТО 28569
факторы 28563
матери@@ 28563
категорий 28563
тур@@ 28562
ST 28561
необходимой 28550
чика 28549
проститу@@ 28548
космической 28547
вариан@@ 28539
напря@@ 28530
мся 28525
вашего 28524
призыва@@ 28522
ite 28522
широкий 28513
центры 28512
организу@@ 28504
экономи@@ 28494
шением 28487
создавать 28487
архи@@ 28486
кодек@@ 28478
результатам 28475
рова@@ 28474
заплани@@ 28467
осуществ@@ 28463
риа@@ 28459
ТЕ@@ 28458
шает 28457
Президента 28452
размини@@ 28452
отделений 28431
министерство 28431
достижении 28427
этнических 28414
Аль 28413
властями 28412
Меры 28410
определены 28405
трибунала 28405
жить 28402
мен 28396
Ma@@ 28396
практикой 28395
DLL 28394
квалификации 28393
уязвимых 28393
жен 28387
могло 28385
неде@@ 28369
Мексика 28354
щейся 28348
совет@@ 28346
составил 28320
сразу 28312
выборы 28304
пересмотра 28301
37@@ 28301
культурного 28294
город 28292
Турция 28282
ЕНИЯ 28277
СНГ 28272
взаим@@ 28271
рией 28267
2,@@ 28257
1988 28256
графии 28253
тивному 28248
одина@@ 28246
иностран@@ 28242
чь 28240
энергетики 28238
Италии 28236
рабочие 28221
диску@@ 28219
рамо@@ 28219
Были 28214
оцени@@ 28214
Поли@@ 28211
Трибунала 28211
подлежа@@ 28204
касающейся 28183
законодательстве 28176
составления 28175
ствовать 28173
шими 28167
Швейцария 28160
нением 28156
комите@@ 28155
Mar 28142
мую 28139
перевода 28134
предпринять 28126
вида 28112
недели 28109
широкой 28108
тского 28104
принадлежности 28101
внешних 28099
стратегического 28095
предста@@ 28093
От 28086
обоснован@@ 28078
сообществом 28077
методологи@@ 28077
надлежащим 28075
добы@@ 28070
рованием 28060
раздела 28060
Молдова 28058
нией 28055
конечном 28055
представила 28053
структур@@ 28045
фай@@ 28038
широкое 28037
ровка 28036
четвер@@ 28031
сей 28023
сного 28019
вполне 28011
ch 28011
возмещения 27993
бли@@ 27992
Ги@@ 27991
Фи@@ 27983
остаются 27982
Нидерланды 27979
дипломатиче@@ 27978
Distr 27972
летия 27971
Европей@@ 27968
ан 27965
всеобъемлющего 27963
спроса 27956
заболеваний 27935
наказа@@ 27924
конфиденциаль@@ 27923
лые 27919
гражданским 27913
преобразо@@ 27912
юрисдикции 27911
Al@@ 27907
рождения 27890
служит 27887
7,@@ 27884
ent 27880
стимули@@ 27872
плате@@ 27872
приняло 27869
тельностью 27863
ничего 27861
насколько 27861
ковые 27860
импор@@ 27854
спор@@ 27848
ственном 27829
Ай@@ 27827
мето@@ 27824
товары 27816
нений 27810
утра@@ 27809
снижения 27809
чений 27802
работают 27801
ност@@ 27783
Теперь 27774
инвестиции 27774
программами 27767
Мьян@@ 27765
пребывания 27755
ез@@ 27754
КН@@ 27747
Ру@@ 27744
мной 27742
тонн 27741
жая 27729
Один 27716
иннова@@ 27705
бло@@ 27704
страновых 27691
знать 27679
высо@@ 27679
результатом 27665
январе 27661
движение 27659
обращение 27659
шен 27648
район 27648
перехода 27643
правоохранительных 27640
указывает 27634
обстоятельствах 27634
просьбу 27624
енный 27610
сон 27609
частично 27597
количе@@ 27593
обмен@@ 27593
заяви@@ 27593
представителем 27588
оборо@@ 27583
международно 27581
военные 27580
учет 27580
семинаров 27576
проводиться 27575
комитетов 27573
Бразилия 27570
планируется 27565
сферах 27564
другом 27560
ум@@ 27557
нынешнего 27550
состоявшейся 27547
международный 27545
from 27535
рынок 27534
суды 27532
земле@@ 27522
page 27522
форми@@ 27519
Стратеги@@ 27518
неофициальных 27512
ще 27510
GMT 27505
оправ@@ 27504
Бразилии 27502
откло@@ 27500
различным 27495
July 27490
вской 27481
выс@@ 27476
закуп@@ 27476
шую 27474
Правило 27470
доклад@@ 27464
правления 27462
спорта 27460
сессиях 27458
эн@@ 27437
выборах 27433
ядер@@ 27432
данное 27420
Совещание 27420
будущего 27419
зи 27416
НП@@ 27414
рово@@ 27409
сотрудникам 27407
подробно 27397
совещаниях 27394
СПИ@@ 27391
создает 27387
делах 27375
Фак@@ 27369
ДА@@ 27369
ate 27368
указания 27365
настоя@@ 27348
лий@@ 27347
Австралия 27340
обстоятельств 27337
развитием 27319
считаем 27319
задержа@@ 27315
выступает 27311
косми@@ 27303
описание 27299
нераспространения 27293
Международным 27290
Основные 27288
СР 27281
соответствующую 27279
АС@@ 27278
установленных 27277
преследо@@ 27271
будем 27270
скорей@@ 27265
ПРЕД@@ 27261
1.1 27253
никам 27252
льному 27241
СО 27239
каза@@ 27235
определении 27232
Увеличение 27224
иного 27217
секторах 27214
сное 27209
бизнеса 27206
оговорки 27198
наде@@ 27195
правительственных 27193
Швейцарии 27188
ОО@@ 27186
уделяется 27185
применяться 27180
сооб@@ 27178
перечислен@@ 27169
подтверждая 27168
меньшей 27163
регистри@@ 27161
900 27146
Кубы 27134
этап 27131
словам 27120
официальный 27120
Норвегия 27103
ера 27099
улучшить 27089
образова@@ 27089
равно 27084
35@@ 27084
вероятно 27079
чному 27076
ревизии 27076
лить 27073
большого 27072
109 27068
тью 27062
кую 27057
страхования 27054
принимают 27044
пограни@@ 27044
Деятельность 27041
месяц 27039
войска 27038
луч@@ 27037
Пак@@ 27034
сделали 27032
эгидой 27030
Заседание 27028
требование 27020
all@@ 27020
спе@@ 27011
жден@@ 27010
оборудо@@ 27008
обеспечивают 27006
емся 27000
тацию 26977
неправительственные 26965
удостовер@@ 26965
участ@@ 26963
завершить 26961
Su@@ 26960
обязаны 26954
Три@@ 26954
con@@ 26948
типо@@ 26941
C. 26937
Герцего@@ 26937
апелля@@ 26925
многочисленные 26912
транспор@@ 26912
Правила 26909
гово@@ 26907
просвети@@ 26904
Факульта@@ 26898
8,@@ 26892
надлежащие 26890
105 26890
тесно 26882
шки 26882
основными 26881
Египет 26876
Re 26871
неформа@@ 26863
34@@ 26861
5. 26853
мета@@ 26835
коммер@@ 26825
огня 26806
достигнутый 26805
Показа@@ 26804
поступления 26803
английском 26797
детской 26795
долго@@ 26775
указывается 26770
Испании 26766
емости 26754
чески 26752
большие 26749
загрязнения 26743
Ar@@ 26741
Рассмотрение 26741
расследование 26734
няет 26733
кость 26732
городах 26718
морю 26714
рию 26712
уго@@ 26706
вшись 26705
ья@@ 26700
большим 26699
туа@@ 26695
исход@@ 26686
школах 26682
односторон@@ 26680
националь@@ 26676
процессы 26673
недостаточно 26666
мы@@ 26665
ек@@ 26665
присут@@ 26652
сбор 26640
тием 26637
ГЭ@@ 26634
поступа@@ 26601
место@@ 26600
пост@@ 26598
January 26593
МК@@ 26591
щенных 26590
электри@@ 26584
подклю@@ 26579
основой 26572
ТО 26568
Верховный 26567
продажи 26563
Азербайджа@@ 26561
психологи@@ 26560
членом 26558
Hotel 26556
SR.@@ 26549
государственным 26545
важной 26542
произведен@@ 26538
конкретно 26522
принимаются 26520
беспристра@@ 26512
ум 26502
полученные 26496
стать@@ 26495
встрече 26490
обратиться 26488
техническое 26485
большинства 26480
колони@@ 26474
льской 26471
обраща@@ 26470
европейских 26462
общем 26451
границ 26446
кто@@ 26434
переход@@ 26425
направлений 26421
заинтересован@@ 26421
Бан@@ 26419
Наконец 26418
накоплен@@ 26414
есте@@ 26409
причины 26397
неблагоприя@@ 26385
гендерных 26385
Реги@@ 26368
250 26365
Qu@@ 26361
создан 26360
VIII 26347
последнего 26344
стой@@ 26331
C.5 26331
регуляр@@ 26319
возможным 26317
полный 26316
религиозных 26305
ур@@ 26304
Views 26300
совершении 26296
тическое 26294
устройство 26287
Дополнитель@@ 26284
потреб@@ 26280
конкретным 26280
Азербайджана 26272
карты 26270
принципах 26270
отражает 26262
доказательств 26261
sk@@ 26258
пособий 26255
Ло@@ 26254
значительное 26252
охватывает 26246
состоявшемся 26244
века 26243
Законом 26240
предусмотренные 26231
стиму@@ 26229
слож@@ 26225
Камбо@@ 26224
U 26219
критериев 26218
распределение 26210
подчеркнули 26207
СС 26206
RA@@ 26205
частей 26198
ГО@@ 26181
указать 26178
восстановлению 26172
рекомендовала 26161
ясно 26158
мигра@@ 26156
Создание 26152
среднем 26148
традиционных 26146
стер@@ 26145
опустыни@@ 26145
ревизоров 26145
мандатов 26143
оплаты 26142
хар@@ 26139
подгото@@ 26139
феврале 26136
среднего 26135
копи@@ 26120
F.@@ 26114
вносить 26106
реализо@@ 26102
судо@@ 26096
ситуацию 26090
вся@@ 26089
распоря@@ 26089
ходить 26075
Сторонами 26072
Apr 26061
надлежащей 26060
ствует 26054
ждением 26050
Общие 26038
Десяти@@ 26037
районы 26036
служба 26036
целевой 26034
3,@@ 26031
договоренности 26029
дисциплинар@@ 26020
хра@@ 26010
тенденции 25998
жающих 25993
распространению 25992
ем@@ 25976
неправитель@@ 25973
ствие 25965
сохранение 25950
Догово@@ 25950
шается 25947
комплексного 25943
лицом 25941
специализированных 25940
110 25939
последствиях 25937
жало@@ 25936
работ@@ 25936
Кри@@ 25931
частным 25917
надежду 25913
рованная 25904
обсужда@@ 25901
осве@@ 25890
договор 25881
источ@@ 25876
разору@@ 25876
тенге 25874
соблюдением 25863
распространяется 25862
веден@@ 25860
член 25860
сожалению 25856
вающим 25849
жденных 25845
субъектов 25839
Солнца 25837
Система 25830
отсутствием 25824
островных 25818
Пя@@ 25813
указанные 25813
запраши@@ 25809
заявлением 25808
Пол@@ 25803
мыш@@ 25802
Всемир@@ 25801
запро@@ 25798
гри@@ 25785
лы@@ 25784
дальнейшей 25784
подвер@@ 25779
развивающимися 25777
внесения 25772
влено 25771
имел 25764
будущее 25761
незаконной 25758
соответствия 25754
первая 25751
Всемирный 25747
ологи@@ 25744
La 25743
партнерских 25743
инвали@@ 25741
регулярного 25739
нынеш@@ 25736
мя@@ 25734
Факультативного 25732
сможет 25731
каждому 25727
круг 25721
Here 25708
испан@@ 25706
сессион@@ 25706
мерам 25700
зия 25699
форму 25699
пен@@ 25698
ok@@ 25697
тю@@ 25696
тив 25694
щает 25693
our@@ 25691
CA@@ 25690
проси@@ 25689
Центра@@ 25682
национальное 25676
методи@@ 25674
разделу 25672
психи@@ 25659
дной 25657
контра@@ 25652
подчеркнуть 25651
иммуни@@ 25645
наблюдению 25637
ирак@@ 25636
определяется 25634
касаются 25629
счетов 25625
договорных 25625
пожелает 25622
срав@@ 25620
Королев@@ 25613
настоящих 25613
212 25613
друга 25606
палестинских 25604
административного 25595
вокруг 25591
заработной 25589
Постоянный 25588
qu@@ 25583
газо@@ 25573
укреп@@ 25571
озна@@ 25569
СКАЯ 25563
дополня@@ 25549
основного 25548
ган@@ 25548
секторов 25538
This 25537
ждать 25536
s.@@ 25532
привле@@ 25530
присоединения 25523
цар@@ 25521
Fri 25519
считают 25506
Коста 25498
позволило 25495
уровней 25487
статью 25486
хе 25478
значительный 25467
исполнении 25459
юридической 25458
ниче@@ 25443
ху 25438
тивном 25430
числен@@ 25425
природоохран@@ 25419
March 25413
НОГО 25409
превышает 25405
предстоя@@ 25404
пережи@@ 25403
коммуникационных 25400
рассчита@@ 25396
нении 25393
контрактов 25392
полно@@ 25391
строительству 25384
обследования 25381
стри@@ 25370
учреждение 25369
достигнут 25367
ал@@ 25361
for@@ 25361
Об 25357
приводи@@ 25354
Трибу@@ 25344
Подготови@@ 25342
свободной 25330
носить 25329
Совещания 25323
тизации 25321
уважение 25317
получи@@ 25312
Республикой 25309
аспектах 25303
йских 25302
согласи@@ 25301
государственными 25300
оценкам 25300
Второй 25290
продукты 25290
краткосро@@ 25289
Are 25289
объеди@@ 25283
соч@@ 25283
провод@@ 25276
9,@@ 25275
² 25268
концу 25261
шают 25258
присоеди@@ 25256
Много@@ 25255
расо@@ 25252
стар@@ 25251
гото@@ 25249
вооружен@@ 25248
Форума 25244
сельскохозяй@@ 25236
} 25235
НА 25232
ника@@ 25227
должным 25225
ДРК 25219
приводит 25215
отправления 25197
территорию 25196
выражения 25189
Директора 25169
пленарном 25164
противоре@@ 25162
прибы@@ 25162
Настоящий 25154
присоедини@@ 25153
понимании 25146
прилож@@ 25144
административные 25141
su@@ 25141
полевой 25132
координацию 25130
index.php 25129
евре@@ 25123
положением 25118
{ 25111
дальнейших 25100
be@@ 25099
долгосро@@ 25095
Ирак 25095
отслежи@@ 25089
предстоит 25084
акций 25071
большее 25062
Норвегии 25055
встреч 25051
подготовлен 25049
передаче 25048
очередной 25044
сторонам 25043
серьезно 25040
хе@@ 25024
исследо@@ 25020
установлен@@ 25018
призвала 25012
опасность 25010
Жене@@ 25005
надеется 24991
заявили 24982
ht@@ 24979
est@@ 24971
Женщины 24970
информационной 24970
участвующих 24970
приверженности 24964
ян@@ 24962
ауди@@ 24961
межправительственных 24957
расположен@@ 24956
Прочие 24956
прода@@ 24950
фактически 24950
внутренние 24942
Дарфу@@ 24940
допуска@@ 24940
por@@ 24934
Общая 24915
добиваться 24913
прочего 24909
наз@@ 24909
Мини@@ 24896
дал 24895
дии 24894
ОБСЕ 24893
енной 24891
созданы 24890
Азиатско 24889
рные 24885
уточ@@ 24884
href 24884
активного 24878
вариантов 24875
стра 24873
стратегия 24866
аспектам 24865
Хорватии 24864
начислен@@ 24864
рении 24859
Фон@@ 24854
формирование 24847
засу@@ 24845
постоян@@ 24844
ist@@ 24844
несут 24842
повтор@@ 24841
веще@@ 24839
деся@@ 24832
te 24827
равных 24825
привело 24821
недопу@@ 24818
пособия 24817
низким 24813
оговор@@ 24812
устройств 24808
государстве 24780
теку@@ 24770
возбу@@ 24769
кризис 24757
стратегию 24756
вия 24753
циона@@ 24744
Мин@@ 24743
вар@@ 24733
вещества 24730
щений 24730
ваемой 24726
снижение 24721
пробе@@ 24720
согласования 24715
экономике 24714
отдельные 24709
RE@@ 24709
Именно 24703
тация 24699
адре@@ 24696
суде 24693
подлин@@ 24690
обла@@ 24686
сырье@@ 24685
играют 24681
представили 24681
органи@@ 24681
Интер@@ 24679
веб@@ 24679
чаются 24677
мные 24673
зоне 24673
достой@@ 24671
региональным 24666
Unknown 24661
агентства 24645
Результаты 24644
целе@@ 24640
имущество 24639
сек@@ 24632
давления 24631
отеля 24626
обслуживанию 24623
ЛЕ@@ 24623
МО 24622
Каждый 24605
серьезную 24604
говорить 24602
высоким 24584
зву@@ 24584
Австрия 24575
Большинство 24574
предоставляется 24567
несен@@ 24564
нном 24561
ents 24561
перво@@ 24557
тской 24554
Кара@@ 24549
впоследствии 24529
устойчивости 24526
лко@@ 24522
глобализации 24520
экономическое 24517
ца@@ 24512
реализацию 24512
encounter 24508
скоордини@@ 24495
произво@@ 24493
втором 24493
ща 24489
сократить 24488
лем 24486
мии 24484
топли@@ 24480
поставки 24471
реабилитации 24471
проведением 24466
Пакистан 24461
выплачи@@ 24453
рон@@ 24450
оккупированных 24449
гео@@ 24446
техническим 24445
решительно 24445
ство@@ 24443
выде@@ 24437
Тор@@ 24432
стадии 24430
степен@@ 24428
допу@@ 24428
финансировании 24425
предмет 24423
доброволь@@ 24417
возобновля@@ 24415
Протоко@@ 24415
лла 24414
существования 24410
Исламской 24408
показателя 24406
Директор 24404
отчеты 24400
оборота 24395
подпрограммы 24395
дальнейшее 24389
экономический 24383
комиссией 24379
энерге@@ 24378
ОС 24378
поправками 24375
ностям 24367
An@@ 24366
нападения 24364
Швеции 24356
сроков 24355
пригово@@ 24354
профессиональ@@ 24353
жные 24352
os 24351
нова@@ 24334
годи@@ 24333
обосно@@ 24329
интегри@@ 24327
РО@@ 24318
Эритре@@ 24312
Укрепление 24309
предотвра@@ 24304
Среди 24301
торговля 24300
острова 24299
взять 24297
судьи 24294
постоянной 24294
мирового 24293
2.2 24291
XX@@ 24281
ресурсам 24277
общим 24272
финансовую 24270
похи@@ 24267
стано@@ 24265
островов 24265
высокий 24260
двусторонних 24256
структуре 24246
человеческого 24244
финансов 24237
ваниям 24237
дубли@@ 24235
третьих 24230
Компания 24228
no@@ 24224
озабочен@@ 24219
Польша 24218
казни 24216
чность 24215
слуша@@ 24210
моделей 24208
выво@@ 24204
изнасило@@ 24204
нк@@ 24198
нитель@@ 24195
вных 24194
кам@@ 24190
Строительство 24187
Центрально@@ 24174
регулиру@@ 24169
сту 24158
tel 24156
цеп@@ 24155
Пункты 24150
ответ@@ 24148
чает 24146
ph@@ 24138
предполагает 24137
щена 24133
ho@@ 24129
вашем 24129
признать 24125
тическая 24121
млрд 24119
лять 24115
брони@@ 24115
Учитывая 24114
Первый 24112
городских 24108
ставит 24102
соответствующее 24096
Ереван 24093
сче@@ 24075
окла@@ 24074
принципам 24073
Зал 24055
хро@@ 24045
жден 24043
форма 24030
поиска 24030
рациональ@@ 24012
информированности 24011
производстве 24010
Евро@@ 24008
Всемирная 23987
африканского 23980
секретариату 23980
ЭК@@ 23979
потери 23978
свер@@ 23975
НРС 23975
валю@@ 23966
направлена 23965
Con@@ 23961
туризма 23959
мон@@ 23953
ступ@@ 23951
свобод@@ 23936
контак@@ 23929
Wed 23926
терми@@ 23925
финансированию 23921
Тре@@ 23920
ИК@@ 23909
трудно 23907
ы@@ 23902
t.@@ 23899
явления 23895
вок 23889
выводу 23879
коммерческих 23875
приводятся 23872
сообщила 23856
запад@@ 23855
ОВЕ@@ 23839
рованное 23838
заявила 23838
численность 23836
перспективы 23831
двой@@ 23830
гро@@ 23823
трибуна@@ 23806
уведомления 23806
оставаться 23802
оплачи@@ 23799
лю 23792
нося@@ 23791
ers 23786
пост 23786
семинар 23786
бу 23781
разверты@@ 23781
контролем 23777
получила 23767
Тер@@ 23765
кодекс 23765
чрезвычайно 23757
Сентябрь 23756
Бар@@ 23750
государственном 23747
Афганистане 23746
Объединенной 23742
законодательные 23731
скры@@ 23727
персоналу 23724
Дей@@ 23717
iv 23717
межучрежден@@ 23717
важнейших 23709
пересмотреть 23709
стого 23700
конкретной 23700
отрасли 23690
дискриминацией 23683
масштаб@@ 23674
полную 23674
6. 23673
мужчины 23672
век 23666
Уголовного 23657
Афганистана 23646
год@@ 23643
гораздо 23640
следующую 23637
важности 23629
двухгодичного 23622
знаниями 23613
ов 23613
вка 23598
сертифика@@ 23595
институт 23591
Куба 23591
филь@@ 23589
Автор 23589
введения 23582
слов 23581
управлении 23573
повестка 23572
ment 23563
Пер@@ 23556
влена 23554
электронных 23554
дают 23546
Финляндии 23543
наруши@@ 23537
человечества 23528
повы@@ 23525
ПРИ@@ 23524
ведении 23523
превен@@ 23518
сный 23517
Цена 23512
выступления 23509
обзор@@ 23505
Corr.1 23501
препятствий 23499
готовность 23496
подры@@ 23494
искоренения 23487
жу@@ 23484
Право@@ 23477
видео 23476
вклада 23470
рассматривает 23462
азиат@@ 23459
Ex@@ 23457
Швеция 23449
подня@@ 23437
причиной 23436
гами 23432
ведущих 23426
название 23424
ставки 23423
наказание 23419
начина@@ 23419
каз@@ 23409
условиями 23405
местными 23397
председателя 23396
Туркмени@@ 23394
надо 23392
действуя 23384
семинара 23381
Обще@@ 23380
веща@@ 23379
раскры@@ 23378
аэропорта 23378
АНИ@@ 23378
совер@@ 23377
хозяйств 23375
станции 23374
подряд@@ 23367
смогут 23365
РА 23353
правового 23352
Сотрудничество 23350
курса 23349
профессиональных 23346
совершенно 23344
ob@@ 23340
открытия 23331
смогли 23329
36@@ 23325
проис@@ 23320
грам@@ 23320
готовы 23316
au@@ 23314
Ге@@ 23313
оказывают 23311
компонен@@ 23301
оратор 23301
ПК 23296
Mon@@ 23281
гна 23275
правилами 23274
Цен@@ 23270
обследо@@ 23253
исто@@ 23247
комплексной 23247
Газа 23246
ционном 23245
связано 23244
мена 23243
ибо 23243
рекомендуется 23243
льник 23242
чаще 23241
Бог 23241
11@@ 23233
вторых 23231
раль@@ 23229
занимает 23226
развертывания 23225
Log 23223
осуществляются 23221
виду 23212
следить 23212
тща@@ 23206
Полу@@ 23204
отбора 23190
палестинской 23189
структура 23180
Сою@@ 23176
.48 23176
me@@ 23172
Sat 23171
существо@@ 23169
Юго 23165
процессом 23165
вшейся 23163
прогнози@@ 23162
ai@@ 23152
ЕД@@ 23151
22@@ 23150
жд@@ 23148
свобо@@ 23147
боль@@ 23142
очевид@@ 23141
рением 23130
источником 23129
теми 23127
проведена 23125
излага@@ 23125
тила 23116
двухгоди@@ 23116
эксперты 23112
прось@@ 23112
парламента 23111
включение 23107
возможностью 23100
CDATA 23097
вакан@@ 23092
понимание 23087
смеж@@ 23085
боеприпасов 23080
современных 23075
нарушениях 23074
iz@@ 23071
зал 23061
Шри 23050
над@@ 23048
жей 23045
1.2 23044
религи@@ 23039
Информа@@ 23039
3.1 23034
аре@@ 23033
.ua 23033
сии 23031
стандартам 23030
ума 23026
информировать 23026
Хи@@ 23015
возможностями 23013
мя 23010
ОА@@ 23008
щимися 23006
централизо@@ 22997
ванная 22992
питание 22985
Нет 22983
рассмотрены 22974
адресу 22974
косвен@@ 22969
реализу@@ 22963
101 22957
науч@@ 22953
относи@@ 22952
правилом 22951
пересмотр@@ 22950
ссылки 22949
Доклад@@ 22945
рных 22944
wor@@ 22944
DA@@ 22941
помещения 22941
сказа@@ 22934
жестокого 22934
зер@@ 22933
Сальва@@ 22933
gr@@ 22929
Дол@@ 22928
обоих 22926
здания 22924
проведен 22922
дро@@ 22916
транзи@@ 22909
нормами 22905
мень@@ 22904
мати@@ 22900
фикация 22896
проблематики 22888
уведо@@ 22881
ly 22878
Рамо@@ 22860
изменении 22857
April 22855
выработки 22854
расчета 22844
обращаться 22841
задачей 22840
мской 22840
бере@@ 22838
лишения 22836
СР@@ 22835
обладает 22825
ub@@ 22823
урегули@@ 22821
резюме 22819
недав@@ 22811
ляются 22811
Количество 22808
стремится 22799
Отель 22796
ностями 22793
примет 22792
дите 22783
лях 22748
производится 22739
нетерпимости 22736
обновления 22734
новыми 22734
зацию 22732
равноправи@@ 22731
подачи 22731
мнениями 22729
используемых 22727
подчерки@@ 22725
УСВН 22725
Национальная 22717
наша 22716
МООНС@@ 22715
вспомогательного 22713
дил 22712
предложила 22711
народу 22703
объясняется 22701
кти@@ 22697
тики 22693
нями 22689
автомобилей 22689
CR@@ 22687
случай 22682
ООО@@ 22682
поя@@ 22673
Sun 22670
моей 22663
страхо@@ 22654
подходы 22653
выгод@@ 22644
официальное 22644
tem@@ 22644
Ряд 22643
ЕВ@@ 22640
ik@@ 22638
Фран@@ 22637
ценностей 22631
дни 22628
способ 22621
тенден@@ 22615
рен 22615
изгото@@ 22615
оби@@ 22614
претензий 22606
цу 22604
матиче@@ 22602
ati@@ 22599
обществом 22594
Украине 22593
сформи@@ 22593
мия 22591
института 22589
вке 22589
цов 22583
высоком 22582
финансовыми 22579
яр@@ 22572
tremulous.net 22572
Сам@@ 22570
one 22568
правозащит@@ 22555
проводимых 22552
лесов 22549
организовать 22544
рять 22542
February 22542
реб@@ 22534
определи@@ 22534
духов@@ 22533
хранение 22531
очеред@@ 22528
ухода 22522
стан 22511
you 22510
безнаказан@@ 22506
выводов 22503
статусе 22499
важный 22495
жу 22495
масштабы 22494
рынков 22489
проверке 22483
труд 22483
Индонезии 22481
превы@@ 22480
чрезмер@@ 22478
недоста@@ 22477
резолю@@ 22477
би 22473
щему 22471
стана 22470
стской 22465
неприемле@@ 22463
свидетелей 22463
людям 22460
Председа@@ 22454
Одним 22453
Араб@@ 22438
лок 22437
выбро@@ 22436
ВС 22426
Нидерландов 22421
направить 22418
токси@@ 22417
обя@@ 22411
печати 22408
ate@@ 22402
программного 22398
ред@@ 22397
устанавли@@ 22396
ляется 22396
нести 22392
подобных 22386
обвинения 22385
проек@@ 22379
семь 22367
лин 22356
оценить 22353
меньшин@@ 22352
ЮНОДК 22347
народы 22346
личных 22345
oo@@ 22338
глав 22337
рация 22336
председатель 22331
языков 22331
ган 22327
Танза@@ 22326
Кувейта 22326
партий 22324
иногда 22317
Финансирование 22315
размещения 22314
давление 22313
расположен 22306
скорость 22303
внесен@@ 22300
целый 22298
КОН@@ 22297
рем 22285
опира@@ 22283
Чи@@ 22280
комплекса 22278
Одна 22273
совершения 22266
обычных 22259
влен@@ 22258
0.@@ 22258
умень@@ 22257
третьего 22251
нашем 22248
причинам 22234
СМИ 22229
захва@@ 22226
Aug 22225
РФ 22222
цик@@ 22218
процедура 22218
большая 22215
поддержать 22213
т.д 22211
встре@@ 22206
Вклю@@ 22206
Упра@@ 22206
совершенствование 22205
заключении 22191
Группой 22191
установление 22190
эффективному 22188
кни@@ 22184
подвергаются 22184
КЛ@@ 22184
примирения 22180
десятилетия 22179
хло@@ 22179
разрешение 22179
сферу 22179
вторая 22175
изготови@@ 22175
призываем 22169
ссиях 22168
марки@@ 22167
последующие 22151
ссе@@ 22150
единства 22147
ря 22144
министер@@ 22143
торго@@ 22139
38@@ 22138
преступление 22134
ID 22133
НЫХ 22133
B.@@ 22123
используя 22122
Данные 22121
Ее 22120
какое 22119
тр@@ 22119
тать 22117
убеждений 22109
пита@@ 22099
репродуктивного 22098
подростков 22093
be 22087
предлагаемого 22082
Вене 22081
показывает 22077
рены 22076
рабочая 22075
Острова 22070
созна@@ 22064
дно 22061
избран@@ 22060
обозна@@ 22059
рейсы 22040
поездок 22038
Руанде 22038
деньги 22033
лениям 22030
лё@@ 22024
Кот 22023
докумен@@ 22014
рного 21999
виновных 21990
таком 21981
Техниче@@ 21981
НЫЕ 21980
ян 21978
Соглашение 21971
ТЕЛЬ@@ 21971
облегчения 21968
тский 21966
принята 21962
проблемати@@ 21961
ложить 21955
критерии 21953
действию 21949
испра@@ 21949
оккупации 21947
PR@@ 21947
подчи@@ 21946
страницу 21946
восстановление 21942
щийся 21938
дали 21931
рин@@ 21931
истори@@ 21927
отмы@@ 21926
критери@@ 21924
исключить 21923
рту@@ 21917
внесенными 21917
ланд@@ 21915
слу@@ 21914
влияния 21904
собра@@ 21903
обзо@@ 21902
сообра@@ 21894
сель@@ 21894
настоящий 21891
выполнением 21889
лки 21883
рынки 21882
средних 21881
множество 21879
многочисленных 21874
ваемый 21873
отдыха 21872
макро@@ 21870
дных 21868
провинции 21867
итоге 21866
безотлага@@ 21853
вытека@@ 21845
шать 21844
Делега@@ 21836
секретариа@@ 21835
вода 21834
служащих 21831
прочие 21822
сектораль@@ 21816
взаимодействие 21810
включенных 21797
щегося 21797
ГО 21794
вной 21787
задержания 21787
sm@@ 21785
ведется 21780
аль 21779
ссо@@ 21772
относящихся 21769
ницы 21768
медицин@@ 21761
нок 21757
нищетой 21756
Оратор 21756
понять 21752
вашей 21751
ЕНИ@@ 21745
размера 21745
преж@@ 21738
неоднократно 21733
исключения 21732
последней 21727
Page 21727
суд@@ 21725
дальнейшему 21723
Была 21723
вле@@ 21715
промежуточ@@ 21715
оккупи@@ 21715
высокую 21713
прогрессе 21712
подходя@@ 21707
международная 21705
Y 21691
денежных 21689
разнообраз@@ 21687
ФИ@@ 21687
Да 21686
Sep 21681
временное 21673
продовольствия 21671
разбира@@ 21670
видео@@ 21669
указанной 21669
источники 21668
л. 21668
Такая 21660
тон@@ 21656
Ху@@ 21651
морского 21650
необ@@ 21649
лек@@ 21644
сообществу 21644
север@@ 21642
дополнительного 21637
БАПОР 21636
жается 21629
женных 21624
части@@ 21621
требованиями 21615
объекты 21614
Резолюция 21611
ter@@ 21610
другое 21609
Подпись 21598
заменить 21597
лучших 21591
образи@@ 21587
рыно@@ 21585
временно 21583
актив@@ 21582
См. 21581
Mon 21580
нехва@@ 21579
Время 21569
id 21568
гости@@ 21566
сдержи@@ 21565
инициативе 21559
ами 21557
ухуд@@ 21552
нарушением 21551
террористических 21548
незамедлительно 21540
вшими 21540
имеющиеся 21532
претензии 21525
люби@@ 21522
сылки 21522
самостоя@@ 21517
Обзор 21517
навыков 21516
базу 21513
гер@@ 21507
V. 21507
подо@@ 21504
Декла@@ 21504
тировать 21501
пят@@ 21498
конкретного 21497
метри@@ 21492
операциях 21491
Индонезия 21489
эквивален@@ 21484
ЛО@@ 21483
покупа@@ 21480
Джи@@ 21480
ess 21479
вре@@ 21478
do@@ 21476
ун@@ 21471
опреде@@ 21471
автомоби@@ 21466
ом 21464
компенсацию 21464
выступая 21460
собствен@@ 21459
периодического 21459
изучение 21458
арен@@ 21458
меся@@ 21455
колле@@ 21448
физических 21444
хом 21443
Герцеговины 21438
круг@@ 21433
первые 21432
формах 21425
вшегося 21421
мощ@@ 21418
руководи@@ 21411
Алба@@ 21409
шь 21405
напра@@ 21395
сессию 21390
Диа@@ 21385
планирование 21384
Граждан@@ 21382
формате 21379
ленной 21372
Пятьдесят 21372
праши@@ 21372
дорог 21366
обеих 21365
техниче@@ 21361
отчетный 21361
Допол@@ 21359
прибре@@ 21358
клю@@ 21356
передать 21356
ВСООН@@ 21356
Инициа@@ 21355
изменению 21352
стров 21345
темпы 21343
зелен@@ 21342
уч@@ 21340
продукта 21336
проходи@@ 21333
син@@ 21330
Jan 21329
успеха 21326
типов 21323
зии 21323
комиссий 21321
потенциа@@ 21305
обсудить 21298
строй@@ 21289
log@@ 21281
совершенство@@ 21268
Опреде@@ 21265
налогообложения 21264
дальнейшем 21261
Экономический 21256
возникновения 21255
семь@@ 21252
джа 21249
сожаление 21247
профи@@ 21246
Ивуа@@ 21239
августе 21238
view 21238
ровало 21237
Агентства 21237
целенапра@@ 21236
En@@ 21234
убеди@@ 21233
народам 21233
внес 21233
совершенные 21227
ознакомиться 21225
поставок 21214
КМ@@ 21214
произошло 21213
пострадавших 21205
моего 21205
таль@@ 21204
уста@@ 21201
КР 21199
тельстве 21190
возник@@ 21188
стабилизации 21187
ёт 21184
лено 21183
Мали 21183
выдачи 21178
Узбекистан 21177
увеличению 21174
выбора 21173
прекрас@@ 21169
предусмотрены 21168
смяг@@ 21167
лез@@ 21166
Йе@@ 21164
Колумбии 21161
социальное 21160
Аргентина 21159
Эль 21158
Азербайджан 21156
интегра@@ 21149
демографи@@ 21148
провели 21139
семи 21139
Департаментом 21130
Израилем 21129
дки 21124
транснациональной 21122
ченное 21109
зона 21103
странице 21103
первым 21094
муся 21089
ответов 21087
Jul 21085
тному 21075
кси@@ 21065
союзом 21065
ep@@ 21065
продви@@ 21064
102 21059
исполнителя 21058
далеко 21057
продолжительность 21057
последний 21056
принципе 21056
плат@@ 21054
Источник 21053
пенитенциар@@ 21053
Объ@@ 21045
судебные 21044
Сторонам 21040
освобождения 21039
El 21037
Sh@@ 21031
борьба 21028
супру@@ 21026
никакого 21022
ДНЯО 21020
солидарности 21016
Контро@@ 21004
Услуги 21000
Филип@@ 20998
становятся 20991
прозра@@ 20979
Фор@@ 20979
фактов 20978
лидеров 20977
мероприя@@ 20975
ссией 20970
самоопределение 20964
изуча@@ 20963
перспек@@ 20961
довольно 20960
выпуска 20954
Специальному 20951
чу 20949
морскому 20949
130 20948
беременности 20947
af@@ 20939
компетенции 20936
граждане 20933
исполнитель@@ 20931
стер 20930
планирует 20928
усиления 20921
сельскохозяйственной 20920
миростроительства 20919
рассмотре@@ 20917
ден 20914
проектом 20905
данная 20905
координация 20897
подчеркну@@ 20894
se 20891
Бельгия 20889
другую 20877
достовер@@ 20874
пыта@@ 20872
интере@@ 20869
Пале@@ 20868
собственных 20867
Штатах 20867
Ираке 20867
область 20866
получает 20863
управлением 20859
ждено 20858
финансовый 20856
узнать 20845
пото@@ 20841
тания 20827
ДИ@@ 20823
прису@@ 20819
лага@@ 20816
моло@@ 20815
телях 20812
отказа 20810
закончи@@ 20809
Правительства 20807
возглавля@@ 20805
ценности 20799
жают 20791
сообщениям 20786
обеспечением 20785
соответ@@ 20785
пехот@@ 20784
art@@ 20784
расследо@@ 20779
официальном 20779
all 20776
договоры 20768
Александр 20766
Хар@@ 20762
енными 20760
пожилых 20750
площади 20747
подробную 20747
Аналоги@@ 20743
тематических 20741
тром 20737
разъясни@@ 20733
Канцелярии 20733
бедности 20731
недель 20720
намер@@ 20718
Исламская 20718
существу 20717
турой 20716
выдвину@@ 20713
репатриа@@ 20705
модель 20704
нераспространении 20704
ПРЕДСЕДАТЕЛ@@ 20693
списке 20689
Еже@@ 20688
гар@@ 20687
формированию 20687
испо@@ 20684
сторону 20683
Таджикистан 20683
интернет 20681
чет 20678
рной 20668
тий 20656
конвенция 20656
сторона 20651
распо@@ 20650
дву@@ 20650
активи@@ 20645
Господь 20635
отчетов 20628
49@@ 20628
предше@@ 20626
жает 20622
ay 20619
экономическая 20617
атомной 20614
меморанду@@ 20614
потенциальных 20609
университе@@ 20603
Авто@@ 20603
ствовал 20601
резолюциях 20600
распространя@@ 20598
Финляндия 20596
дело@@ 20590
перви@@ 20588
территориаль@@ 20587
Эква@@ 20586
росту 20583
,5 20583
инструк@@ 20577
иностранцев 20577
населенных 20577
тили 20575
поставщиков 20573
положить 20569
исчезнов@@ 20567
Здесь 20564
жили@@ 20560
потреби@@ 20555
никакой 20553
подписания 20553
тическую 20550
выполнен@@ 20545
ic 20542
бедных 20531
МИД 20530
кло@@ 20524
СН@@ 20522
долгосрочной 20521
берите 20519
приступи@@ 20511
спек@@ 20510
круга 20507
рекла@@ 20507
равной 20501
внутри@@ 20497
пресе@@ 20495
Руковод@@ 20492
отделение 20491
ждению 20487
отража@@ 20487
гендерным 20484
Tran@@ 20483
сегодняшний 20479
коро@@ 20477
версии 20473
Рио 20471
инфра@@ 20466
местным 20464
поддержа@@ 20457
лых 20455
чики 20453
коренного 20447
одному 20446
вось@@ 20439
Резюме 20437
осуществи@@ 20436
регион 20429
воду 20427
контакты 20423
консультан@@ 20405
прекращении 20401
прошлого 20397
Каи@@ 20397
осмо@@ 20396
риск 20392
орга@@ 20380
104 20380
специально 20378
характеризу@@ 20373
присутствие 20373
private 20369
1986 20368
Пот@@ 20367
промышленных 20366
вооруженные 20365
собственные 20359
контроли@@ 20348
состоялось 20347
IX 20347
КК 20343
возможного 20342
7. 20336
Jun 20331
Май@@ 20328
целесообраз@@ 20325
комплекс 20319
Договор 20318
бюллетен@@ 20317
объединения 20315
Сме@@ 20310
окружающую 20310
Общий 20303
незаконным 20299
ev@@ 20298
Судан 20295
внеш@@ 20294
пользуются 20293
ответственных 20283
лой 20282
армии 20282
варианты 20282
относя@@ 20282
подчеркивая 20280
Повестки 20279
воде 20277
экономическому 20274
признается 20274
39@@ 20274
судебное 20272
ознаком@@ 20272
перечня 20258
45@@ 20257
дополнительно 20255
годом 20253
103 20253
оружи@@ 20244
пан@@ 20244
приведет 20243
выбрать 20237
университета 20228
средней 20225
поле 20224
предполагается 20221
статистические 20219
message 20219
ровку 20218
совокуп@@ 20216
Ад@@ 20210
ОПОГ 20205
никто 20199
ссион@@ 20197
результат 20196
интеллектуальной 20194
транспортные 20193
комната 20183
занимаются 20182
аппара@@ 20177
призывом 20172
побу@@ 20169
виде@@ 20167
шаются 20161
состав@@ 20159
фор@@ 20158
воли 20158
независимого 20158
Использование 20155
семина@@ 20155
либера@@ 20152
обновлен@@ 20152
указал 20151
тихоокеан@@ 20150
потребителей 20148
вызо@@ 20146
вопросе 20146
привели 20145
Специальной 20141
обратить 20138
двига@@ 20137
воздуш@@ 20136
высоких 20132
студентов 20131
заинтересованные 20127
вынес@@ 20115
bi@@ 20115
представительство 20114
коммуникации 20110
заболе@@ 20110
ём 20108
независимость 20108
мерами 20104
зай@@ 20100
силь@@ 20100
получении 20083
указанием 20083
временные 20082
Австрии 20075
пользо@@ 20067
доказательства 20063
отсутствует 20063
сыла@@ 20051
культурной 20036
Протокол 20029
шести@@ 20028
законности 20020
чается 20020
предыдущие 20016
голов@@ 20016
55@@ 20012
загрязни@@ 20011
gallery 20009
отказ 20008
безработицы 20001
age@@ 19996
кт 19993
прокуро@@ 19991
НУ@@ 19986
превыша@@ 19985
первое 19984
отражение 19983
контактов 19982
нашим 19978
испыты@@ 19978
змом 19977
соответству@@ 19975
заслуша@@ 19971
сия 19970
предлагаемых 19970
Дру@@ 19965
ИК 19963
коррупцией 19960
мени@@ 19960
вооружениями 19957
развивать 19953
довой 19953
успешного 19948
восьми 19946
amp 19941
Социальный 19936
операциям 19932
ляр@@ 19931
ходатай@@ 19924
Бога 19923
защитой 19922
используют 19919
аб@@ 19917
приобретения 19915
региональ@@ 19912
жертвы 19909
выразила 19909
консультантов 19902
продела@@ 19901
уголовной 19899
дель 19896
обращается 19891
влия@@ 19889
лый 19884
Найроби 19882
направленной 19880
нику 19873
сложи@@ 19873
ЦР@@ 19869
мониторинг 19864
соединения 19861
фонды 19859
цвета 19855
производителей 19853
.. 19850
компонента 19850
оперативного 19841
тури@@ 19840
ам@@ 19838
масштабах 19831
лежит 19827
разработаны 19823
Союза 19822
надеемся 19822
культур 19821
тоже 19820
скон@@ 19818
План 19815
Мексики 19810
Суще@@ 19809
африканской 19801
ОН@@ 19799
прямых 19799
совершенствованию 19795
ФА@@ 19791
Колумбия 19790
ЭКО@@ 19783
имуще@@ 19781
проявля@@ 19779
продолжения 19779
подтвердить 19777
препровожда@@ 19777
моя 19773
Send 19773
итоги 19771
нище@@ 19767
уголовному 19765
1980 19763
всеобщего 19761
приветству@@ 19760
осуществляемых 19757
значительного 19756
организациях 19750
принимаемых 19746
ie 19746
вина 19735
Oct 19735
Федера@@ 19729
ric@@ 19724
site 19724
нского 19722
новом 19720
Go 19719
выдаче 19714
Ира@@ 19713
Пала@@ 19713
состоялась 19710
трево@@ 19707
оккупированной 19707
руя 19702
раб@@ 19702
суточ@@ 19701
составила 19699
111 19697
RC 19696
th 19690
поле@@ 19689
КОМИ@@ 19673
местной 19669
фотографии 19662
3.2 19658
слоев 19645
тическими 19642
расширен@@ 19638
мораль@@ 19633
воин@@ 19633
стной 19632
смертной 19632
страницы 19632
Руанды 19629
Алжи@@ 19629
особых 19629
разрабатывать 19627
зем@@ 19627
соответствуют 19627
106 19626
годо@@ 19625
специфи@@ 19621
глубоко 19621
различи@@ 19617
тюре@@ 19615
щенные 19613
рекоменда@@ 19613
жным 19613
гидро@@ 19603
Par@@ 19600
метров 19594
информационные 19591
ГА@@ 19586
участвовали 19575
домов 19572
соблюдении 19560
Tue 19554
ang@@ 19550
продвижения 19547
провер@@ 19546
политическую 19542
соответствовать 19541
инструменты 19540
законода@@ 19536
горизон@@ 19535
связанными 19532
112 19532
МЕН@@ 19531
набора 19522
дорожного 19517
Проведение 19517
.com@@ 19514
Права 19511
Подготовка 19511
ВЛ@@ 19511
изменениями 19509
ходу 19505
международную 19498
предъя@@ 19498
инвалидности 19496
ЩИ@@ 19493
сре@@ 19489
Такое 19489
тепло@@ 19489
гового 19489
матери 19483
чают 19483
ведомо@@ 19483
устано@@ 19480
гене@@ 19473
суль@@ 19470
ail@@ 19467
бюджетные 19464
специальный 19464
47@@ 19464
урегулированию 19463
меха@@ 19462
вла@@ 19462
рыболов@@ 19459
онлайн 19459
повестке 19457
Конференцией 19456
протоколов 19455
высокие 19453
самый 19450
Превосходительство 19449
защищать 19448
интересам 19441
модернизации 19441
Их 19437
немедленно 19435
преимущества 19434
стол 19434
Моя 19433
ню 19431
целями 19424
случа@@ 19423
доби@@ 19421
сопостави@@ 19419
отчетного 19419
физического 19415
перио@@ 19415
голосов 19412
город@@ 19411
Ке@@ 19409
ран 19409
Калифорния 19406
выполняет 19404
изложенных 19401
воздушное 19397
160 19396
взрослых 19387
текущего 19385
планированию 19385
подобные 19384
крас@@ 19384
180 19376
.dll 19376
ослаб@@ 19372
ard 19369
Пана@@ 19369
108 19369
ally 19365
тельству 19364
уменьшению 19361
ся 19359
ЮНОПС 19356
Фу@@ 19353
рован@@ 19352
вич 19351
списка 19350
свободного 19349
предусматривают 19349
кторов 19347
финансиру@@ 19337
Киот@@ 19334
верховенства 19329
обеща@@ 19325
разъяс@@ 19324
источника 19314
шаг 19312
pdf 19312
представлению 19307
центром 19304
стр 19302
Отме@@ 19292
затруд@@ 19289
потребностям 19288
повто@@ 19286
она@@ 19285
1000 19284
набор 19283
Вот 19280
раньше 19277
тика 19274
ложи@@ 19270
рекомендовать 19268
инфек@@ 19267
КР@@ 19266
Президен@@ 19264
проводимой 19263
окончания 19262
ain@@ 19260
предметом 19259
нега@@ 19249
вообще 19248
ЖД@@ 19248
собственной 19247
потребо@@ 19246
Col@@ 19242
Арабская 19234
ставок 19233
отпра@@ 19229
e.com 19228
присоединиться 19222
счита@@ 19218
жилищ@@ 19211
уголовных 19207
принадлежащих 19207
проживающих 19205
дискриминацию 19198
actual 19198
прекратить 19196
трудностей 19196
Со 19191
Институт 19190
стипен@@ 19185
комна@@ 19184
Mar@@ 19183
зданий 19182
опы@@ 19178
Feb 19178
средством 19175
област@@ 19175
отобра@@ 19174
тр 19172
больших 19171
влениях 19171
стабильность 19169
нефть 19168
Pl@@ 19167
обладают 19165
Кипр 19165
Сирийской 19163
лай@@ 19161
метод 19159
дор@@ 19153
публика@@ 19153
буд@@ 19147
записи 19146
сельскохозяйственных 19143
счете 19139
структуру 19138
107 19138
Казахстане 19136
hora 19133
чество 19130
Уголов@@ 19126
пространстве 19122
140 19121
48@@ 19108
контек@@ 19106
наращивания 19106
отсутствии 19102
циаль@@ 19098
сектором 19097
жениям 19093
жест@@ 19090
Монго@@ 19090
активных 19088
тенденций 19081
Кариб@@ 19081
КИ 19081
СКА@@ 19078
привер@@ 19077
призвали 19075
обрати@@ 19075
преем@@ 19072
санкции 19067
мало 19063
домо@@ 19063
шу@@ 19058
обстановки 19056
бывших 19053
установлено 19053
образо@@ 19049
идеи 19048
независимых 19046
санкциони@@ 19046
ленного 19040
колон@@ 19036
раке@@ 19036
посвященных 19036
спутни@@ 19036
Египта 19035
дже@@ 19025
Разработка 19018
отвечать 19018
Никарагуа 19014
письме 19013
лечение 19006
мандатом 19004
наше 18991
службу 18989
huso 18987
horario 18987
ro 18986
участвуют 18984
For@@ 18983
способствуют 18979
.php 18979
информационного 18976
служ@@ 18970
ys@@ 18966
эр@@ 18965
земле 18963
нор@@ 18962
позволить 18954
1985 18953
умер@@ 18946
number 18944
Хорватия 18931
страновом 18929
функ@@ 18921
расследованию 18912
сем@@ 18911
установлены 18908
внедрение 18907
поверхности 18906
деяния 18906
предме@@ 18904
нализации 18901
вернуться 18900
дра@@ 18900
CON@@ 18900
1987 18898
симво@@ 18897
домашних 18897
Сент 18889
Министр 18888
Location 18887
получены 18886
Кан@@ 18886
разреша@@ 18881
поступ@@ 18877
сохран@@ 18877
обши@@ 18873
депози@@ 18873
Астана 18872
Главная 18860
позиций 18860
эксплуатацию 18857
Комплек@@ 18846
будущей 18844
тяж@@ 18839
истин@@ 18838
здоро@@ 18838
обычного 18833
экологического 18833
лог 18830
запрос 18830
лии 18829
обстоятельства 18828
компанией 18824
хотите 18824
Восто@@ 18824
Есть 18821
рекомендациями 18818
представлении 18815
ксенофобии 18810
дво@@ 18808
вные 18806
re 18797
бах 18794
ряду 18792
земе@@ 18788
устойчивое 18781
Меха@@ 18781
МСП 18780
ново@@ 18778
седь@@ 18778
Румыния 18777
КП 18777
влениями 18775
ствием 18772
поможет 18772
собира@@ 18772
Палестин@@ 18771
необходимыми 18770
Запад@@ 18769
реали@@ 18768
отрази@@ 18768
пытки 18767
периодический 18766
bl@@ 18759
выплат 18758
физической 18758
отличие 18756
Рай@@ 18756
искорен@@ 18749
дополнитель@@ 18748
сувер@@ 18746
процве@@ 18744
искоренению 18744
зацией 18741
обязанность 18739
возме@@ 18739
зами 18738
Всего 18736
образу@@ 18736
классификации 18736
отмечалось 18735
беженцам 18734
гия 18730
ЕМ 18729
болезни 18727
диверси@@ 18724
лов@@ 18721
начал 18718
рацию 18717
ow@@ 18716
Банк 18715
влен 18715
Тихого 18713
Список 18713
сса 18710
обусловлено 18709
Зеландии 18706
Участие 18705
уходу 18702
выгоды 18696
контей@@ 18693
77@@ 18690
угроз 18689
бам 18681
напомнить 18680
идеаль@@ 18679
пользователя 18675
наук 18672
ile 18672
тей@@ 18669
беремен@@ 18665
Правилам 18665
площадь 18664
инициативу 18658
тил 18657
Ч 18656
Только 18655
обез@@ 18653
заключительных 18653
действием 18652
лей@@ 18646
передвижения 18645
большего 18637
стандартами 18634
иденти@@ 18633
Камеру@@ 18632
Кла@@ 18631
препятствия 18629
Справо@@ 18626
Демократическая 18623
перевод@@ 18616
целям 18613
команди@@ 18613
Вели@@ 18610
ционному 18608
рассмотрела 18604
стройки 18603
шель@@ 18601
Был 18599
чай@@ 18598
женные 18598
пери@@ 18596
указанного 18595
открывается 18594
административной 18593
Бени@@ 18593
дили 18591
часа 18588
ll@@ 18587
посла@@ 18584
инициати@@ 18582
доста@@ 18582
дора 18581
ассоции@@ 18578
гражданами 18575
изменением 18572
установленные 18567
бру@@ 18567
коле@@ 18566
to@@ 18557
шагом 18555
сматри@@ 18552
мыс@@ 18551
ог@@ 18549
подчеркнула 18548
ity 18548
расширении 18543
дав@@ 18536
стороне 18535
предпоч@@ 18533
Тран@@ 18532
Организацию 18532
поддержкой 18531
развитые 18527
крова@@ 18526
уваж@@ 18523
должное 18516
обстоя@@ 18514
тесном 18513
палестинцев 18505
стине 18501
Прежде 18497
корот@@ 18492
ины 18492
ните 18488
обратился 18487
жный 18482
стреми@@ 18478
выступать 18477
Lin@@ 18475
незаконных 18472
автоматиче@@ 18468
Струк@@ 18468
жизнен@@ 18464
армян@@ 18458
46@@ 18453
передовой 18449
пропаган@@ 18445
ЦИЯ 18444
ремонта 18439
2.2.@@ 18436
вооруженными 18435
директоров 18434
опи@@ 18432
Израи@@ 18432
единиц 18431
поль@@ 18429
практические 18429
щают 18424
выделить 18424
дальнейшие 18424
мный 18424
АНИЕ 18421
жизне@@ 18420
ote 18419
располагает 18415
вно 18408
обновление 18408
задачу 18404
связана 18404
ИС 18404
докладчиком 18400
рынках 18394
кистане 18392
демобилизации 18391
уязвимости 18390
контр@@ 18389
сигна@@ 18388
минимум 18386
é@@ 18383
путе@@ 18382
имеющим 18380
вине 18379
специальным 18378
ci@@ 18377
третий 18373
условиям 18370
распоряжение 18369
Выборы 18365
служи@@ 18363
необходимого 18361
обуч@@ 18359
равен@@ 18354
зывает 18345
явно 18338
американских 18334
подоб@@ 18330
библиоте@@ 18323
Пос@@ 18323
дальней@@ 18321
кредито@@ 18319
маля@@ 18319
иным 18319
координаторов 18314
утвержденных 18313
измени@@ 18312
щиеся 18309
Гор@@ 18304
8. 18302
собрания 18299
оказаться 18296
how 18291
докла@@ 18290
назначение 18289
транспорту 18285
кова 18284
лизацию 18281
грамо@@ 18280
заявлении 18280
ваясь 18279
поддержание 18278
стремиться 18273
Кувейт 18271
сталкивается 18266
методологии 18265
выбо@@ 18263
попытки 18258
конструкции 18257
вкла@@ 18250
проведенного 18248
Комиссию 18245
неделю 18244
пира@@ 18244
дный 18243
достоинства 18242
Ар 18241
жизненно 18239
отрас@@ 18239
115 18238
ID@@ 18236
землю 18230
подготовкой 18230
Красного 18228
вооруженного 18226
тан 18217
амбу@@ 18215
интерак@@ 18215
гуманитарным 18209
прочих 18205
Международному 18205
Европейская 18204
бедстви@@ 18202
нажмите 18202
адвокатов 18199
Ген@@ 18193
гражданское 18189
замены 18186
упомянутых 18185
окончательного 18184
Тихоокеан@@ 18178
Расши@@ 18176
мисси@@ 18173
этапах 18169
Пакистана 18162
т.@@ 18157
изложены 18157
est 18156
игнори@@ 18155
Проек@@ 18155
действиях 18147
касающегося 18145
максимальной 18143
просвещения 18141
оснований 18140
целостности 18139
потоков 18138
ряды 18136
тур 18133
остано@@ 18133
рыб@@ 18132
допусти@@ 18131
um 18131
сложных 18127
пакта 18123
меша@@ 18121
резиден@@ 18120
заключению 18109
регистра@@ 18109
Обеспечение 18105
платежей 18100
концентра@@ 18099
слав@@ 18099
предметов 18098
перемещения 18096
прово@@ 18094
текущей 18090
наркотикам 18088
гать 18084
судоход@@ 18082
мед@@ 18078
Института 18077
Таиланд 18075
рее@@ 18074
уве@@ 18070
вость 18067
неравенства 18066
миротворческих 18064
отель 18064
женских 18057
куп@@ 18054
десяти 18045
телефон@@ 18044
последствиями 18041
Зеландия 18039
вли@@ 18038
С.@@ 18037
могу 18035
заверши@@ 18034
неопределен@@ 18029
Чешская 18029
повышении 18024
примеры 18023
сама 18016
достижений 18016
водоснабжения 18016
дации 18015
коэффициен@@ 18015
дегра@@ 18014
краси@@ 18013
Алжир 18005
back 18005
тщательно 17994
вила 17994
статистике 17991
чув@@ 17989
определению 17988
конечно 17986
мное 17982
зво@@ 17980
должностях 17980
работка 17979
фактором 17978
56@@ 17978
комментарии 17971
чист@@ 17969
вол@@ 17965
дороги 17964
нили 17962
Рей@@ 17955
пользова@@ 17953
рованную 17947
чат 17947
регла@@ 17945
ральных 17944
постепенно 17943
услу@@ 17941
препроводить 17939
соображения 17933
инспе@@ 17932
МП@@ 17932
креп@@ 17928
емому 17928
Продол@@ 17928
учебной 17924
ков@@ 17921
проводят 17920
своевременно 17917
визи@@ 17915
деколонизации 17909
Sp@@ 17908
подвергну@@ 17908
Принятие 17902
уг@@ 17894
санита@@ 17888
Судане 17887
снова 17884
ff@@ 17883
Ямай@@ 17879
обеспечивается 17876
первоначального 17875
всё 17873
1982 17870
ору@@ 17870
very 17867
Китай@@ 17864
Докла@@ 17864
Превосходи@@ 17864
ежемеся@@ 17862
использует 17859
рекомендацией 17857
жестоких 17851
каждая 17848
насилии 17846
говорят 17845
цена 17838
мониторин@@ 17833
консультативного 17833
86@@ 17821
представлено 17820
ота 17813
Дви@@ 17812
тебя 17811
винов@@ 17810
переходного 17809
сить 17809
делегацией 17807
Систе@@ 17806
ченная 17804
many 17804
реформе 17798
ляют 17796
абсолю@@ 17796
Секрета@@ 17787
Nov 17785
Саха@@ 17783
оке@@ 17781
смыс@@ 17778
МИ 17774
сопря@@ 17772
учи@@ 17771
периоде 17764
суверенитета 17763
направление 17763
og@@ 17760
женщина 17758
стической 17757
нынешних 17751
преступностью 17750
переч@@ 17749
уби@@ 17748
Расходы 17747
щуюся 17745
дного 17741
давать 17741
существование 17740
res@@ 17736
КОМИТЕТ 17732
остров@@ 17731
брак 17730
этнической 17727
посещения 17725
утвержда@@ 17722
введение 17722
действи@@ 17720
перенос@@ 17720
реконструкции 17718
Венгрия 17717
старших 17716
участвует 17715
производительности 17709
фото@@ 17704
фу@@ 17703
неофициальные 17699
57@@ 17698
Юри@@ 17695
gam@@ 17693
возможной 17687
ведению 17687
власть 17686
приступить 17682
регулярных 17681
вет 17671
готавли@@ 17669
ходит 17668
перегово@@ 17663
неотлож@@ 17662
рационального 17662
вред@@ 17656
грамотности 17656
руки 17655
пак@@ 17652
процедуру 17650
банком 17649
предпринимательства 17642
судах 17642
переговорах 17639
отче@@ 17638
Ливи@@ 17634
эль 17632
Плана 17629
демонстра@@ 17628
позволили 17623
бур@@ 17619
поня@@ 17616
обви@@ 17611
промышленного 17610
процессах 17609
зер 17605
системах 17599
вил 17598
внутренне 17595
прину@@ 17592
официаль@@ 17590
EP 17588
Тру@@ 17585
журналистов 17585
Португалия 17585
определенной 17584
логии 17582
тках 17581
Даже 17579
Гвинея 17577
бюджету 17575
экспорт 17570
тельских 17568
состоявшихся 17565
советом 17565
стая 17564
воздержа@@ 17561
лизо@@ 17558
предоставлению 17558
зор@@ 17556
воло@@ 17556
прогре@@ 17552
Представители 17551
цо@@ 17550
внесении 17549
aps 17549
ВЕ@@ 17546
Испол@@ 17544
альтернативных 17540
Работа 17539
мерно 17538
сделано 17537
пада@@ 17536
наследия 17536
развитым 17536
касающийся 17532
автоматически 17531
случаю 17531
учредить 17519
Дании 17517
присутствия 17511
cd@@ 17511
даль@@ 17510
сфе@@ 17503
Группе 17503
topic 17502
Можно 17500
ваниями 17500
перепи@@ 17500
присоединились 17499
МУ@@ 17499
памяти 17497
нейтра@@ 17497
Плат@@ 17496
погоды 17494
ниже@@ 17493
отдельно 17490
Дания 17489
мби@@ 17488
ответа 17487
давно 17486
сим@@ 17485
када@@ 17485
серти@@ 17482
иму@@ 17478
грузки 17478
нередко 17477
временем 17476
адвока@@ 17474
Жи@@ 17471
успехов 17470
значительных 17466
постепен@@ 17466
э 17462
современ@@ 17460
перспективе 17457
ана 17455
периоды 17447
подготовленный 17446
тских 17443
утвердил 17442
оговорок 17441
берегу 17436
личные 17434
наблюдателя 17431
лина 17429
придает 17423
потер@@ 17420
фикси@@ 17418
культурные 17416
Буду@@ 17415
бор 17411
доволь@@ 17409
ВА 17404
бук@@ 17404
II@@ 17402
выставки 17399
СКИ@@ 17395
Апелля@@ 17394
2020 17390
рабочий 17390
1967 17386
представляющих 17385
вывать 17383
Болгария 17382
проекти@@ 17379
нагрузки 17378
действо@@ 17376
трибу@@ 17374
выступить 17366
полож@@ 17363
pos@@ 17359
тков 17358
ер 17356
Область 17356
объединен@@ 17354
конфликты 17349
агентство 17344
поручено 17340
дорож@@ 17338
убийства 17337
определяет 17337
верх@@ 17334
параметров 17334
химического 17331
Ниже 17329
искусства 17326
достигнутого 17326
сила 17322
постановления 17322
француз@@ 17316
КТ 17316
ткам 17315
Народ@@ 17315
экономическом 17311
сда@@ 17311
возро@@ 17310
летних 17302
разные 17300
раннего 17295
Ката@@ 17295
народо@@ 17293
начали 17292
придержи@@ 17291
чику 17291
плану 17290
доход 17281
ve@@ 17281
особые 17279
Фасо 17277
хозяйство 17274
Нигерии 17274
процедурами 17273
ill@@ 17270
Глобального 17270
после@@ 17268
благосостояния 17268
некоторыми 17267
полевых 17267
угрозой 17266
никах 17266
паралле@@ 17263
школу 17261
замен@@ 17250
иные 17250
национальную 17249
работке 17248
преодол@@ 17248
политикой 17247
Москва 17245
кана@@ 17244
реаги@@ 17243
инициатива 17242
ассоциаций 17240
квартиры 17240
Thu 17240
01.@@ 17238
аргу@@ 17234
министром 17234
писа@@ 17234
НАТО 17233
РП@@ 17232
SP 17229
ложение 17228
уголов@@ 17228
говоря 17217
Эфиопии 17216
действующие 17215
видам 17214
покрытие 17213
рам@@ 17211
lin@@ 17210
ni@@ 17208
ССИЯ 17207
рабочем 17206
трудовых 17204
называ@@ 17198
помогает 17198
Мето@@ 17198
привлечь 17197
служа@@ 17191
стьдесят 17188
онами 17187
Рекомендация 17187
дета@@ 17184
нила 17181
широких 17180
out 17180
ева 17178
повышен@@ 17171
свободно 17170
Штатами 17169
правозащи@@ 17166
заслужи@@ 17165
определять 17164
транспорт 17163
НК 17160
Науч@@ 17157
ственному 17157
Сред@@ 17156
поэтап@@ 17154
периодические 17154
ценных 17147
upd@@ 17146
пище@@ 17133
двигателя 17131
сосе@@ 17128
зарегистрированных 17124
личе@@ 17121
т. 17117
Сторо@@ 17115
обжало@@ 17114
оба 17112
сам@@ 17110
одобрен@@ 17110
священ@@ 17108
закону 17106
двенадца@@ 17100
43@@ 17098
AR@@ 17097
Часть 17095
гам 17091
Европейским 17090
муж@@ 17090
автоно@@ 17090
гласит 17088
вай@@ 17088
Чешской 17085
описы@@ 17085
половине 17084
жилье 17081
смысле 17079
системами 17074
нака@@ 17071
доро@@ 17069
местности 17066
форму@@ 17065
вознаграждения 17063
стру@@ 17061
контроле 17059
школе 17051
таблицы 17046
относящиеся 17046
проте@@ 17041
ww@@ 17032
ПР 17028
Ислан@@ 17021
следовательно 17020
Вос@@ 17016
совместные 17012
Dec 17010
разъяснения 17001
He@@ 16997
выражение 16994
широко@@ 16991
участву@@ 16991
инфици@@ 16990
тем@@ 16987
Буркина 16985
вери@@ 16984
заболевания 16983
главной 16981
стави@@ 16980
количестве 16975
il 16974
элементом 16974
113 16974
ваши 16971
церкви 16967
семинары 16961
самоуправля@@ 16961
предварительную 16957
практической 16956
Примечание 16956
духе 16952
лицу 16948
тел. 16946
увеличением 16942
обе 16940
паке@@ 16937
сли@@ 16936
голосование 16930
отражены 16929
позво@@ 16928
125 16928
116 16926
кисло@@ 16925
возникнов@@ 16921
моз@@ 16920
сущ@@ 16912
ages 16902
иска@@ 16899
cal@@ 16896
соеди@@ 16893
пут@@ 16892
стей 16885
акции 16884
изложенные 16883
� 16882
Парт@@ 16878
детского 16877
Соединенными 16876
стерео@@ 16876
надлежит 16873
жность 16870
потребностями 16870
прогноз 16868
изменя@@ 16863
сообще@@ 16861
организационной 16861
Ос@@ 16861
87@@ 16861
послан@@ 16860
решила 16850
насе@@ 16849
Руководство 16849
Несколько 16847
приоритеты 16840
чка 16837
Соединен@@ 16836
обязательствами 16834
массо@@ 16833
государственный 16830
бла@@ 16829
Документация 16828
вяза@@ 16816
ощу@@ 16815
тета 16814
мировых 16806
опе@@ 16806
вс@@ 16803
мин@@ 16798
океа@@ 16797
Ноябрь 16797
прибыли 16794
прошли 16793
европей@@ 16792
входя@@ 16791
публикаций 16790
платформы 16786
сете@@ 16784
интенси@@ 16781
Такой 16780
ice 16780
перечисленных 16779
4.1 16778
сай@@ 16773
заявитель 16772
обществен@@ 16770
Mach@@ 16767
.3 16766
Следу@@ 16764
соблюдению 16759
ДТ 16759
бри@@ 16758
законных 16758
исполни@@ 16757
ina 16751
сили@@ 16750
глубокую 16747
автотранспортных 16743
дорожной 16740
Декабрь 16736
Латвии 16733
льность 16730
экстреми@@ 16728
зда@@ 16728
Сторона 16726
парти@@ 16725
отдельным 16724
молодеж@@ 16723
имен@@ 16722
обу@@ 16710
позволят 16709
жид@@ 16709
Возмож@@ 16706
миллиона 16704
подпи@@ 16703
нормам 16700
поставленных 16697
деловых 16692
РАЗ@@ 16692
уголовное 16690
фигу@@ 16686
длительного 16686
равного 16686
желает 16682
поставить 16679
возлага@@ 16679
Serv@@ 16676
статьям 16675
свето@@ 16672
кара@@ 16664
совершенных 16659
обуча@@ 16658
смо@@ 16658
Алматы 16658
лями 16657
объекта 16656
приве@@ 16646
Pos@@ 16638
стоящих 16636
ровке 16634
Нигерия 16633
обмену 16629
123 16628
Сербия 16626
Международ@@ 16626
банков 16625
нях 16618
Канцелярия 16618
года@@ 16618
снижению 16616
Румынии 16616
HRC 16616
fil@@ 16615
любую 16614
ДС 16614
Зе@@ 16613
пересмотр 16613
нима@@ 16612
устойчивой 16611
поиск 16607
тость 16606
вой@@ 16605
стам 16605
Москве 16600
коми@@ 16596
дене@@ 16588
114 16586
ленд 16585
восемь 16578
среда 16574
характеристики 16572
преодоления 16572
тские 16571
Пор@@ 16570
столом 16568
текущих 16562
оперативно 16561
лега@@ 16558
сою@@ 16558
ve 16556
OS 16553
Новый 16553
Комите@@ 16553
зах 16551
диагности@@ 16548
выбросы 16546
Дж@@ 16544
кандида@@ 16540
рис 16537
продемонстри@@ 16536
отмен@@ 16536
деше@@ 16532
ЗА 16529
редакти@@ 16528
сбо@@ 16528
Ожидается 16527
59@@ 16520
повре@@ 16518
баланса 16517
стимулирования 16515
AS@@ 16513
расы 16508
оккупа@@ 16506
117 16504
народами 16499
находиться 16492
почта 16487
живо@@ 16485
Предложение 16484
обязан@@ 16484
примир@@ 16481
циви@@ 16474
ОРГАНИЗА@@ 16473
Принима@@ 16467
разбирательство 16464
компьютер 16462
существа 16462
КЛА@@ 16460
бремени 16452
револю@@ 16451
комплексных 16451
Новые 16447
закрытое 16438
реализация 16433
необходимостью 16431
факты 16420
сопоста@@ 16420
выделения 16413
высшего 16413
промы@@ 16413
экономику 16412
ЭКОНОМИ@@ 16410
эмбарго 16407
Итого 16406
Греция 16405
мл@@ 16403
ложен@@ 16398
крупные 16394
производству 16393
we@@ 16391
бов 16390
номеров 16389
презен@@ 16388
экономическую 16387
пунктами 16383
направлять 16382
нау@@ 16378
видами 16378
вынесения 16375
простран@@ 16373
вяз@@ 16372
ian 16371
прямой 16369
активную 16367
подкреп@@ 16367
втор@@ 16363
шагов 16358
преподавателей 16354
А.@@ 16353
Мозамби@@ 16351
нормативных 16349
сма@@ 16346
транспорти@@ 16345
стороной 16344
одино@@ 16343
самостоятельно 16342
q@@ 16340
вей@@ 16338
прод@@ 16337
стой 16335
скор@@ 16335
ключевыми 16335
ходят 16333
экономии 16332
рь@@ 16323
приятия 16322
CD 16319
Форум 16311
гарантирует 16310
гани@@ 16310
пога@@ 16310
неприкоснов@@ 16310
дер 16309
дные 16308
передача 16308
Университе@@ 16302
обсуждении 16298
единого 16296
направлениям 16293
рена 16290
Али@@ 16285
подтвердил 16283
прямые 16280
доступе 16271
совеща@@ 16270
фран@@ 16269
продолжительности 16265
нашими 16264
соверши@@ 16260
стихи@@ 16259
долгосрочных 16255
Раздел 16252
Верхов@@ 16251
реки 16250
передачу 16249
бами 16249
прибе@@ 16247
НОСТИ 16246
мигран@@ 16239
доставки 16235
Треть@@ 16218
нанес@@ 16218
дила 16216
Гай@@ 16215
добросовест@@ 16212
оказались 16207
прида@@ 16206
Анти@@ 16200
частях 16194
подтвердили 16191
бюджетов 16189
животных 16186
Гвине@@ 16186
обязательно 16185
тверды@@ 16183
Казахстан@@ 16182
желание 16177
хочу 16177
казывать 16171
представителям 16169
персоналом 16168
Сей@@ 16164
биологического 16164
уменьшение 16160
конди@@ 16158
президентом 16155
Основная 16155
необходима 16148
достигнуто 16146
Ввиду 16146
п. 16145
неизмен@@ 16144
тра 16143
Аргентины 16141
работода@@ 16138
рых 16137
изучению 16137
Настоя@@ 16137
Оценка 16134
приостано@@ 16133
Малайзия 16131
правилам 16130
Эк@@ 16125
выез@@ 16124
голоса 16118
март 16118
профилактики 16116
цистер@@ 16115
Ирландия 16115
организационных 16115
преимуще@@ 16114
122 16113
заявителя 16111
гражданство 16105
jpg 16103
Рекомендации 16101
ell@@ 16101
таможенных 16098
составили 16095
вице 16094
переписи 16094
вмешательства 16092
отсутствуют 16092
tes 16091
МВФ 16089
единственным 16087
взаимной 16086
полиция 16085
дистан@@ 16084
ge 16083
То 16077
признателен 16076
1,5 16074
сути 16073
стви@@ 16072
очевидно 16067
дор 16063
СА 16062
употреб@@ 16059
циони@@ 16058
усло@@ 16057
мин. 16057
проходит 16056
Филиппины 16050
достигнутых 16049
налогов 16044
писы@@ 16044
ведом@@ 16038
Бельгии 16031
потребность 16026
Обви@@ 16025
прений 16025
вшее 16023
вный 16023
судь@@ 16023
разработкой 16021
осуществляют 16021
возникает 16020
риаль@@ 16020
создают 16017
cl@@ 16015
аккреди@@ 16014
Санкт 16011
фин@@ 16005
Словакия 16004
возвращение 16003
ount 16003
вкой 16002
СОВЕ@@ 16001
обрабаты@@ 15995
ЧА@@ 15991
рабо@@ 15988
шу 15982
Грузия 15980
Ам@@ 15979
тери@@ 15974
действии 15971
нападений 15971
усугуб@@ 15969
Бисау 15969
енности 15969
центрах 15968
Гаа@@ 15966
благоприятных 15962
торже@@ 15957
заявля@@ 15951
Название 15950
Груп@@ 15940
отдела 15940
материальных 15940
118 15938
подлежат 15938
заку@@ 15937
ввести 15931
мным 15924
лицензи@@ 15923
вило 15923
полномочиями 15923
удержи@@ 15922
расширять 15918
еся 15916
температуры 15914
решимости 15911
гии 15910
конституции 15908
составлять 15901
заслу@@ 15899
потерь 15895
первоначально 15891
препода@@ 15890
дискуссий 15889
смена 15888
проведет 15885
йская 15880
координатора 15878
Республику 15877
массы 15873
Далее 15869
жно 15867
гло@@ 15867
ене@@ 15867
решил 15862
нский 15862
диапа@@ 15861
пришел 15858
сколько 15854
исла@@ 15850
М. 15845
шед@@ 15839
отражают 15837
сосла@@ 15836
тит 15830
хочет 15820
Зимбабве 15816
наем@@ 15815
председателей 15814
Произ@@ 15813
Польши 15811
подда@@ 15807
визит 15805
студен@@ 15804
инстанции 15804
особую 15804
вшая 15803
торговлю 15802
следствие 15802
Дже@@ 15802
производственных 15801
сексуальных 15799
белорус@@ 15798
действиям 15796
живущих 15795
НАЯ 15795
требо@@ 15794
Pre@@ 15790
уте@@ 15788
eli@@ 15787
наблюдается 15786
злоупотребления 15786
затра@@ 15785
постановление 15784
партнеры 15783
cra@@ 15780
ссия 15778
ПС 15778
утвердить 15773
МА 15772
Там 15770
ск@@ 15770
любым 15769
миная 15765
разверну@@ 15756
шин 15756
чек 15755
гиги@@ 15754
выну@@ 15753
контракта 15753
шенные 15752
серви@@ 15751
предусмотреть 15747
различий 15743
Венесуэла 15739
компоненты 15738
контрактам 15737
указаны 15730
напо@@ 15729
её 15727
нар@@ 15726
обладающих 15724
шан@@ 15723
университет 15722
политическими 15720
компенса@@ 15720
судна 15718
внесены 15702
стрелко@@ 15699
согласованные 15696
предназначенных 15695
пе 15694
Мала@@ 15694
Джамахи@@ 15694
объектом 15692
техническому 15692
предсказу@@ 15687
Ок@@ 15685
Доля 15678
эффект 15672
ремон@@ 15671
контрак@@ 15669
Сил 15666
использованы 15666
ставка 15660
способом 15657
Поддержка 15656
ликвидацию 15652
Намиби@@ 15651
urs@@ 15650
вающее 15643
кле@@ 15638
Существует 15636
обращает 15636
НОЙ 15636
Кот@@ 15630
dis@@ 15630
Описание 15630
йти 15628
ставлен@@ 15625
эксперт 15623
доступности 15621
скорости 15616
arm@@ 15613
дило 15612
Принци@@ 15610
невер@@ 15609
теле 15609
повседнев@@ 15601
Иисус 15601
проводились 15600
предъявля@@ 15598
Заместитель 15597
сохранению 15597
пропорциональ@@ 15597
расходах 15596
встреча 15592
Сербии 15591
спрашивает 15591
технологиям 15590
делается 15590
молча@@ 15588
сей@@ 15578
Нор@@ 15577
преследование 15574
широкие 15573
видом 15573
ran@@ 15572
66@@ 15572
приклад@@ 15571
поз@@ 15569
индивидуальных 15567
май@@ 15564
афган@@ 15564
варианта 15562
инструментом 15555
вера 15553
Базе@@ 15551
клад@@ 15550
отлич@@ 15550
ственности 15550
четы@@ 15547
ареста 15547
связанного 15543
лон@@ 15543
прове@@ 15542
пострада@@ 15541
аз@@ 15540
ЛОЖ@@ 15538
руководители 15537
примеров 15536
ключевым 15535
тран@@ 15532
водой 15529
рын@@ 15528
кругов 15528
прокуратуры 15526
ежегодной 15525
задолженность 15525
кового 15524
стрелкового 15523
левая 15518
гну@@ 15516
поведение 15515
насилию 15514
предназначены 15513
веро@@ 15509
Cl@@ 15509
eng@@ 15509
рации 15503
ради@@ 15503
Эфиопи@@ 15500
окружа@@ 15496
трен@@ 15489
vo@@ 15485
пала@@ 15481
сроком 15478
Пят@@ 15478
led 15478
расширя@@ 15476
ускорения 15466
Судеб@@ 15466
щ 15464
незамедли@@ 15462
свободных 15459
Тай@@ 15457
здравоохранение 15449
консуль@@ 15446
Дополнительные 15446
хотелось 15441
гражданам 15439
рые 15438
парни@@ 15435
ВОПРО@@ 15435
властям 15430
целесообразно 15429
Вашей 15425
Пари@@ 15423
вступ@@ 15423
обязатель@@ 15423
зировать 15421
бой@@ 15421
тела 15418
дий 15417
види@@ 15412
смотреть 15411
блоки@@ 15404
личного 15403
стре 15402
Греции 15401
Кении 15401
снения 15399
ходы 15398
рекомендация 15398
сталки@@ 15393
узна@@ 15392
комфор@@ 15391
ью@@ 15391
возраст 15390
включен 15389
регулярной 15389
обращении 15388
Данный 15387
вляет 15384
двум 15380
son@@ 15380
элемента 15377
Премьер 15373
стры 15369
указаний 15366
age 15366
сная 15363
база 15361
офи@@ 15357
увидеть 15355
понедельник 15352
конкурен@@ 15347
Гар@@ 15346
сви@@ 15344
проектах 15338
edn@@ 15338
израильских 15329
станций 15324
туристи@@ 15324
юсь 15318
info 15318
террори@@ 15314
Болгарии 15314
лого 15308
подверг@@ 15307
Авгу@@ 15304
тическом 15302
территориальной 15302
Пен@@ 15298
стек@@ 15298
119 15296
Перво@@ 15294
функционирование 15291
субсидий 15287
устранить 15286
бума@@ 15284
код 15283
дут 15282
темпов 15281
Посол 15280
процент 15276
сельской 15274
чами 15269
заказ@@ 15266
Мак@@ 15265
успе@@ 15264
Вир@@ 15261
ставление 15258
мероприятие 15257
IM@@ 15256
щаются 15255
плен@@ 15250
агрессии 15250
тив@@ 15248
возрос@@ 15248
трудностями 15247
Венгрии 15241
двадца@@ 15239
ктора 15238
способов 15235
некоторым 15231
основная 15227
призвать 15224
природы 15218
представителю 15218
плата 15216
ОПЕ@@ 15215
Само@@ 15214
устанавливает 15212
вит 15212
Сре@@ 15210
Ассоциации 15208
Словения 15207
ome 15206
десять 15205
44@@ 15201
финансированием 15200
06.@@ 15200
читать 15198
Ши@@ 15195
геноцида 15194
поблагодарить 15192
документу 15190
исполня@@ 15189
свой@@ 15176
мей@@ 15175
каком 15174
контролировать 15174
определяются 15174
ционно 15172
долга 15169
енность 15161
Эффек@@ 15161
намерение 15160
рубежом 15160
представит 15159
Впоследствии 15158
Кин@@ 15152
звен@@ 15151
сочетании 15150
так@@ 15150
пись@@ 15148
религиозной 15141
СП 15138
боевых 15137
заявок 15135
действительности 15134
самих 15134
fe@@ 15131
иниции@@ 15130
тельствам 15130
A.@@ 15126
служат 15123
заявки 15120
концеп@@ 15119
квартире 15118
la 15115
Последний 15114
частные 15113
Кли@@ 15112
возможное 15100
actu@@ 15100
электроэнергии 15099
дж 15097
нуждаются 15097
пожалуйста 15097
результативности 15096
документа@@ 15095
индек@@ 15088
транзита 15087
Лихтен@@ 15085
подлежит 15084
виться 15082
кожи 15081
созданием 15079
электронная 15074
трудоустройства 15072
выжи@@ 15068
Наши 15065
недвижимости 15064
уси@@ 15062
лесного 15062
издания 15061
коди@@ 15057
ес@@ 15056
спокой@@ 15045
страция 15041
ровались 15038
of@@ 15035
Соответственно 15035
дин@@ 15034
Апре@@ 15034
me 15031
рующей 15030
ростом 15026
предпринимать 15025
Мари@@ 15021
мина 15021
ТС 15019
Че@@ 15016
сжи@@ 15013
снаб@@ 15013
Первая 15011
лока@@ 15010
быстрого 15007
существованию 15006
IP 14999
отказаться 14998
дит 14997
bu@@ 14992
рит 14990
принятием 14990
вное 14985
комитете 14985
источник 14985
населенным 14983
ускорить 14982
обога@@ 14980
личной 14975
почто@@ 14975
годовой 14973
Предварительная 14971
метр 14968
лично 14967
ляция 14967
запрет 14964
СКО@@ 14964
пользу@@ 14960
базовых 14956
Ито@@ 14956
хотят 14954
принятым 14954
рисками 14949
чил 14945
вру@@ 14944
самоуправления 14944
подстре@@ 14943
Рим@@ 14941
препрово@@ 14941
семьям 14940
ФУ 14940
Туни@@ 14936
нному 14936
гой 14934
сомнения 14932
перемен@@ 14931
Ap@@ 14928
дополнительный 14926
министерством 14926
эффективную 14925
один@@ 14924
завершение 14922
сильно 14920
Организа@@ 14920
тает 14918
нуждается 14914
предыдущего 14911
подтверждения 14910
сва@@ 14909
пассажиров 14909
предотвращение 14908
согласились 14908
примером 14907
Важно 14906
конфликт 14894
сек 14894
совсем 14893
дель@@ 14893
полицей@@ 14892
рева@@ 14890
Кру@@ 14889
частный 14884
факта 14883
енное 14883
Q 14883
примеча@@ 14882
проверку 14880
Сво@@ 14878
инструмента 14876
Замеча@@ 14875
иное 14873
няют 14871
Уже 14870
ссию 14862
способны 14861
Архи@@ 14861
компонент 14860
импорта 14856
квалифика@@ 14856
тенденция 14856
предоставляемых 14856
сты@@ 14854
ближ@@ 14854
esday 14854
ud@@ 14853
par@@ 14852
йский 14850
соображений 14849
главного 14848
вес 14846
Совеща@@ 14844
жениями 14841
предупреждение 14838
min@@ 14838
вало@@ 14836
являющиеся 14835
Бос@@ 14834
тексты 14828
Эр@@ 14827
Фо@@ 14827
геноци@@ 14822
надруга@@ 14819
правозащитных 14817
Заключи@@ 14813
приобретение 14812
проблемах 14812
партнерство 14811
отзы@@ 14804
силой 14802
comm@@ 14800
отдел 14795
ванным 14792
Палестины 14792
элемент 14787
принятого 14780
com@@ 14778
Повест@@ 14777
демократических 14774
МН@@ 14774
121 14773
www.m@@ 14771
Кур@@ 14770
глобальные 14768
несовершенно@@ 14768
видах 14766
продолжала 14765
планом 14765
интеграция 14764
Выс@@ 14763
баз 14760
Tuesday 14760
параметры 14757
удовлетвори@@ 14754
нации 14753
млении 14749
Ad@@ 14744
смягчения 14742
июнь 14742
Уголовно 14741
строи@@ 14736
задержки 14734
женность 14732
Меро@@ 14731
выработке 14727
кредитов 14726
нахождения 14724
будете 14723
ant 14723
целевые 14721
21.@@ 14709
карт 14705
мед 14703
ье@@ 14703
автори@@ 14702
всемир@@ 14700
од@@ 14700
Дур@@ 14699
правовую 14697
ó@@ 14696
дата 14696
юри@@ 14695
канцеля@@ 14694
Гви@@ 14693
типы 14692
Конферен@@ 14692
магистра@@ 14691
тиям 14688
категория 14687
участков 14685
Таджикистана 14685
02.@@ 14682
содержат 14679
Ио@@ 14678
Господ@@ 14677
Бри@@ 14670
нил 14668
считаются 14664
Крат@@ 14662
находящиеся 14662
южной 14662
NO@@ 14661
цифро@@ 14660
ориентации 14658
преподава@@ 14658
взры@@ 14656
ошибки 14654
ограничение 14653
профессионального 14653
своевремен@@ 14650
держи@@ 14649
месту 14648
воздержи@@ 14646
лес@@ 14646
89@@ 14644
успехи 14642
рассчиты@@ 14642
юридические 14637
добровольцев 14637
тически 14635
поиско@@ 14635
лиш@@ 14634
Эн@@ 14631
миссия 14630
мостью 14626
Повышение 14625
избирателей 14623
национальная 14620
друже@@ 14620
Параг@@ 14617
готова 14614
разработан 14612
планах 14612
ЭС 14610
обращению 14610
председательством 14608
нашли 14606
размеров 14605
нес 14603
судами 14603
сиг@@ 14602
главу 14600
видеть 14597
привлечение 14594
буду@@ 14591
вленный 14591
отказа@@ 14589
приста@@ 14587
многочислен@@ 14587
см 14582
существующей 14581
воспита@@ 14578
моти@@ 14577
фото 14576
имело 14574
превышать 14572
йного 14570
договорам 14570
приветствовал 14569
множе@@ 14567
Пятого 14564
полагает 14563
лло@@ 14561
интересу@@ 14559
результатами 14557
строго 14555
Китае 14554
способствовали 14549
зной 14549
соседних 14548
многое 14546
анализе 14545
жная 14544
ниц 14544
серьезной 14541
предложением 14541
Предполагается 14537
противоречит 14534
предложению 14530
третья 14527
опро@@ 14526
учебного 14525
04.@@ 14525
каждое 14522
вили 14521
уголовным 14520
скла@@ 14519
регламенти@@ 14515
Перед 14507
медицинские 14505
принятое 14505
Кре@@ 14502
бывшего 14501
мине@@ 14500
128 14497
докладом 14495
внима@@ 14493
сбор@@ 14493
оказывается 14491
Агентство 14491
лучшие 14490
ML 14489
Гра@@ 14486
исполнительной 14483
содержать 14483
расписа@@ 14481
руководству@@ 14479
какую 14476
процедуре 14476
ющемся 14475
дка 14474
MA@@ 14473
1984 14473
ожидает 14472
пределы 14472
Интернете 14470
иск 14470
AN@@ 14469
делают 14467
предыдущем 14467
КИ@@ 14463
тока 14462
правопорядка 14460
уди@@ 14458
условием 14457
трудовой 14457
назначить 14457
стные 14454
Li@@ 14453
жерт@@ 14448
обеспечит 14447
вынуждены 14445
подписали 14445
тивность 14443
направлен 14438
войск 14436
Зна@@ 14431
чему 14424
ДН@@ 14422
активы 14420
четырех@@ 14419
ложений 14418
Откры@@ 14418
разработ@@ 14416
маль@@ 14416
наблюд@@ 14414
ings 14410
ЕСТ@@ 14409
менту 14406
Мне 14403
ссылается 14403
космических 14401
fe 14401
дату 14398
коммерческой 14393
завершении 14393
Между 14392
ремонт 14391
добычи 14389
жное 14387
ментами 14381
отвечают 14375
Мор@@ 14372
мана 14370
значительным 14370
будь 14370
вербо@@ 14369
Иерусалим 14369
совершение 14368
кин@@ 14367
оценивает 14367
внутренним 14365
восточной 14363
штатов 14363
политический 14363
остро@@ 14363
посетителей 14361
учесть 14358
занимающиеся 14356
судья 14355
Госпо@@ 14354
заявить 14351
Ирана 14350
левого 14349
1978 14349
издание 14349
отста@@ 14345
включении 14345
фондом 14342
экологические 14341
Стокголь@@ 14334
ХА@@ 14332
культа@@ 14329
ознакоми@@ 14325
личи@@ 14323
Закон@@ 14319
воздушного 14318
Встре@@ 14315
пов 14314
живут 14313
лла@@ 14312
минимуму 14311
йтесь 14311
упомя@@ 14310
колеба@@ 14309
контролиру@@ 14307
занятий 14307
Стратегии 14307
министерств 14304
семейных 14301
посетить 14301
языки 14301
Исходя 14300
урегулирование 14291
способствовало 14283
коло@@ 14282
ленность 14281
совершенствовать 14281
образовании 14276
имею 14274
транспортное 14273
Наряду 14271
енностью 14270
Грен@@ 14270
кампаний 14269
городского 14266
визу@@ 14266
держать 14264
Эмира@@ 14264
HT@@ 14259
недостатки 14257
тельской 14256
ницу 14255
суду 14252
использовались 14251
Me@@ 14251
Эквадор 14247
холо@@ 14246
договоренностей 14246
коэффициент 14245
ваемым 14237
оборотом 14232
темпера@@ 14230
подлежащих 14230
Институ@@ 14228
оптими@@ 14228
анализи@@ 14223
числом 14223
законодательству 14223
издержек 14221
лучшим 14221
выбор@@ 14218
ковым 14216
горо@@ 14215
израсходо@@ 14214
als 14214
ставля@@ 14212
ссу 14208
публику@@ 14207
квалифицированных 14207
поддерживают 14206
posts 14204
населением 14198
искус@@ 14196
Законода@@ 14196
зму 14194
продолжали 14194
Чер@@ 14192
тку 14186
решениях 14186
машины 14181
нарушении 14177
Международные 14176
оперативные 14176
няющий 14173
Страны 14171
тяже@@ 14171
еры 14166
местно 14166
образовательных 14164
хот@@ 14163
работку 14160
сылка 14159
предоставляют 14155
остальные 14153
Приня@@ 14153
целост@@ 14153
запу@@ 14152
внедрению 14152
напомина@@ 14145
случая 14145
дет@@ 14145
ail 14145
заведений 14142
ат@@ 14138
ассоциа@@ 14132
вступа@@ 14128
AT@@ 14126
бар 14124
адапти@@ 14122
Ливане 14122
вз@@ 14120
наблюдение 14120
Ом@@ 14118
дже 14116
тюрьмах 14114
Sub@@ 14114
упорядо@@ 14110
французском 14110
бенефициа@@ 14109
кну@@ 14104
определенного 14102
производить 14097
собственного 14096
смотр@@ 14094
Созда@@ 14094
Ac@@ 14094
news 14093
затраты 14091
he@@ 14090
солне@@ 14086
социальная 14084
медицинское 14083
анализу 14082
АН 14082
продолжается 14081
Президи@@ 14080
досту@@ 14079
удовлетвор@@ 14079
субсидии 14078
просве@@ 14078
плату 14078
ce 14078
раси@@ 14077
Ска@@ 14077
культурным 14076
Нам 14075
вшимся 14072
стин@@ 14067
Обяза@@ 14067
выступлений 14065
Ближ@@ 14065
уведомление 14065
учреждении 14064
академи@@ 14063
ныне 14062
рыночной 14059
переход 14056
нул 14054
декларацию 14053
Бра@@ 14052
сел 14049
алма@@ 14046
старения 14044
правозащитников 14044
потока 14040
коммуникаций 14038
смен@@ 14037
выступление 14034
енная 14033
ливан@@ 14032
лка 14028
торами 14028
задержанных 14022
огра@@ 14021
научные 14020
перевозке 14020
расположенных 14019
освещения 14015
служебных 14015
конфликте 14014
продаже 14014
der 14013
союз@@ 14012
заседа@@ 14009
Саудовской 14008
сок 14007
выбран@@ 14006
институты 14005
инвестиционных 14002
опла@@ 14001
само 14000
конгре@@ 14000
124 14000
реального 13996
Доминикан@@ 13994
ating 13994
рито@@ 13991
успех 13990
ассоциация 13990
установленного 13985
продлить 13983
конкурентоспособности 13981
пришлось 13977
Сенегал 13975
лета@@ 13972
сердце 13972
кнопку 13971
1981 13966
жали 13964
Объем 13963
Объединенная 13962
перечис@@ 13958
направил 13957
стских 13956
пора@@ 13956
открывает 13956
бороться 13956
пятницу 13955
продолжал 13954
усилить 13953
стремление 13951
Парла@@ 13951
специалисты 13951
руководитель 13947
рованном 13947
Гонду@@ 13947
критериям 13946
предоставляются 13946
рази@@ 13942
открытых 13942
приема 13942
выделение 13940
распространить 13940
зить 13938
Постано@@ 13937
гим 13933
аре 13933
Кения 13931
посети@@ 13931
Македония 13929
законо@@ 13920
ректи@@ 13920
Res@@ 13918
тут 13917
Дан@@ 13916
вопло@@ 13914
Fri@@ 13913
ам 13911
Обо@@ 13907
допускается 13907
установлена 13907
выража@@ 13906
пример 13905
влека@@ 13904
доверие 13904
экспертами 13903
АЛЬ@@ 13903
воздушных 13902
.... 13900
имуществом 13895
ast 13889
питьевой 13887
установок 13887
немного 13886
ближайшее 13885
небольшой 13883
документами 13883
политическая 13881
загру@@ 13881
ненных 13881
менить 13881
террористической 13878
социальную 13877
СВ@@ 13877
рассе@@ 13875
метода 13875
Бахрей@@ 13873
Бел@@ 13873
общему 13868
Департа@@ 13866
используемые 13865
емость 13863
средне@@ 13860
днем 13860
нических 13859
бухгалтер@@ 13858
газ 13857
Документ 13850
какая 13848
бран@@ 13842
готов 13842
подчеркивается 13841
отеле 13839
душу 13829
говых 13828
День 13827
ЕЙ 13826
ist 13822
наблюдатели 13819
нено 13818
компаниями 13817
вертика@@ 13816
помощника 13812
game 13810
вавших 13809
рак@@ 13807
лке 13806
Отве@@ 13806
регулирование 13802
ствия 13802
Google 13801
взгляд 13800
ощ@@ 13798
идентификации 13796
противодействия 13795
ночь 13786
противоправ@@ 13786
ментах 13784
Эстонии 13781
завтра@@ 13780
ассигно@@ 13780
вии 13779
выплату 13779
остальных 13778
поки@@ 13778
активности 13777
полицейские 13773
тебе 13768
лизи@@ 13762
импуль@@ 13759
Зако@@ 13758
входящих 13752
установлении 13747
порт 13746
эти@@ 13745
школьного 13737
ставлен 13737
фикацию 13737
оплату 13734
посвященный 13734
ame 13733
занятия 13731
центральной 13728
спаль@@ 13728
доступны 13727
пове@@ 13726
Развитие 13726
экономическими 13725
юридического 13724
вающая 13717
МС 13717
Техас 13709
сельскохозяйственного 13708
свободное 13707
ванное 13704
климатиче@@ 13704
стым 13703
Сирии 13698
обыча@@ 13698
Стандар@@ 13698
должностные 13697
соб@@ 13695
net 13695
состоялся 13689
официальным 13689
гно@@ 13686
концентрации 13685
ченности 13681
стражу 13680
усилиями 13675
Тунис 13675
предотвратить 13674
рабочую 13674
серьезным 13672
выдели@@ 13672
м2 13672
поверх@@ 13669
минутах 13669
сказыва@@ 13666
почте 13664
подтверждение 13663
судебном 13663
проверя@@ 13661
inde@@ 13658
вшееся 13651
преду@@ 13648
сможете 13646
твердо 13645
цир@@ 13645
ГРА@@ 13644
MS 13643
санк@@ 13641
изделий 13639
соответствующая 13639
жениях 13637
масштабе 13635
отчетность 13635
душ@@ 13634
действующим 13633
исправитель@@ 13630
меньшинства 13627
Общее 13626
содержащих 13625
аналогичных 13624
рек@@ 13624
Восточном 13624
призы@@ 13623
ложена 13622
широком 13620
уровни 13620
резидентов 13620
след@@ 13617
абор@@ 13616
Ливан 13615
ведены 13614
спустя 13612
наземных 13607
les 13606
132 13602
нарушениями 13600
чиками 13597
изображения 13597
правительственные 13596
Тогда 13593
показывают 13593
53@@ 13588
дальше 13583
дат 13579
88@@ 13578
нужды 13577
ставить 13574
государствен@@ 13572
генерального 13572
ежеднев@@ 13572
совместное 13571
....@@ 13566
невосто@@ 13565
сообщении 13562
специализированные 13560
половины 13558
67@@ 13556
проведенной 13554
проходить 13553
Солнце 13552
05.@@ 13549
безу@@ 13548
знак 13548
горя@@ 13547
терпимости 13547
непро@@ 13546
стратегические 13545
даст 13544
карту 13544
НД@@ 13540
выдви@@ 13540
нынешнем 13539
проф@@ 13537
железнодорож@@ 13536
четверг 13535
специаль@@ 13531
заместителем 13527
Размер 13524
региональный 13523
руководителя 13521
тема 13520
веке 13519
сове@@ 13518
Сар@@ 13517
153 13515
ложением 13514
проектами 13513
близ@@ 13511
лле@@ 13509
око@@ 13508
Ие@@ 13508
пони@@ 13505
смог 13504
детских 13500
tic@@ 13500
инструмент 13497
забы@@ 13495
преимуществ 13492
mar@@ 13492
рассмотрен 13491
проанализировать 13489
bo@@ 13484
сделанные 13482
ключевые 13481
Анализ 13481
говорил 13479
теров 13474
независимой 13474
направлено 13473
современной 13472
уско@@ 13471
влад@@ 13471
законопроект 13470
ревизи@@ 13470
сотрудничает 13468
играх 13468
тера 13461
значительную 13459
03.@@ 13457
порно@@ 13454
легких 13453
запреща@@ 13450
центральных 13448
демонстри@@ 13448
Процесс 13443
принци@@ 13443
визита 13441
ux 13441
завед@@ 13441
учрежд@@ 13438
Comm@@ 13438
отработа@@ 13435
свобода 13433
блока@@ 13432
праздни@@ 13432
следования 13429
горно@@ 13428
изобра@@ 13428
пользование 13427
итогов 13426
ситуа@@ 13423
интервью 13420
середине 13420
ожи@@ 13419
2,5 13417
сохраняется 13417
Официальные 13414
Креста 13411
тен 13407
Иор@@ 13405
сбору 13403
попол@@ 13402
135 13398
куда 13395
концепция 13394
несомненно 13392
команды 13391
лекар@@ 13391
второе 13390
рным 13387
Необходи@@ 13386
муниципалите@@ 13386
достаточной 13385
работники 13384
Next 13384
важного 13384
край@@ 13383
осво@@ 13383
09@@ 13381
прогно@@ 13379
партнерстве 13378
обсудили 13377
годовщи@@ 13376
Начиная 13372
ьте 13369
up@@ 13367
способы 13362
тивов 13362
югу 13354
сцена@@ 13353
проходят 13352
1970 13348
хотим 13344
уще@@ 13344
Представи@@ 13339
полезным 13334
началь@@ 13332
бира@@ 13329
138 13329
номина@@ 13327
благода@@ 13327
дина@@ 13323
надзор 13321
дизай@@ 13319
группи@@ 13317
Португалии 13317
уведом@@ 13314
погло@@ 13313
обнаружения 13313
рина 13312
дево@@ 13310
расписание 13307
инвесторов 13306
сован@@ 13303
парламент 13302
Земли 13300
Ваше 13298
страница 13297
шка 13293
прин@@ 13290
комиссар 13288
Юж@@ 13287
термина@@ 13285
ченную 13285
тельствах 13284
вскоре 13283
городской 13274
сум@@ 13274
приговора 13272
моди@@ 13269
поступи@@ 13268
Роль 13267
насле@@ 13265
напомнил 13265
поколения 13263
ступление 13262
жители 13262
признал 13261
пал 13261
неправи@@ 13260
устанавливается 13259
вен 13255
io 13255
прекращение 13254
реа@@ 13253
тельские 13252
зави@@ 13250
частном 13245
акт 13243
rem@@ 13240
облегчить 13238
Иордании 13233
региональное 13233
спорт 13231
Заявление 13230
ведь 13229
разработана 13229
важными 13228
рассмотрит 13224
0000 13221
нефте@@ 13220
тысячи 13220
Ну@@ 13219
Бен@@ 13217
СЕ 13216
КУ@@ 13216
зон@@ 13214
Второ@@ 13212
безопасной 13210
07@@ 13208
значений 13203
134 13199
обвиняемых 13192
Мэ@@ 13191
ненависти 13189
Wor@@ 13187
расходами 13186
ya 13183
зако@@ 13182
находились 13182
позитивные 13181
поселений 13181
170 13178
возмещение 13177
охрану 13171
разреш@@ 13169
главный 13168
устранению 13167
рук 13165
акти@@ 13164
охран@@ 13161
худ@@ 13156
связан 13149
позволяющие 13148
Литва 13147
gu@@ 13145
благо 13141
абсолютно 13140
Либе@@ 13140
говой 13138
адвоката 13138
апарта@@ 13133
свидетельства 13130
ленный 13129
значит 13127
брать 13124
обязательного 13119
полномочи@@ 13118
опо@@ 13117
номе@@ 13117
насчиты@@ 13116
отличается 13115
писал 13114
придется 13113
явление 13111
Кра@@ 13109
04@@ 13107
референдума 13106
прессы 13106
лета 13106
меню 13106
пуска@@ 13104
сокращении 13103
акта 13102
книги 13101
ежегодного 13101
стандарта 13099
добро@@ 13093
Западном 13091
взаимодействии 13090
Ответ 13089
De@@ 13089
эксперта 13087
уров@@ 13085
уважать 13085
добраться 13081
земельных 13078
обстре@@ 13076
Post 13076
материал 13076
понятия 13075
Аравии 13072
сосед@@ 13071
Службы 13070
Адрес 13070
Сы@@ 13063
выдвига@@ 13060
полноцен@@ 13059
МФ@@ 13059
няются 13058
a.com 13058
несостоя@@ 13054
подготовлены 13054
прия@@ 13050
sl@@ 13050
оса@@ 13041
казание 13041
идти 13038
тексте 13038
свободе 13037
позиция 13036
эй@@ 13036
десятилетие 13036
установлен 13035
зывать 13035
распространением 13032
фирмы 13031
Служба 13031
Бес@@ 13028
ежегодный 13028
Наиболее 13022
намного 13021
фе 13021
ментом 13017
старшего 13016
Может 13014
напряженности 13011
Защита 13010
Бы@@ 13008
декса 13002
Олимпийских 13002
обзоре 12999
гражданские 12998
кации 12998
преступлениях 12995
бумаг 12993
аналогичные 12992
127 12992
Уругвай 12991
поставля@@ 12986
регулированию 12986
вызывают 12985
ack@@ 12978
хов 12976
сх@@ 12973
редак@@ 12971
ata 12971
учителей 12970
чис@@ 12970
энерги@@ 12968
риски 12967
расче@@ 12967
развива@@ 12966
Европа 12965
шины 12961
определенный 12961
пропаганды 12960
сокращением 12959
ложены 12958
Образо@@ 12958
Original 12958
оборот 12956
ужа@@ 12954
Контак@@ 12953
ровая 12952
Пар@@ 12952
ую 12944
сохранять 12944
привилеги@@ 12941
ведут 12938
ES@@ 12937
происходя@@ 12933
Восход 12933
допустить 12930
вторник 12926
стые 12925
солдат 12925
предпринимателей 12922
Z 12921
задейство@@ 12919
ткой 12918
активные 12917
Министерством 12914
вдоль 12913
сник 12909
зависи@@ 12908
стить 12907
Уруг@@ 12907
детях 12906
достигнуты 12906
конференцию 12903
сведений 12902
усиление 12897
недостатков 12894
военным 12893
посеща@@ 12891
Кипра 12891
ous@@ 12890
Без 12889
Сокращение 12887
признании 12886
чий 12884
свет 12882
ровок 12881
126 12879
искрен@@ 12879
устрой@@ 12878
Люксембург 12877
техническая 12877
составляла 12876
рус@@ 12875
единой 12874
помога@@ 12873
долгосрочного 12872
вза@@ 12871
сопрово@@ 12871
пропуск@@ 12870
Молдо@@ 12870
штата 12869
обязан 12869
Содружества 12868
Афганистан 12865
аренду 12863
подтвердила 12862
требуются 12860
вшаяся 12857
законе 12856
договору 12855
ради 12853
финансовая 12852
республики 12852
тками 12848
прямого 12847
PS 12847
кса@@ 12845
возникают 12845
высказыва@@ 12844
get 12843
вводи@@ 12841
постоянное 12840
испытание 12838
мбия 12838
оба@@ 12838
скачать 12837
песни 12836
пребы@@ 12835
бря 12827
get@@ 12827
экономика 12825
our 12825
баев 12824
сообщается 12823
лич@@ 12823
that 12822
различ@@ 12821
уход 12820
чен@@ 12817
IC@@ 12816
допро@@ 12815
признанных 12813
with 12813
характеристик 12812
поряд@@ 12812
мальчиков 12812
хин@@ 12811
указали 12810
Инди@@ 12809
концептуаль@@ 12809
Документы 12809
Вин@@ 12807
одобрил 12803
заинтересо@@ 12801
этики 12798
моде@@ 12794
gi@@ 12789
шю@@ 12786
иммигрантов 12784
проявлять 12784
сочета@@ 12783
электронного 12781
телефон 12775
другому 12773
нер 12772
транспортной 12771
читься 12769
пришли 12765
реагировать 12763
сег@@ 12763
диться 12756
циональ@@ 12748
спрос 12744
Третий 12744
man@@ 12742
проверка 12741
кругло@@ 12740
европейской 12738
Американ@@ 12738
делами 12738
огромное 12736
Фе@@ 12734
ликвида@@ 12734
аресто@@ 12731
Особое 12731
объявления 12730
сохранении 12729
пенсию 12728
уверены 12727
сумм 12727
заранее 12726
действиями 12725
ура@@ 12725
кажется 12722
присво@@ 12722
термин 12721
изо@@ 12718
ктор 12718
скорректи@@ 12716
президен@@ 12714
демократического 12714
каз 12711
распространяются 12711
лизма 12710
карте 12708
почты 12708
терпи@@ 12705
свет@@ 12705
Среди@@ 12704
профилак@@ 12704
удаления 12703
тей 12700
законодательной 12700
стандартных 12699
саммита 12696
нибудь 12695
1973 12694
структурных 12694
вернуть 12694
действующей 12693
ДА 12690
профессиональную 12682
ссив@@ 12679
согласился 12678
омбуд@@ 12677
требовать 12673
Суб@@ 12673
пти@@ 12672
обвиня@@ 12672
распределении 12672
отпуска 12672
уме@@ 12671
поздра@@ 12669
15.@@ 12669
тива 12668
ребенок 12668
включена 12668
принимали 12667
казахстан@@ 12666
баланс 12664
отмены 12663
облигаций 12653
внешнего 12643
гармони@@ 12641
TRA@@ 12637
22.@@ 12632
пройдет 12630
line 12630
58@@ 12630
уделить 12629
Sk@@ 12629
запуги@@ 12628
медицинским 12628
станут 12626
ah@@ 12626
ГУ@@ 12625
пление 12625
Конгре@@ 12620
вся 12619
ъ@@ 12618
вным 12615
155 12603
камеры 12602
прошед@@ 12600
взима@@ 12597
бассейне 12594
чила 12594
нологи@@ 12594
пин 12589
дан 12589
преобразования 12588
лыми 12587
Латвия 12586
перестройки 12579
,@@ 12579
важ@@ 12578
непред@@ 12576
принадлежит 12576
зам 12574
должностными 12573
медико 12573
Последние 12571
БА@@ 12568
реабили@@ 12567
фундамента@@ 12565
голода 12558
мест@@ 12558
Бот@@ 12558
принципу 12557
замени@@ 12555
Малайзии 12555
пациентов 12552
чистого 12552
133 12551
якобы 12548
постоянный 12547
Учеб@@ 12547
правки 12544
высших 12544
озабо@@ 12543
накопления 12541
Банка 12540
ваших 12539
адап@@ 12538
щик 12536
оценивать 12535
следование 12531
юристов 12531
огром@@ 12530
почве 12530
безопасного 12530
Помощь 12529
потребление 12527
приниматься 12525
частиц 12523
сен 12520
специали@@ 12520
дена 12518
последнем 12517
девяти 12517
хва@@ 12515
эффективный 12515
ост@@ 12510
избегать 12509
Конституция 12509
капитального 12509
тести@@ 12506
Le@@ 12505
бассейн 12505
быстро@@ 12504
документам 12504
художе@@ 12501
состоявшегося 12501
жными 12496
настро@@ 12492
ок 12490
фигури@@ 12490
потребу@@ 12487
финансовом 12487
Ты 12486
временный 12485
приложений 12485
комисса@@ 12485
низкой 12483
EC@@ 12482
необходимое 12479
145 12478
песен 12477
указала 12476
препятствовать 12475
жности 12473
рабочее 12470
лле 12470
доходы 12463
поднима@@ 12462
вакци@@ 12460
исчезновения 12455
летней 12454
предполагаемых 12454
Подроб@@ 12453
ничества 12452
партия 12451
полученной 12449
пенсии 12448
жаться 12446
ешь 12442
друзей 12440
мерикан@@ 12440
инструкции 12440
проанализи@@ 12439
изменениях 12439
объемов 12437
храни@@ 12434
клады@@ 12428
220 12428
идей 12427
РС 12426
мощности 12424
нала 12419
Под 12418
общения 12410
действующего 12409
возвраща@@ 12407
промышленной 12406
бедствия 12400
конкур@@ 12399
гин@@ 12399
пожи@@ 12397
внимательно 12395
Di@@ 12394
негативных 12393
иностранной 12393
лагерях 12391
Рика 12389
уроки 12384
ies 12384
очи@@ 12383
туре 12381
мину@@ 12378
голосо@@ 12377
принадле@@ 12376
выплате 12376
Ни 12373
основную 12368
Bl@@ 12363
являться 12362
чие 12361
выход@@ 12360
вающими 12359
разно@@ 12357
Востока 12356
st 12355
девять 12354
Того 12353
инциден@@ 12350
НП 12349
щаться 12347
традиционные 12345
Ключе@@ 12343
реализовать 12341
скоро@@ 12339
генера@@ 12336
зону 12334
напол@@ 12334
юридически 12333
иран@@ 12330
рый 12329
массовых 12329
дете 12328
рели@@ 12324
администрация 12323
правительственной 12320
снять 12320
проб 12319
корректировки 12317
писание 12316
лесных 12315
бал@@ 12314
cont@@ 12314
зависимость 12311
островах 12310
няться 12309
постоянные 12309
конфиска@@ 12309
цикл 12308
08@@ 12306
шений 12305
третьем 12305
компроми@@ 12303
утверждении 12301
Выпол@@ 12301
водоро@@ 12299
129 12298
дага@@ 12296
Процеду@@ 12291
просили 12287
мяг@@ 12283
рный 12280
1979 12280
ВАС 12280
жном 12279
предлагаем 12279
профессиона@@ 12277
вели 12273
Барба@@ 12268
пособие 12266
продукт 12264
известны 12263
сную 12260
вакансий 12259
вступление 12257
разрешить 12257
тормо@@ 12255
зара@@ 12254
торской 12253
целевого 12253
плоско@@ 12251
ССИ@@ 12249
сначала 12248
водится 12246
МУ 12244
Microsoft 12240
раса 12239
научной 12239
Электро@@ 12238
арест 12237
создали 12233
предположительно 12233
нену@@ 12233
функцию 12233
записке 12231
предприятие 12227
согласилась 12225
считаться 12224
нынешний 12219
признано 12216
инженер@@ 12216
жилищного 12215
Пеки@@ 12213
возобновления 12212
каждые 12210
безусловно 12207
опыте 12206
идентифика@@ 12206
выполнены 12205
улучши@@ 12204
выявля@@ 12204
модели@@ 12204
желез@@ 12202
зная 12201
температура 12201
131 12201
изоляции 12200
оспари@@ 12198
силе 12197
мян 12196
ять 12193
матически 12191
тября 12191
женной 12190
инфраструктуру 12187
нашему 12187
обсуждению 12187
классов 12185
результа@@ 12184
насла@@ 12183
избирательной 12183
тремя 12183
народ@@ 12179
раунда 12173
сан@@ 12172
расположены 12165
преодолеть 12163
зависеть 12162
НЫЙ 12161
ссии 12160
рес@@ 12160
Черногория 12160
рассказал 12159
технический 12158
SP@@ 12158
Остро@@ 12158
чувстви@@ 12157
радо@@ 12156
дание 12156
брака 12156
негативно 12155
привлекать 12154
дефицита 12153
выпуск 12152
Доб@@ 12151
убежище 12150
БО@@ 12146
Ассоциация 12145
отлича@@ 12143
пользуется 12141
утвердила 12141
полицией 12139
встреча@@ 12139
US 12139
традиции 12137
чиком 12129
проходя@@ 12128
Фото@@ 12127
Каса@@ 12126
надежды 12119
девочки 12118
положительно 12118
годовщины 12116
play@@ 12108
цем 12107
1983 12101
русском 12099
Теле@@ 12098
Gr@@ 12096
патен@@ 12094
проявления 12094
менте 12091
версия 12088
цве@@ 12083
стр. 12083
напрямую 12081
историю 12079
Опубликовано 12078
упра@@ 12077
смотрен@@ 12077
Стр 12075
воро@@ 12072
Вьетна@@ 12068
трети 12068
сте 12067
стены 12066
замести@@ 12062
стану 12061
тюремного 12059
точных 12056
азербайджа@@ 12055
24.@@ 12055
следствием 12053
предметы 12053
етесь 12052
левой 12051
активной 12050
исчерпа@@ 12049
исследовательских 12047
федерации 12044
одобрила 12043
показания 12043
продолж@@ 12041
потерпе@@ 12040
Данная 12040
посла 12039
предпо@@ 12036
210 12032
посвященной 12031
Иногда 12030
ступа@@ 12029
Азиат@@ 12028
индустри@@ 12028
объ@@ 12028
эволю@@ 12027
общенациональ@@ 12022
многим 12020
щихся 12019
составлен@@ 12012
ä@@ 12012
подви@@ 12011
стами 12010
нехватки 12010
ue 12010
уменьши@@ 12007
убы@@ 12005
осведом@@ 12005
пин@@ 12002
морские 12000
беспрепят@@ 12000
сообщениями 12000
мелких 11999
пакет 11999
извест@@ 11998
занимают 11992
пригод@@ 11988
КТ@@ 11985
документация 11980
уделено 11980
наказаний 11980
карта 11978
ссом 11977
показаний 11977
Янва@@ 11976
открыто 11975
стических 11973
сна@@ 11972
широкую 11971
владения 11971
инфляции 11970
жаются 11968
беспокойство 11968
136 11968
охла@@ 11967
утверждается 11966
Саудовская 11965
упор 11964
потом 11961
настолько 11959
фт 11958
Использу@@ 11957
тиру@@ 11955
To@@ 11955
хозяйстве 11953
иде@@ 11952
берет 11952
голосовании 11952
форуме 11951
la@@ 11951
меров 11946
разли@@ 11945
вероятность 11941
мать 11939
тана 11936
субсиди@@ 11933
нормативно 11932
характеристи@@ 11931
реформа 11929
конкуренто@@ 11927
atur@@ 11926
террористов 11925
Дости@@ 11925
декабрь 11925
зме 11924
ядерное 11923
российских 11923
Аравия 11923
надзор@@ 11922
размещение 11918
упаковки 11917
пострадавшим 11915
CO 11915
наб@@ 11914
доме 11911
избирательных 11911
Мадри@@ 11906
станом 11905
нало@@ 11902
ПА 11901
кали@@ 11900
объявля@@ 11896
усилению 11894
точку 11894
кво@@ 11894
частной 11894
ваемости 11894
АН@@ 11893
льский 11888
уменьшить 11887
особый 11887
Tr@@ 11884
лан 11883
240 11883
деля@@ 11882
повреждения 11880
поезд@@ 11879
восстано@@ 11878
начальника 11877
ссыла@@ 11876
размеры 11876
образ 11876
гостиницы 11870
строительстве 11868
точка 11867
пропавших 11862
буду 11861
большинством 11858
ука@@ 11857
огонь 11857
упа@@ 11854
Политика 11850
Какие 11849
ite@@ 11849
мел@@ 11847
Car@@ 11842
популяр@@ 11840
дополнительная 11840
молодежь 11839
особым 11838
дере@@ 11838
цене 11837
испытывают 11835
Им@@ 11833
закупки 11831
гаран@@ 11831
пане@@ 11827
границей 11826
учтены 11826
соедин@@ 11825
вторжения 11822
следовать 11819
констати@@ 11819
средним 11817
акцен@@ 11814
немедлен@@ 11813
Руан@@ 11811
альтернативные 11810
терроризм 11809
смогла 11808
спора 11808
сделан 11808
созы@@ 11806
спра@@ 11805
болез@@ 11804
стол@@ 11795
кол@@ 11795
авторы 11795
Имя 11793
серьез@@ 11791
Гру@@ 11791
Япо@@ 11785
чениями 11781
активизи@@ 11774
категориям 11773
Эстония 11771
измери@@ 11770
многими 11769
Sunday 11767
составит 11760
издержки 11760
Ван@@ 11754
решено 11750
Кай@@ 11747
иммигра@@ 11744
любому 11744
отпуск 11742
крупнейших 11741
машин 11738
особен@@ 11733
здание 11733
реальной 11731
документом 11730
страниц 11729
изме@@ 11728
профессионально 11728
нг 11727
показателями 11727
целого 11725
1975 11724
выполняют 11723
репродук@@ 11723
вят 11722
разведки 11722
говорилось 11721
имела 11720
график 11720
вправе 11716
члена@@ 11714
162 11712
крест@@ 11710
тельствами 11709
посвя@@ 11708
137 11707
Словакии 11703
посвященные 11702
Мен@@ 11701
щика 11699
руководство@@ 11698
специальную 11695
техника 11694
наимено@@ 11692
ations 11691
нев@@ 11687
вблизи 11687
правилах 11687
Катего@@ 11687
вуа@@ 11685
сообщило 11685
аэропорт 11685
лер 11684
УР 11683
страдают 11681
прием@@ 11676
признали 11671
одежды 11671
элементами 11670
РОВ@@ 11667
меди@@ 11666
воспитания 11666
have 11666
объявил 11663
тиями 11663
северо 11662
достигли 11662
дию 11661
окаж@@ 11660
цвет@@ 11660
уголовно 11656
комиссию 11655
навыки 11653
Вес@@ 11651
денежной 11650
пройти 11646
мило@@ 11646
Первого 11643
говый 11637
видимому 11635
указывают 11631
жительства 11631
вай 11627
Анд@@ 11625
строительных 11624
гана 11623
сумме 11620
Ах@@ 11617
Сто@@ 11616
долла@@ 11611
способных 11611
исследовании 11607
нова 11606
полным 11604
des@@ 11602
посяга@@ 11601
снизить 11600
китай@@ 11595
установленной 11595
повстан@@ 11594
прош@@ 11589
Южного 11588
политическом 11586
программи@@ 11586
предоставлены 11586
Каж@@ 11585
ошиб@@ 11585
тья 11585
тры 11584
обвинитель@@ 11584
Стамбу@@ 11582
приложить 11579
регулярные 11578
данную 11578
закрытия 11575
рожда@@ 11572
советов 11569
пси@@ 11569
назначен 11568
серьезными 11566
отстаи@@ 11562
350 11561
тун@@ 11560
ДК 11560
собран@@ 11559
особенностей 11556
губ@@ 11556
летие 11555
любая 11555
рису@@ 11555
ast@@ 11553
груза 11553
аннули@@ 11552
Монако 11552
дипломатических 11551
получено 11551
особой 11549
необоснован@@ 11548
посол 11546
Ваш 11545
военно 11543
установленным 11542
полномо@@ 11541
руб@@ 11541
ber@@ 11541
Нью@@ 11538
державы 11536
резко 11536
экономически 11535
низма 11529
устанавливать 11529
ДП 11529
стола 11529
благодар@@ 11528
публичных 11527
Глав@@ 11527
правильно 11525
Сотрудники 11525
тиву 11524
создано 11522
Возможно 11521
потребует 11521
факторами 11520
христиан@@ 11520
Кам@@ 11516
вносит 11515
древеси@@ 11514
ежедневно 11513
коррек@@ 11513
Буду 11513
ограниченными 11509
хой 11506
Комментарии 11506
чистых 11505
самолет 11505
структурой 11503
леги@@ 11502
восстановить 11501
тивности 11501
ограничить 11499
игр 11497
бир@@ 11496
Сооб@@ 11496
Каз@@ 11494
no 11493
Един@@ 11492
Вспо@@ 11492
Иисуса 11492
постоянным 11491
сыграть 11487
фир@@ 11487
ook@@ 11487
барье@@ 11485
вей 11485
лон 11484
ip@@ 11484
необходи@@ 11481
леса 11480
запрета 11475
увеличилось 11475
мога@@ 11474
науке 11473
служеб@@ 11470
ходатайство 11470
рым 11469
спектр 11469
метал@@ 11469
ace 11467
ложил 11467
владе@@ 11464
проверить 11463
подразделение 11463
болезней 11460
специальная 11457
проверок 11454
ценность 11453
сь@@ 11453
старше 11451
Миро@@ 11450
правоохранитель@@ 11449
держек 11448
пресечения 11448
Меди@@ 11446
Официаль@@ 11444
намерении 11443
Экс@@ 11442
существенные 11441
известных 11435
намере@@ 11433
переданы 11433
запись 11432
дополнительное 11431
ах 11429
Февра@@ 11429
обследование 11428
кино@@ 11426
растет 11425
благотвори@@ 11425
влечет 11420
опубликован 11417
интерфей@@ 11417
PR 11416
сным 11415
тским 11415
компенси@@ 11414
туру 11414
предприятиях 11413
фактор 11411
дифферен@@ 11410
противоречи@@ 11408
нит 11408
идею 11407
разрыва 11402
щенного 11399
курор@@ 11397
десятилетий 11396
искать 11396
ходи@@ 11394
пласти@@ 11391
img 11391
бар@@ 11390
рений 11389
ковы 11388
начис@@ 11388
имея 11382
дизе@@ 11382
последующего 11380
поля 11380
ведением 11379
профилактике 11378
низкий 11378
Союз 11376
предложили 11376
образованием 11375
инспекции 11370
организованы 11369
бесплатный 11369
наруш@@ 11368
щиков 11367
квартале 11365
подходит 11364
кварта@@ 11362
бассей@@ 11361
пел@@ 11359
предусмотренного 11357
соглашению 11356
изоли@@ 11352
истины 11349
претензи@@ 11349
Директо@@ 11345
чень 11343
лли 11338
фоне 11337
говом 11335
показали 11334
144 11333
приобрет@@ 11328
Словении 11328
23.@@ 11328
поколений 11327
сырья 11325
полов 11325
молит@@ 11325
лого@@ 11324
мусульман@@ 11323
выте@@ 11322
освобождение 11321
май 11321
запросов 11318
Рекомен@@ 11318
Н. 11318
отдельного 11317
Владимир 11316
инвестициям 11316
мили@@ 11315
примеру 11311
СССР 11310
строить 11310
Гер@@ 11309
местный 11309
намерен 11308
существенного 11305
кредитования 11301
К. 11301
коопера@@ 11296
отменить 11290
альным 11290
радика@@ 11289
фи 11286
глу@@ 11285
Бру@@ 11283
подрост@@ 11281
живу@@ 11279
военный 11279
портфе@@ 11276
bas@@ 11276
установил 11274
рующего 11274
Сирийская 11274
понятие 11273
реформиро@@ 11273
152 11273
гими 11271
Соб@@ 11269
тите 11267
турец@@ 11264
дни@@ 11261
выпуска@@ 11260
острове 11259
существенных 11258
its 11257
знает 11254
инцидентов 11253
дое 11252
специальными 11252
равные 11250
инвен@@ 11249
FA@@ 11248
банки 11244
дух 11242
раство@@ 11242
мигранты 11242
разрыв 11238
ort 11237
точного 11234
повышать 11231
высокими 11229
сна 11228
ТАР 11226
ослож@@ 11225
калиб@@ 11219
Бон@@ 11219
tru@@ 11219
нена 11218
ны@@ 11218
Mal@@ 11217
кер 11216
благодарность 11215
девушек 11214
заявлению 11214
чку 11213
прибли@@ 11212
таблицу 11212
упразд@@ 11210
Дети 11209
недопусти@@ 11204
существенный 11202
десят 11202
зонах 11202
изы@@ 11198
ds 11191
лая 11190
избежание 11190
ноя@@ 11189
190 11188
планеты 11186
структурами 11183
масшта@@ 11182
акцент 11179
Север@@ 11178
формат 11177
каза 11175
значительная 11174
задерж@@ 11174
миром 11173
сках 11172
присоединении 11172
объемом 11172
иначе 11170
РГ 11168
выступают 11166
тства 11165
балан@@ 11164
Нынеш@@ 11161
ank 11161
целесообразности 11161
металли@@ 11160
фла@@ 11158
рос@@ 11157
бан 11156
рекомендовано 11156
Ne@@ 11154
гне@@ 11152
событиях 11150
чистой 11149
проживают 11148
стремя@@ 11147
14.@@ 11144
жилых 11138
специ@@ 11136
продемонстрировать 11135
ядерные 11135
урегулировании 11135
подозреваемых 11132
департамента 11132
Одной 11130
начинается 11126
точек 11126
рядов 11125
маркетин@@ 11125
июль 11125
велосипе@@ 11124
впечат@@ 11123
Восточный 11123
Катар 11122
мини@@ 11118
сложной 11118
набо@@ 11118
Слу@@ 11116
трем 11116
КГ@@ 11115
ус 11115
беспо@@ 11112
Сен@@ 11112
выявить 11110
душе@@ 11109
лий 11108
импера@@ 11107
основа 11106
кен@@ 11106
боро@@ 11103
надба@@ 11103
бое@@ 11102
ванными 11099
аван@@ 11099
сторо@@ 11097
Вместо 11096
Почему 11095
история 11091
вывода 11090
файлы 11090
предпринимательской 11088
непре@@ 11087
стимулировать 11086
тская 11084
стоимостью 11083
эффек@@ 11081
долго 11080
World 11080
затро@@ 11079
авиации 11079
инициа@@ 11078
ступления 11076
нтов 11075
сообщалось 11072
заработ@@ 11072
юго 11072
заместителей 11071
вступил 11069
лидеры 11068
ium 11066
организует 11065
радио 11064
ложено 11057
запрещает 11056
Основной 11055
назем@@ 11054
женщи@@ 11051
престаре@@ 11050
Ему 11048
запросы 11046
встречу 11045
напад@@ 11045
гам@@ 11044
распространении 11042
обнару@@ 11038
Узбекистана 11036
страдания 11035
нической 11034
Be@@ 11031
усыно@@ 11030
лам@@ 11024
can@@ 11024
Два 11023
заведения 11016
duc@@ 11016
he 11016
Каждая 11015
развед@@ 11014
строй 11011
Персо@@ 11011
подотчет@@ 11010
влять 11008
осла@@ 11007
космо@@ 11007
рили 11007
нена@@ 11003
стремятся 11002
тех@@ 11001
щенным 11000
являлись 10999
сюда 10997
ванном 10996
выбра@@ 10996
рабаты@@ 10996
законами 10996
лова 10994
собраний 10993
высе@@ 10993
оригина@@ 10992
генераль@@ 10991
кторы 10988
трудя@@ 10987
читы@@ 10983
военными 10983
рас 10980
сто 10979
вку 10978
бывший 10977
музыка@@ 10974
несправедли@@ 10972
бить 10972
199@@ 10969
произвести 10966
Иерусалиме 10964
иско@@ 10962
модерни@@ 10959
ускорен@@ 10957
успешной 10956
диалогу 10956
обмени@@ 10954
напом@@ 10953
бом 10953
Поз@@ 10953
tu@@ 10952
собственность 10949
отвечающих 10948
квартира 10943
периодически 10935
ситуацией 10934
сделки 10933
сутки 10933
No 10932
будущие 10931
запас@@ 10930
утверждению 10929
технике 10928
Най@@ 10922
туберкуле@@ 10921
ун 10918
предварительных 10918
эпиде@@ 10913
Отсутствие 10912
качеством 10911
специальное 10911
мол@@ 10905
разоча@@ 10902
говорили 10900
рублей 10894
больных 10893
согласование 10892
Записка 10892
php 10891
экс@@ 10890
завершена 10889
Преду@@ 10888
существенное 10887
группах 10885
Джор@@ 10884
новому 10884
гла 10882
указанный 10882
юще@@ 10881
DV@@ 10879
игра@@ 10877
комби@@ 10877
женностью 10877
современного 10874
Е. 10874
25.@@ 10873
обстановке 10872
Вьетнам 10871
нец 10870
древ@@ 10868
ka 10867
валюты 10866
тюрьме 10866
совокупности 10866
вающую 10865
альных 10865
пригото@@ 10861
Inter@@ 10860
Лукашенко 10859
лучшей 10858
чую 10858
компью@@ 10857
взве@@ 10853
изделия 10853
Международном 10852
женный 10851
технологических 10850
льго@@ 10847
Тех@@ 10846
корпорации 10845
приспособ@@ 10845
приобретен@@ 10843
помощ@@ 10842
прице@@ 10842
падает 10840
Вз@@ 10840
Атлан@@ 10837
борту 10837
жки 10837
АТ@@ 10836
продукцию 10835
контрольно 10835
Копенга@@ 10834
Будет 10834
выйти 10833
IS 10831
Rev@@ 10830
класс 10827
ain 10827
бург@@ 10824
do 10821
диало@@ 10820
аку@@ 10820
кубин@@ 10820
13.@@ 10820
Литвы 10819
практи@@ 10818
вырази@@ 10818
Недавно 10817
исправить 10815
волю 10814
ненный 10813
Гонкон@@ 10812
показателям 10811
концепцию 10811
ES 10811
одобрения 10809
занятых 10808
неизменно 10807
последовательно 10806
автором 10805
вести@@ 10805
домини@@ 10802
торговые 10798
границу 10798
ee 10797
Черногории 10795
предоста@@ 10793
половина 10789
оты 10788
ta 10787
пол 10786
браке 10782
АР@@ 10780
формой 10779
loc@@ 10779
щу@@ 10777
народом 10774
зали@@ 10769
ess@@ 10769
лучшего 10766
традиционной 10764
Вторая 10761
пенсион@@ 10761
секунд 10761
бург 10760
сельское 10758
Пара@@ 10758
Северная 10756
многом 10755
индустрии 10752
секции 10750
основана 10747
объясня@@ 10747
угроза 10746
разрешений 10742
банков@@ 10742
репре@@ 10741
чувство 10739
цо 10737
бле@@ 10737
семья 10737
ставило 10736
метра 10736
упаков@@ 10736
your 10735
гон 10734
внесение 10732
жай@@ 10728
Пожалу@@ 10727
ставке 10727
наркотических 10727
избе@@ 10724
религиозные 10724
мией 10723
ляться 10723
air 10722
Голо@@ 10718
ost@@ 10718
работал 10714
ску@@ 10714
ряют 10709
несколькими 10705
мому 10705
йс 10703
муниципа@@ 10701
tem 10701
ros@@ 10701
самолета 10698
тизи@@ 10697
клиента 10697
йские 10696
кофе 10692
We@@ 10692
изготовления 10691
дей 10689
поясни@@ 10689
TA 10685
В.@@ 10683
суверенитет 10682
удастся 10681
благополучия 10681
советника 10681
вреда 10680
жертвой 10679
другая 10675
потенциально 10674
Кана@@ 10671
назначении 10663
ос 10662
отка@@ 10662
доступных 10660
Гре@@ 10658
зафикси@@ 10653
Наблюда@@ 10653
зло@@ 10652
реорганизации 10652
треть@@ 10651
рат 10642
dia 10642
удовлетворить 10641
отставку 10641
директо@@ 10641
возобновить 10638
груз@@ 10638
совой 10635
падают 10635
IT@@ 10634
пи 10629
ey 10629
точке 10628
бага@@ 10628
тинг 10626
декс 10625
жительство 10622
треть 10621
внешним 10621
приме@@ 10619
снабжение 10619
отправ@@ 10619
слабо@@ 10618
26.@@ 10618
транспортом 10617
ближайшие 10615
подор@@ 10615
бумаги 10614
Могу 10614
титься 10610
иностранные 10608
Хе@@ 10604
запросу 10604
последствиям 10603
Даль@@ 10603
безо@@ 10602
шена 10600
беспрецеден@@ 10598
ОВ 10597
двери 10596
предприятиями 10594
Афри@@ 10592
верить 10592
увеличился 10592
энергетических 10590
Конечно 10589
oun@@ 10589
заморажи@@ 10588
охра@@ 10587
соотношение 10585
дипло@@ 10585
Любо@@ 10582
зависят 10581
промышленность 10578
src 10576
Ци@@ 10574
шла 10573
изоля@@ 10572
казнь 10570
разо@@ 10568
230 10568
следовало 10567
высокая 10566
Пригла@@ 10566
домаш@@ 10565
Прак@@ 10564
разрабатывает 10562
купить 10560
радиа@@ 10560
комнаты 10560
идеологи@@ 10558
щу 10555
вленного 10553
produc@@ 10552
ell 10551
традиционно 10550
местом 10549
приговор 10549
тс 10548
J 10547
заслуживает 10544
тифика@@ 10544
содержанием 10543
линий 10542
Сене@@ 10541
ase 10540
ожидать 10534
Значи@@ 10531
слабы@@ 10529
вноси@@ 10522
165 10522
ass@@ 10519
приобрести 10518
качественных 10516
тору 10516
вплоть 10516
знаете 10516
63@@ 10516
бин@@ 10515
экскур@@ 10514
ax 10513
четвертый 10511
мс 10510
Интернета 10509
машине 10508
хорва@@ 10506
сделок 10504
́ 10503
Назар@@ 10502
Еврази@@ 10498
отметив 10498
Тихоокеанского 10496
сфера 10494
тюрьмы 10493
дис 10492
скани@@ 10492
позволила 10490
подразуме@@ 10489
зин@@ 10486
быто@@ 10484
ЗС 10482
anc@@ 10480
теоре@@ 10479
очист@@ 10479
охрана 10478
придерживаться 10474
ставку 10474
Действительно 10473
направлениях 10473
клас@@ 10473
финан@@ 10469
сказала 10468
Внеш@@ 10466
энергетической 10465
Кто 10465
открытом 10465
Провер@@ 10465
запланированных 10463
грузовых 10463
ure 10462
sub@@ 10461
знание 10460
зарегистрировано 10460
влениям 10458
154 10458
накопи@@ 10457
мастер@@ 10456
пересматри@@ 10454
английский 10454
вский 10454
сегодняш@@ 10453
давлением 10453
личность 10452
дре@@ 10448
укра@@ 10444
нос 10443
составлял 10440
ООО 10440
рая 10436
убийств 10436
ворота 10435
тером 10433
решили 10432
1974 10429
просмотра 10428
думаю 10427
Инте@@ 10427
охраня@@ 10427
ak 10427
палаты 10426
Жа@@ 10424
вляется 10424
мато@@ 10423
тров 10422
психо@@ 10421
правонарушения 10421
ступ 10417
strong 10414
иностранного 10413
ot 10413
такому 10412
расти@@ 10412
товара 10412
реестра 10412
темпами 10408
незаконно 10408
гает 10407
учени@@ 10406
партнерам 10405
освоения 10404
предыдущей 10399
стает 10398
проживание 10398
клиентами 10397
нки 10396
идея 10395
грубы@@ 10394
редко 10393
современные 10391
International 10391
мгнов@@ 10384
защитить 10381
репута@@ 10381
перейти 10380
Оста@@ 10379
Разви@@ 10375
онам 10373
сист@@ 10373
Исклю@@ 10372
увеличении 10370
ографи@@ 10370
категорию 10365
тке 10365
возникнуть 10361
тости 10360
энергию 10360
вере 10360
матерей 10359
вероя@@ 10358
намерена 10358
написа@@ 10357
летом 10356
водства 10353
https 10353
внутреннем 10352
фотографи@@ 10352
страхование 10351
меру 10350
средний 10347
посетил 10346
достигнута 10345
дерев@@ 10344
авари@@ 10343
шек 10341
стара@@ 10336
словом 10336
Мой 10335
циф@@ 10334
сайтов 10332
человеческой 10330
стои@@ 10328
товых 10328
торских 10327
стациона@@ 10327
Мир 10326
ere 10325
упо@@ 10323
ходатайства 10323
торам 10320
виден@@ 10320
определенную 10320
картин@@ 10320
комбина@@ 10314
Желез@@ 10314
тельского 10313
реальных 10313
руководителями 10313
лицензии 10310
варьи@@ 10309
веры 10309
окончательный 10309
Октябрь 10309
шено 10308
неделе 10306
материалами 10306
памя@@ 10305
WW@@ 10304
федерального 10302
внес@@ 10301
уровню 10300
убий@@ 10300
открытие 10298
разруши@@ 10298
контракт 10297
календар@@ 10296
млад@@ 10291
мотивам 10290
четвертого 10287
тями 10283
формировании 10283
полезных 10282
участка 10282
Али 10280
попечи@@ 10277
аренды 10276
произошли 10275
оставля@@ 10273
главное 10272
Призна@@ 10272
сложившейся 10272
мото@@ 10271
TE@@ 10270
вызовы 10269
исполнитель 10266
10,@@ 10265
Через 10265
экстрен@@ 10265
убийство 10264
леты 10261
Благо@@ 10258
вел 10255
Вашингтон 10254
рея 10252
отложить 10247
крови 10246
началось 10245
резерви@@ 10243
own 10243
нуж@@ 10238
планиру@@ 10237
Энер@@ 10235
продолжит 10235
привлечению 10235
between 10233
Христа 10232
трехсторон@@ 10231
участво@@ 10229
AM@@ 10228
предлагают 10218
агро@@ 10215
авторите@@ 10214
индика@@ 10214
исчер@@ 10213
взрыв@@ 10212
09.@@ 10211
Vie@@ 10210
прокурора 10209
неуда@@ 10208
встретился 10208
замед@@ 10206
составляли 10204
art 10203
прецеден@@ 10203
отправля@@ 10203
вшуюся 10202
148 10202
каждым 10201
политическое 10201
ствования 10199
размер@@ 10197
объединение 10196
небольших 10196
ry 10196
водство 10191
быстрый 10187
младен@@ 10186
инжен@@ 10185
гон@@ 10185
158 10182
отсро@@ 10181
председателем 10180
принципиаль@@ 10175
цвет 10173
подготовил 10170
смысл 10168
определенным 10168
ленным 10166
sc@@ 10166
ach@@ 10164
Сло@@ 10163
банковских 10162
быст@@ 10161
изучать 10160
док@@ 10159
бах@@ 10159
ученых 10158
фы 10153
стического 10151
Сеть 10151
стойчи@@ 10149
ходь@@ 10146
темати@@ 10141
находился 10139
полу 10139
участвовал 10137
интерес@@ 10137
изуч@@ 10137
ight 10136
щенной 10132
долгосрочные 10131
железнодорожных 10130
серб@@ 10128
методами 10125
лагеря 10119
понимает 10119
контракты 10117
выбира@@ 10117
стика 10115
мат 10115
Участ@@ 10115
говые 10114
присутствовали 10114
клиен@@ 10110
огнестрельного 10110
юге 10109
миссию 10105
Минима@@ 10103
тям 10100
мобильных 10099
мю@@ 10099
совершили 10096
взгля@@ 10095
оформ@@ 10093
имеющейся 10093
имена 10092
приступил 10092
health 10091
1977 10089
альтернативы 10088
революции 10087
мульти@@ 10084
культуре 10084
точной 10080
перспекти@@ 10079
Ну 10079
английского 10078
хранили@@ 10077
льского 10076
открыт 10075
● 10071
признала 10070
изыска@@ 10070
ждениях 10069
организовано 10069
энергос@@ 10068
жалобу 10067
Член 10067
осторо@@ 10063
Бей@@ 10062
Измен@@ 10061
сообща@@ 10060
изучи@@ 10060
пришла 10060
Соответ@@ 10059
сын 10057
fac@@ 10055
mit@@ 10055
can 10052
филосо@@ 10050
господ@@ 10049
вещи 10047
Ливии 10046
Сингапур 10046
рецеп@@ 10044
сирийских 10042
покинуть 10042
Обсу@@ 10042
площадью 10037
чре@@ 10036
продаж 10036
изи@@ 10035
Обра@@ 10031
экра@@ 10030
стных 10027
семи@@ 10027
конкурса 10027
укрепи@@ 10025
Вну@@ 10025
мления 10024
хождение 10024
организовал 10020
безработи@@ 10018
родители 10018
sion 10017
цы@@ 10016
циали@@ 10015
Текст 10012
ценные 10009
формиро@@ 10008
отправи@@ 10007
договорились 10007
текущем 10006
пусти@@ 10005
альные 10004
скоростью 10002
говарива@@ 10002
общественностью 10000
ребенком 9998
фактора 9998
советы 9996
ann@@ 9996
магни@@ 9993
повторя@@ 9989
подобного 9987
Добавлено 9987
копии 9986
домога@@ 9985
ниж@@ 9985
вадца@@ 9984
бытового 9983
Йохан@@ 9982
собы@@ 9982
дие 9979
yn@@ 9977
помощник 9976
сбере@@ 9973
сли 9971
споры 9970
холоди@@ 9968
ули@@ 9963
гг. 9960
выделены 9959
Астане 9958
Тот 9957
враждеб@@ 9955
сохра@@ 9954
транспортным 9953
Дело 9951
ступен@@ 9951
1971 9949
следо@@ 9947
мено@@ 9946
мысли 9946
заболеваниями 9946
ствование 9945
a.ru 9944
дому 9943
уточнить 9943
Флори@@ 9941
импорт 9939
вво@@ 9938
решает 9935
низации 9933
ждается 9924
налоговых 9923
лией 9923
аттеста@@ 9921
пропа@@ 9920
десяти@@ 9920
депутатов 9920
двигаться 9919
секре@@ 9918
mo@@ 9917
функция 9914
Черно@@ 9909
масса 9909
Лиги 9907
мужчи@@ 9905
видимости 9904
son 9904
производством 9902
мировом 9900
fi@@ 9900
рев@@ 9899
мож@@ 9899
atch@@ 9898
главную 9897
северной 9894
коммента@@ 9893
ведомств 9893
взрывча@@ 9893
Наш 9889
ува@@ 9887
парк 9887
чикам 9885
совершил 9885
Ph@@ 9885
лям 9884
подавля@@ 9881
дат@@ 9881
обязательным 9879
Смо@@ 9877
схемы 9873
принятый 9873
Университета 9872
категори@@ 9872
негативные 9870
pe 9870
цени@@ 9868
дри@@ 9867
1976 9866
Am@@ 9865
17.@@ 9864
дная 9863
выражении 9863
объединений 9863
трени@@ 9862
действовали 9861
выборе 9859
туристов 9858
конвер@@ 9858
военнослужа@@ 9857
запасы 9856
йста 9855
тельны 9852
любви 9850
водителя 9850
иностранным 9849
270 9848
современным 9847
допускать 9847
предыду@@ 9847
Таиланда 9845
ks 9840
передавать 9839
нуться 9838
солидар@@ 9838
прибыль 9835
Чемпионат 9835
плодотвор@@ 9833
технология 9833
пала 9833
непо@@ 9831
территори@@ 9830
Com@@ 9830
переработки 9827
заканчи@@ 9825
Se@@ 9825
управлять 9823
Дис@@ 9823
менять 9822
зам@@ 9821
фицировать 9821
пенсионного 9821
Задача 9819
ассамбле@@ 9818
топливо 9816
отпу@@ 9816
ковое 9814
деклара@@ 9814
вошли 9811
кает 9809
профсоюзов 9805
объедин@@ 9805
Подробнее 9805
повсе@@ 9803
ложен 9803
ином 9802
основанием 9802
159 9802
казыва@@ 9800
уверенность 9800
разъ@@ 9798
наладить 9796
безвозмез@@ 9792
знаем 9789
быстрее 9786
выставке 9786
серьезное 9783
пакета 9782
ожидания 9781
стабилизи@@ 9778
ваше 9774
валют 9773
идеа@@ 9772
очистки 9772
границе 9772
внутренний 9770
коман@@ 9768
здоровью 9762
декла@@ 9762
филиа@@ 9761
ощути@@ 9756
тона 9755
мебе@@ 9754
родов 9754
ступи@@ 9753
нарушителей 9750
визо@@ 9749
венти@@ 9749
утверждают 9748
поправку 9748
спаса@@ 9747
Абу 9747
школьных 9745
испытывает 9744
ИТ 9738
чника 9736
air@@ 9735
работали 9734
центрального 9733
вызвать 9733
ставила 9731
отраслей 9730
советник 9730
кологи@@ 9730
ech@@ 9730
щики 9729
Иерусали@@ 9729
жие 9728
командо@@ 9724
вино@@ 9723
штат 9720
пытается 9717
тностью 9717
сжа@@ 9717
Абду@@ 9714
w.@@ 9714
зала 9713
лаборато@@ 9710
нская 9706
чест@@ 9705
примен@@ 9705
ин 9705
кварти@@ 9705
корруп@@ 9704
оном 9703
привела 9700
сказывается 9700
495 9700
Церкви 9698
лья 9698
бель 9697
оборудованием 9697
мпи@@ 9695
лта@@ 9695
ссиональ@@ 9693
Сергей 9692
интеллектуаль@@ 9688
эт@@ 9688
знают 9688
убеждены 9688
телевизион@@ 9686
балло@@ 9685
Тен@@ 9684
оппозиции 9682
оставить 9682
знаю 9682
начальной 9682
разведыва@@ 9682
примера 9680
предыдущим 9679
совести 9677
обстоятельство 9676
простой 9667
низм 9665
яния 9663
ковая 9661
ресур@@ 9659
175 9659
карто@@ 9659
деловой 9657
школа 9657
сообщать 9656
нагля@@ 9655
Главы 9655
Кипре 9653
др 9652
точные 9650
гражданина 9650
сельском 9648
евро@@ 9647
рными 9647
началом 9644
вор@@ 9641
гонки 9641
БР 9639
отчасти 9638
бен@@ 9636
конкретный 9636
завод 9634
цело@@ 9633
объемлю@@ 9631
навига@@ 9628
политиче@@ 9627
сожале@@ 9627
двигателей 9626
морато@@ 9625
сына 9624
отличи@@ 9624
ence 9623
фон 9621
малые 9621
гля@@ 9620
терп@@ 9618
штейн 9616
Сингапу@@ 9616
показать 9613
завода 9609
аудио@@ 9608
улице 9607
объект 9606
годам 9605
создал 9605
aut@@ 9599
блиоте@@ 9599
втори@@ 9597
· 9594
чее 9594
отца 9593
открытым 9592
личную 9592
оправда@@ 9590
las@@ 9588
Зем@@ 9587
хо 9587
итогах 9587
выработать 9586
растений 9585
.00 9582
январь 9581
япон@@ 9581
Уровень 9580
нрав@@ 9577
акционеров 9577
зию 9576
продав@@ 9576
став 9574
отчета 9573
цу@@ 9572
08.@@ 9570
реалисти@@ 9565
выход 9565
капитал 9563
нут 9562
необходим 9562
привел 9561
внесли 9558
Место 9558
ответил 9557
мины 9554
превосход@@ 9553
помогают 9553
заинтересованность 9549
лизовать 9546
атмосферу 9546
йных 9545
помещениях 9545
связ@@ 9545
риев 9544
гай@@ 9543
довести 9542
расстоянии 9541
составило 9540
этаже 9539
медлен@@ 9538
вспы@@ 9537
апо@@ 9537
преимущественно 9536
enc@@ 9535
праздно@@ 9532
ввод@@ 9531
исключение 9527
отклю@@ 9523
фабри@@ 9522
СЕД@@ 9522
Ближнего 9520
УНИ@@ 9520
реальные 9518
уголовном 9517
оплате 9516
сомнение 9513
дар 9511
Генераль@@ 9510
дефицит 9508
Срок 9507
фра@@ 9505
ковыми 9504
Коро@@ 9503
виру@@ 9502
Сти@@ 9499
предложи@@ 9497
шло 9495
окси@@ 9495
разры@@ 9494
Ситуация 9494
серьезный 9492
чив 9489
гнуть 9489
Страна 9489
куля@@ 9488
камен@@ 9487
дово@@ 9485
end 9483
завершила 9481
исследованию 9480
ick 9480
Опы@@ 9477
клюзи@@ 9475
выступила 9474
насо@@ 9474
избы@@ 9472
позволил 9472
правонарушений 9472
оне 9470
предусмотрена 9470
регистрация 9470
Кен@@ 9469
расстояния 9469
Македо@@ 9467
выращи@@ 9464
консоли@@ 9463
неадеква@@ 9460
ненного 9459
ближайшем 9458
обратил 9454
1960 9452
07.@@ 9452
ископаемых 9451
серьезного 9450
приходилось 9449
доставля@@ 9449
дон 9447
торгового 9446
получило 9446
СК 9446
сирий@@ 9444
йском 9444
ехать 9443
que 9439
факуль@@ 9439
Сте@@ 9438
языком 9438
текущий 9438
rec@@ 9438
количеством 9434
ква@@ 9432
ВС@@ 9432
работающие 9431
Пресс 9431
Бю@@ 9430
утвержден 9429
реально 9425
автор@@ 9424
больший 9423
нужд 9422
высоте 9420
цей 9419
здравоохран@@ 9417
эмитен@@ 9415
ons 9415
организован 9411
инфраструктура 9409
плюс 9408
холодной 9407
Мухам@@ 9407
ас 9405
влияет 9404
ствовало 9404
сохрани@@ 9403
дра 9403
бюджетной 9402
главой 9402
смотр 9402
лишение 9402
История 9401
методом 9401
регистрацию 9401
жин 9400
периодом 9398
cu@@ 9398
дстви@@ 9395
парка 9392
IP@@ 9390
king 9390
награ@@ 9389
na 9388
жан@@ 9384
бата@@ 9381
сно 9380
гания 9379
объемы 9379
рами@@ 9377
сентябрь 9374
собственный 9373
Заклю@@ 9372
показал 9371
вряд 9369
vis@@ 9369
др. 9367
фур@@ 9366
ans 9364
крити@@ 9363
Нур@@ 9363
отмети@@ 9362
отличаются 9361
точности 9360
огово@@ 9360
необы@@ 9358
Альян@@ 9358
выставка 9355
вест@@ 9352
полезно 9352
чно@@ 9349
переклю@@ 9345
Канаде 9344
обязательной 9343
избирательного 9341
Хай@@ 9340
po@@ 9340
бай@@ 9337
война 9335
sch@@ 9335
прилега@@ 9334
соединение 9332
Жур@@ 9332
трубо@@ 9331
работодателей 9331
Максима@@ 9328
сопут@@ 9327
патру@@ 9327
инвесто@@ 9326
навы@@ 9326
Анг@@ 9324
метрах 9317
федерация 9315
открытой 9315
Еди@@ 9315
надеяться 9314
рес 9314
стую 9314
добавил 9313
приглашение 9311
гли 9310
женного 9306
министры 9306
исчис@@ 9302
Служ@@ 9302
ченность 9300
щиками 9297
обычной 9297
профессиональные 9295
слова@@ 9291
ДП@@ 9291
чили 9289
лик@@ 9287
автома@@ 9286
шах@@ 9283
1972 9281
крупно@@ 9281
нынешние 9280
fun@@ 9280
месячный 9279
избрания 9276
названия 9275
Уэ@@ 9268
делом 9267
room 9267
нестаби@@ 9263
окончании 9262
главная 9260
фармацев@@ 9260
сделаны 9258
горных 9258
американской 9255
Завер@@ 9254
излу@@ 9252
сий 9246
графика 9246
атмосферы 9243
женского 9243
щаяся 9242
альбома 9240
начальник 9238
ana 9238
собрание 9237
КПП 9237
корпуса 9234
крими@@ 9234
press@@ 9234
окна 9233
Нидерлан@@ 9231
годовых 9229
ash@@ 9226
Шта@@ 9225
пас@@ 9221
нефтя@@ 9218
і@@ 9217
ционер 9216
терпе@@ 9215
наличи@@ 9215
Публи@@ 9215
уклон@@ 9212
полицейского 9208
нив 9207
Другой 9206
вав 9206
ener@@ 9205
таж 9204
семейного 9200
тения 9197
Wh@@ 9197
признаны 9196
патрули@@ 9196
Co@@ 9195
ими@@ 9193
сделала 9192
ориен@@ 9190
Двор@@ 9190
гос@@ 9188
оказалось 9186
кер@@ 9183
Проду@@ 9181
ложенные 9179
вали@@ 9177
участках 9177
траги@@ 9176
грамма 9176
НР 9174
ленными 9172
Следова@@ 9170
столи@@ 9167
Требо@@ 9166
ФО@@ 9166
тяжелых 9164
aj@@ 9162
ошибок 9162
man 9161
побе@@ 9161
отсут@@ 9161
церковь 9160
ницах 9160
спас@@ 9156
церемонии 9155
жите 9155
деревни 9154
мас@@ 9153
основа@@ 9152
ванную 9152
аэропор@@ 9150
сбро@@ 9149
благосло@@ 9149
заинтересованы 9148
материалам 9148
Син@@ 9147
сохраняет 9146
УК 9145
ракет 9144
другу 9144
финансовое 9138
приводят 9138
atch 9138
восстановлении 9137
купа@@ 9136
Fin@@ 9135
Fi 9134
составить 9133
обвинений 9132
бывшая 9131
нительно 9130
служебной 9130
футболу 9130
уничтожение 9129
единицы 9129
билеты 9128
согласиться 9127
про 9127
отказыва@@ 9123
прибытия 9122
новостей 9121
Ала@@ 9121
English 9121
Совет@@ 9120
чам 9119
сотни 9113
гна@@ 9113
Борь@@ 9111
обвиняемого 9111
обстановка 9109
дера 9109
Испа@@ 9106
Рот@@ 9105
нь@@ 9104
педагоги@@ 9103
броса@@ 9101
внесла 9101
Агент@@ 9100
сдви@@ 9098
one@@ 9098
сложные 9096
поддержали 9095
верховен@@ 9095
вится 9094
метро 9092
приходит 9090
КО 9088
женности 9086
сян 9085
детали 9078
неры 9078
щенный 9077
проживает 9076
ек 9073
примут 9072
демонстрации 9072
потребовать 9070
темой 9069
сном 9069
имо@@ 9067
Париже 9067
чьи 9066
врачей 9066
цифры 9065
итальян@@ 9064
ст. 9064
журна@@ 9063
свойства 9063
Ры@@ 9063
ликвидировать 9062
Федераль@@ 9060
ВО 9056
Израиле 9053
глаза 9051
Виль@@ 9051
18.@@ 9051
бара@@ 9048
цом 9047
кв. 9047
счетам 9046
инноваций 9045
возвращении 9045
предоставлено 9045
рыбо@@ 9039
октябрь 9037
пробле@@ 9036
стандарт 9035
знаком@@ 9032
сухо@@ 9032
гие 9030
кампанию 9028
службами 9028
ТР@@ 9027
mon@@ 9026
Коло@@ 9023
прогрессив@@ 9021
лку 9021
граф@@ 9021
общественные 9019
спло@@ 9018
ключевую 9018
движении 9017
МГ@@ 9016
желе@@ 9015
ул. 9015
показаться 9014
металлов 9014
грузин@@ 9014
арсена@@ 9013
большими 9012
половину 9011
шин@@ 9011
самим 9009
ые 9007
Рез@@ 9006
генеральный 9004
пой@@ 9004
Успе@@ 9004
бок 9004
комплекто@@ 9004
противном 9002
ложенных 9002
Южном 9001
стях 8998
владельцев 8998
клиентам 8998
тропи@@ 8994
эй 8992
нала@@ 8991
преры@@ 8991
dll 8990
дисциплины 8989
Fr@@ 8987
признают 8986
чками 8986
швейцар@@ 8984
получали 8983
агре@@ 8983
Нико@@ 8980
Пан@@ 8980
аэро@@ 8979
ори@@ 8977
нические 8977
мок 8975
наруша@@ 8975
моно@@ 8973
веса 8972
ant@@ 8971
Люксем@@ 8971
воору@@ 8970
Сообщение 8969
пру@@ 8967
основан 8965
организована 8964
прогу@@ 8963
go@@ 8962
пациен@@ 8961
Материа@@ 8961
иду@@ 8959
мести@@ 8955
западной 8954
гают 8954
.01.@@ 8954
масштабных 8953
времена 8950
мои 8949
ek@@ 8948
Выступа@@ 8947
новости 8946
помогать 8944
преферен@@ 8944
ряется 8943
amp@@ 8942
гибели 8940
Устано@@ 8939
Распо@@ 8938
диф@@ 8936
лога 8931
Нагор@@ 8931
реак@@ 8928
шер@@ 8927
0,5 8925
кабе@@ 8924
апрель 8922
пари@@ 8922
260 8922
перспектив 8919
шо@@ 8917
2018 8917
социали@@ 8916
потерпевших 8914
мини 8913
район@@ 8913
ина 8910
друж@@ 8909
Лин@@ 8906
лучший 8904
OR@@ 8903
минимальной 8902
Речь 8901
шить 8900
ню@@ 8900
цено@@ 8899
смерть 8899
изби@@ 8896
директором 8896
понимать 8894
вленная 8890
ur 8890
летние 8890
ВР 8887
ец 8884
Хан@@ 8882
исчез@@ 8881
согласны 8880
старей@@ 8878
R.@@ 8875
безна@@ 8873
лес 8873
зарубежных 8873
Сва@@ 8870
чества 8870
á@@ 8870
сложно 8869
полная 8868
Аф@@ 8868
этапов 8868
российского 8867
открытый 8867
прошел 8865
сит 8864
левых 8864
музе@@ 8864
Вла@@ 8862
выходит 8862
проце@@ 8862
рыв 8861
подписание 8860
дними 8857
ленное 8857
ТУ 8852
удо@@ 8848
недавних 8845
продажу 8841
Эй@@ 8838
Государственный 8837
стические 8836
паро@@ 8835
ory 8835
ü@@ 8835
Христо@@ 8834
орби@@ 8833
гуа 8832
обратилась 8831
запуска 8830
19.@@ 8830
Югосла@@ 8829
перевести 8829
необходимый 8826
внешние 8826
местное 8824
месяцы 8823
приез@@ 8819
Соло@@ 8817
набира@@ 8816
обратились 8816
дя 8816
изба@@ 8813
машина 8813
ty 8810
Cor@@ 8809
вин 8809
ex 8809
справедливость 8808
совместном 8807
севере 8805
команда 8804
Доро@@ 8804
рила 8803
оказываются 8803
утром 8803
au 8803
Хам@@ 8802
госла@@ 8802
rin@@ 8801
able 8798
Средства 8796
Австра@@ 8795
leg@@ 8794
плю@@ 8793
Таджи@@ 8792
началась 8789
FI@@ 8789
дя@@ 8788
попа@@ 8788
удержа@@ 8788
параллельно 8788
gre@@ 8788
hi@@ 8786
НЫ@@ 8786
Ассамбле@@ 8785
годами 8784
останавли@@ 8783
фар@@ 8783
осужденных 8781
Ответственность 8780
ФК 8780
Торго@@ 8779
инди@@ 8778
Пока 8776
взяли 8773
ключе@@ 8773
зя@@ 8773
правосуди@@ 8773
признаки 8772
объединить 8772
ствен@@ 8772
уважа@@ 8770
струк@@ 8769
поис@@ 8767
туда 8764
культура 8761
í@@ 8761
дается 8761
конце@@ 8760
вец 8760
разница 8758
прием 8755
кноп@@ 8754
возросло 8754
тиче@@ 8753
оставшихся 8752
достиг@@ 8752
бая 8751
побо@@ 8751
Comp@@ 8751
стоян@@ 8749
Сайт 8749
Хор@@ 8744
вации 8743
видно 8743
падения 8742
яза@@ 8742
pri@@ 8736
обнародо@@ 8733
Условия 8729
450 8726
Прокуро@@ 8726
Гла@@ 8725
пои@@ 8724
ion 8723
телефону 8721
ального 8720
Первое 8719
ням 8718
семью 8718
билетов 8716
cri@@ 8716
квадра@@ 8715
Совершен@@ 8715
квартир 8712
финансово 8709
ящих 8706
каналов 8705
опубликованы 8701
нелега@@ 8701
любовь 8700
достиг 8698
Иностран@@ 8698
какими 8695
мского 8694
муниципальных 8694
мотиви@@ 8693
приоритет 8692
1,2 8692
оптимизации 8692
адвокат 8685
порта@@ 8685
Group 8684
дефек@@ 8684
автомобиль 8683
ев@@ 8681
ведомства 8681
расти 8679
гая 8679
ген 8679
больницы 8678
традиций 8678
ответить 8675
поте@@ 8674
ходами 8674
земля 8674
ree 8674
Государственного 8672
слом 8670
увели@@ 8669
немец@@ 8663
Год 8663
спонсо@@ 8659
природного 8659
pre@@ 8658
непосредственной 8657
подряд 8656
столицы 8656
запрещено 8653
Rep@@ 8653
паль@@ 8652
прохождения 8652
Три 8651
Казах@@ 8651
неправомер@@ 8650
жал 8649
чах 8647
Приднестров@@ 8647
вырос 8644
Концеп@@ 8637
здании 8634
зака@@ 8633
российской 8633
денежные 8632
живет 8631
голь@@ 8629
Gu@@ 8629
назвать 8628
дование 8627
силах 8625
длина 8624
отмене 8623
новей@@ 8623
.net 8621
вских 8615
дала 8614
дороге 8611
позна@@ 8609
третьим 8609
иллю@@ 8607
веден 8606
призван 8605
чайшие 8604
тре 8604
списа@@ 8602
tion@@ 8602
барь@@ 8601
сад 8598
стина 8598
специалистами 8598
вида@@ 8598
сердца 8596
самыми 8595
доступность 8594
16.@@ 8592
ГК 8592
Бор@@ 8591
® 8591
смотрен 8590
Государственной 8589
Утвер@@ 8588
ats 8588
тт 8587
Выбор 8584
кров@@ 8582
uc@@ 8581
шли 8576
реакции 8574
противополож@@ 8573
игра 8573
вского 8573
Неф@@ 8572
руководству 8572
знаков 8571
iPhone 8571
мышлен@@ 8568
вари@@ 8566
боры 8565
кухня 8565
последним 8560
графия 8560
евич 8559
помогли 8558
посвящен 8557
ислам@@ 8552
Оконча@@ 8552
лечеб@@ 8552
несо@@ 8548
единственной 8548
мошенничества 8548
изу@@ 8546
гала 8544
ловой 8542
земного 8541
разработали 8538
деятелей 8537
повыси@@ 8536
работки 8536
установка 8536
использовали 8535
позже 8534
завершил 8533
администрацией 8533
негативное 8532
Арм@@ 8532
изданий 8531
швед@@ 8530
рады 8530
регионы 8528
вшимися 8527
христи@@ 8527
состоялись 8526
близости 8526
несен 8524
подтверждают 8524
Бай@@ 8523
верну@@ 8523
рующий 8523
еженеде@@ 8522
эн 8521
слушания 8520
дача 8519
метеоро@@ 8519
страницах 8518
подписать 8517
res 8516
вязки 8516
land 8516
гера 8514
Вне@@ 8513
зией 8513
wh@@ 8512
сква@@ 8509
воспо@@ 8508
прика@@ 8507
New 8506
недействи@@ 8504
контакт 8501
тье 8500
похо@@ 8499
12,@@ 8499
гражданин 8496
IA 8496
впечатление 8495
депор@@ 8494
эффекта 8493
рабочим 8492
банд@@ 8491
ance 8488
введении 8485
str@@ 8485
физические 8482
ol 8479
аэропорту 8478
голы 8473
рованности 8473
собственную 8472
автомати@@ 8472
альной 8471
лове@@ 8470
сток 8468
призывы 8463
попытка 8463
шире 8463
договоренность 8463
уна 8457
Ветер 8456
Шко@@ 8455
Дву@@ 8455
происходят 8454
устройству 8452
группо@@ 8452
ica 8451
сожа@@ 8450
фло@@ 8449
стоят 8448
согласовать 8448
платежи 8448
АР 8448
штей@@ 8447
Обеспе@@ 8447
простра@@ 8446
федераль@@ 8444
непри@@ 8443
важная 8443
культуру 8442
пусть 8441
химической 8441
план@@ 8440
отелей 8440
предшествен@@ 8438
стон 8437
нежели 8437
сказано 8435
поезде 8435
столкнуться 8432
удво@@ 8430
БР@@ 8425
глав@@ 8425
нежела@@ 8424
процентной 8423
Эд@@ 8421
ous 8419
утверждать 8418
сообщ@@ 8416
Мемо@@ 8415
ого 8414
прошло 8414
ково 8414
Лит@@ 8414
уль@@ 8412
вред 8412
законодатель@@ 8412
водить 8412
прийти 8411
fin@@ 8411
жденные 8405
минимальный 8404
опасения 8403
свидетельство 8400
un 8400
Очень 8399
бки 8399
обратно 8398
память 8398
пропор@@ 8395
музей 8395
ненные 8394
столько 8393
раться 8393
статистика 8393
наоборот 8392
Компании 8391
автомобиля 8391
Конституционный 8390
настоящие 8389
посещение 8386
огромные 8383
йт 8383
добровольно 8382
225 8382
ограничении 8382
главные 8380
канад@@ 8380
сборе 8380
оформления 8380
енно 8379
Реали@@ 8379
ie@@ 8379
достигла 8378
помогут 8378
Im@@ 8378
списки 8373
Сумма 8373
начинает 8371
Вар@@ 8371
экземпля@@ 8371
исторических 8369
чувства 8367
ствующий 8366
связям 8366
таба@@ 8365
присутствии 8363
тело 8361
поздравить 8361
пусты@@ 8360
оказался 8359
Подоб@@ 8359
ранения 8358
www.k@@ 8358
Тали@@ 8357
эксплуа@@ 8356
Гене@@ 8356
нападение 8355
br@@ 8355
ницей 8354
Euro@@ 8353
вку@@ 8350
черно@@ 8350
заим@@ 8349
личными 8349
напротив 8348
Посе@@ 8345
опасные 8344
Результа@@ 8342
инвестиционной 8342
состави@@ 8340
отслеживать 8340
хоро@@ 8339
полити@@ 8336
меч@@ 8336
тального 8335
экземпляров 8335
зор 8330
раст@@ 8329
Nor@@ 8327
роки 8326
Бал@@ 8324
ъ 8324
обществу 8323
Пози@@ 8322
SS@@ 8322
ждают 8319
инфекции 8318
Au@@ 8316
ook 8316
недалеко 8315
enti@@ 8315
ути@@ 8315
дисципли@@ 8314
инновационных 8312
образа 8312
лагерей 8312
тов@@ 8310
раст 8308
глуб@@ 8307
учиться 8304
круп@@ 8304
1968 8303
ack 8303
Рус@@ 8303
заняться 8302
кля@@ 8302
гран@@ 8301
трас@@ 8301
проду@@ 8297
Россией 8297
излиш@@ 8297
движением 8297
НГ 8296
йной 8296
событие 8295
льно@@ 8295
выступлении 8294
ственность 8294
компьютеров 8292
era 8289
Специали@@ 8287
ресторан 8286
ТП 8284
сказали 8284
поста@@ 8284
рато@@ 8284
ИГ 8281
IT 8279
парламентских 8278
социо@@ 8278
вычай@@ 8278
ист@@ 8277
отец 8275
университетов 8275
военную 8272
обост@@ 8271
Br@@ 8271
ices 8270
чит 8267
регионам 8267
рской 8267
температуре 8265
ченном 8264
объяс@@ 8263
Демокра@@ 8263
коллекцию 8263
выделено 8262
will 8262
муд@@ 8261
Собра@@ 8260
торгов@@ 8256
родных 8255
Резолю@@ 8255
дисло@@ 8255
руках 8254
автомобильных 8253
Дар@@ 8252
erg@@ 8252
поручению 8251
перена@@ 8246
разработок 8245
Британ@@ 8245
корреспонден@@ 8245
сской 8244
исследовательского 8243
Открытие 8243
инициативой 8242
ледо@@ 8242
марок 8242
дет 8238
стади@@ 8238
надзору 8236
относиться 8234
привы@@ 8233
начнется 8229
опове@@ 8228
тру 8227
родственников 8225
согласен 8224
кв.@@ 8224
послужи@@ 8222
сена@@ 8221
od 8221
Те 8220
записа@@ 8220
шири@@ 8219
видим 8218
продлении 8218
Ожида@@ 8214
завершено 8213
выделенных 8211
Ав@@ 8209
кипр@@ 8209
кандидата 8206
разъя@@ 8206
вашим 8205
молодые 8204
коммерческого 8202
бюджетного 8201
угрожает 8201
Канцеля@@ 8200
поток 8198
теп@@ 8195
каналы 8195
пута@@ 8194
вро@@ 8193
Афгани@@ 8192
расходо@@ 8190
дро 8190
техни@@ 8190
вероятности 8189
мою 8189
смеша@@ 8189
up 8189
Прин@@ 8185
Стре@@ 8183
кнуть 8179
ведущие 8179
пр@@ 8179
фондо@@ 8178
внешне@@ 8177
рил 8176
Арен@@ 8172
Ат@@ 8170
русский 8168
поставку 8166
Посо@@ 8166
отбы@@ 8166
неров 8162
берг 8162
ong 8161
нанесен@@ 8157
Бюджет 8157
пытаются 8156
домой 8154
ws 8154
вну@@ 8151
отдельной 8151
некоторое 8149
весо@@ 8146
рон 8145
премии 8145
Роди@@ 8145
потоки 8142
упла@@ 8137
ссе 8135
саль@@ 8133
Vi@@ 8133
Авторы 8132
продление 8132
рец 8131
профсою@@ 8131
Самый 8127
видение 8126
гале@@ 8126
Бир@@ 8124
можешь 8123
Ада@@ 8122
архитектуры 8121
сопротивления 8120
Узбе@@ 8119
бурге 8117
средняя 8116
посмотреть 8115
путеше@@ 8111
объяснить 8111
Эксперт 8110
существовать 8109
расстрой@@ 8108
транспорте 8107
Коми@@ 8107
синте@@ 8105
лию 8104
типи@@ 8104
подать 8101
рекомендовали 8101
Ради@@ 8101
выноси@@ 8099
Спа@@ 8099
игроков 8094
360 8093
предварительные 8091
out@@ 8087
писать 8086
журнала 8084
новения 8083
участок 8083
каждую 8081
формата 8080
пользователям 8079
взглядов 8078
приви@@ 8077
здо@@ 8073
стройка 8073
американского 8068
Француз@@ 8065
взыска@@ 8062
лизм 8061
Стоимость 8061
университете 8060
ЛУ@@ 8059
стане 8059
следуют 8058
учете 8058
преступной 8058
Чу@@ 8058
оне@@ 8056
погашения 8056
прокурор 8055
зарубе@@ 8054
хлоп@@ 8054
Гала@@ 8054
перемен 8051
войне 8051
Главный 8049
откли@@ 8048
судно 8048
q 8046
общественность 8044
намерены 8044
медицины 8041
Федерального 8040
сход@@ 8039
жную 8039
яние 8038
продол@@ 8038
рек 8038
арестован 8038
осужден@@ 8037
деревен@@ 8036
показателем 8036
приватизации 8033
центри@@ 8032
оппози@@ 8031
Рост 8029
чник 8025
фильм 8024
продления 8023
февра@@ 8023
протя@@ 8022
считаю 8021
фера 8020
Площадь 8019
зен@@ 8018
союзе 8016
сборов 8015
Сити 8014
Южный 8012
наступа@@ 8011
столице 8010
государственное 8009
фирм 8007
рующим 8003
насчитывается 8000
ard@@ 7998
Цер@@ 7998
счастли@@ 7995
повлия@@ 7993
пило@@ 7992
йки 7989
Шар@@ 7987
государ@@ 7987
подзем@@ 7984
Хосе 7983
могу@@ 7979
чны 7978
Медици@@ 7978
Америка 7977
280 7977
хол@@ 7975
вавшие 7975
ир@@ 7974
увеличивается 7974
взял 7971
подъем@@ 7971
стое 7969
вшему 7967
смотре@@ 7966
сомнений 7965
неизбежно 7963
йные 7962
виртуаль@@ 7961
высшей 7959
ровкой 7958
размещены 7958
ary 7957
обнаружи@@ 7956
удосто@@ 7955
меняется 7954
online 7954
Тамож@@ 7953
блан@@ 7952
3,5 7949
ore 7949
вынести 7948
воспользо@@ 7947
учреди@@ 7946
Конгресса 7944
Плани@@ 7944
уверен 7942
секрета@@ 7942
Баку 7942
профессор 7941
определен 7940
порта 7940
парламенте 7939
Лай@@ 7937
куси@@ 7936
тивши@@ 7936
перенес@@ 7935
предприятиям 7934
Последнее 7932
тинской 7932
.06.@@ 7931
heal@@ 7930
погибли 7929
увеличилась 7928
веру 7927
боеприпа@@ 7926
книг 7925
ходили 7924
зим@@ 7922
оре@@ 7919
вмешательство 7917
дин 7917
пожа@@ 7915
достопримеча@@ 7915
тиви@@ 7913
желающие 7911
uk@@ 7910
Мексике 7910
оскорб@@ 7909
ленная 7909
БЕЛТА 7909
стиле 7907
министру 7904
несанкциони@@ 7901
высокое 7900
цифровой 7899
дным 7893
Вт 7893
сооружений 7893
игре 7891
самолетов 7891
дважды 7891
ый 7891
расчете 7890
получит 7889
живых 7887
линей@@ 7887
аналогичным 7887
генери@@ 7885
повышением 7885
исполнителей 7885
нологии 7885
лийский 7883
has 7882
20.@@ 7881
хии 7881
ухудшения 7881
защища@@ 7880
сде@@ 7878
единственный 7877
вступает 7877
ai 7874
Проблема 7873
вещания 7872
мерой 7871
властью 7869
Движение 7868
женным 7867
любо@@ 7866
номере 7866
готови@@ 7865
онов 7863
гола 7863
Изменения 7863
завое@@ 7862
[...]
