the 48891312
, 34378867
of 32314017
. 25366354
and 23474836
to 18870791
in 14345359
a 8839474
@-@ 8136324
) 7596648
( 7540247
for 7525332
: 7258718
/ 7071070
on 6901494
that 5949395
The 5589169
is 4721103
&quot; 4509322
with 4289543
by 4270581
as 3841021
be 3769102
; 2744871
or 2578868
are 2488955
at 2465079
was 2439144
its 2428577
from 2360714
an 2072404
United 1967726
not 1915079
it 1908917
which 1905486
&apos;s 1895670
- 1793819
1 1725827
have 1676381
this 1673439
* 1644126
their 1629040
Nations 1627636
has 1565571
In 1538365
all 1516099
will 1511630
Committee 1461177
2 1375862
General 1296990
been 1284129
also 1284059
A 1265336
had 1250126
other 1227992
States 1209675
international 1200598
were 1176068
3 1105205
should 1059892
development 1035471
countries 1012622
rights 966664
4 961556
would 955653
It 952680
I 944054
10 923128
report 889888
Council 887850
such 883697
information 861361
under 855768
including 844701
5 838255
you 832838
work 810421
national 792300
human 789317
S@@ 780843
# 767348
resolution 760311
more 747151
State 746687
can 741558
one 736863
6 733908
time 731162
12 715618
support 714475
women 699360
session 698618
Assembly 690762
7 682772
into 681911
ation 672816
Convention 658414
they 657443
new 657351
made 654406
system 652435
11 652401
? 649256
8 635162
T@@ 633744
00 632543
implementation 630641
his 625863
between 624930
any 623013
activities 620862
well 616953
15 607840
Government 605666
International 597250
out 595613
Commission 591890
shall 588398
per 585320
Secretary 582128
9 580912
those 579025
against 575430
but 574275
through 572773
may 568903
country 565201
C@@ 563871
This 561922
we 558089
P@@ 555862
up 554127
meeting 549943
Republic 546431
who 546119
law 545202
use 535450
&#93; 531264
our 524057
number 522962
20 518758
these 518530
in@@ 518345
14 512959
there 509892
re@@ 504119
only 504032
measures 503777
R@@ 501566
b 501416
no 499453
16 499210
economic 493680
30 490845
than 489456
$ 489390
cooperation 487392
organizations 487318
2@@ 486899
C 484614
13 484347
programme 484211
3@@ 483307
A@@ 481059
people 479171
M@@ 478081
them 477069
paragraph 476368
he 476053
first 475988
&#91; 475727
about 475489
two 474415
level 471303
security 470991
+ 470388
18 464858
.@@ 464752
children 462656
un@@ 462260
Conference 459905
D@@ 459703
order 452308
L@@ 450736
your 449035
E@@ 447943
21 447842
services 446348
17 445948
N@@ 443231
G@@ 441752
Mr. 440975
cent 436710
years 436515
regional 435743
i 432715
May 432238
non 431514
draft 429702
provide 429456
22 428366
year 427607
resources 427525
Group 425352
2009 425251
issues 425222
process 424580
some 423878
4@@ 422410
19 422255
within 422254
Development 422044
so 421506
efforts 420638
d@@ 420468
social 420204
need 418831
article 417908
Security 417872
public 417857
could 417816
if 417476
Rights 416973
25 413565
during 409902
&apos; 407340
provided 406746
right 406172
I@@ 405524
H@@ 403984
members 403585
&gt; 403283
ensure 402302
December 400665
financial 400421
further 395045
K@@ 394636
2008 394540
E 393865
k@@ 393370
O@@ 392830
0@@ 391310
We 391282
2010 390845
take 390032
F@@ 387476
23 385532
following 385202
assistance 384953
B@@ 384120
ations 381991
decision 380559
based 379250
c 374522
period 373421
held 372831
over 372293
must 371594
al 371393
related 371306
particular 370045
Human 369912
most 369097
being 367849
party 366541
management 365731
24 363855
when 362529
http 361110
now 358212
persons 358109
part 357172
areas 356627
2011 354700
5@@ 354121
relevant 352107
= 351993
view 351545
health 350895
programmes 349361
ated 347529
2012 346549
6@@ 345566
President 344838
S 344216
2006 343400
e 343226
As 342770
Office 342462
do 342149
June 341272
Special 340811
legal 339839
said 339574
developing 339500
where 339466
V@@ 339161
s 338107
world 338007
ate 335852
adopted 335348
political 334916
2007 333410
At 332689
data 328405
education 327902
26 327753
staff 326068
action 325936
many 324777
31 324426
taken 322578
policy 322522
able 321293
2005 320967
27 320849
o 320783
training 320248
9@@ 320202
2016 318965
protection 315071
% 314364
p@@ 312509
W@@ 312363
after 311517
accordance 311473
set 309454
review 308845
2013 308329
regard 308197
7@@ 307969
situation 307387
us 307050
es 307012
same 306196
important 305338
d 304767
both 304655
parties 303682
special 303512
28 303445
access 302652
make 301137
used 300896
ating 300279
UN@@ 299780
agenda 299643
P 299294
case 298535
8@@ 296215
capacity 296172
AM 296138
possible 294102
established 293347
July 293273
... 292689
On 292464
among 292367
see 292314
Con@@ 292026
European 291173
m 291091
November 290068
effective 289851
place 289593
29 289193
For 288624
before 288444
reports 288178
U@@ 287603
s@@ 286902
National 285836
continue 285803
community 285427
peace 285071
region 284298
1@@ 284222
Programme 284007
present 283407
available 283309
October 282374
In@@ 282245
Organization 280492
To 280307
recommendations 280024
&lt; 279702
respect 279675
technical 279660
working 279217
September 278818
Working 277535
necessary 276730
Parties 275720
area 275007
_ 274379
en@@ 274310
three 273556
basis 272821
y@@ 272207
o@@ 271231
Pro@@ 270051
without 269972
z@@ 269071
PM 268765
01 268277
building 267595
each 267187
high 267004
item 266962
World 266484
March 266465
ing 265880
t@@ 264097
role 263672
end 261586
c@@ 260927
cases 260727
Member 260591
04 260377
m@@ 259366
al@@ 258469
50 257285
2004 256159
! 255218
global 255038
progress 254866
Phone 254584
since 254436
02 253516
appropriate 252731
general 252705
provisions 252024
group 251740
nuclear 250493
groups 250422
Economic 249655
local 249100
full 248727
03 247942
06 247497
R 246519
way 246496
Board 245687
B 245110
i@@ 244884
de 244523
He 244226
v@@ 243934
D 243635
million 243365
project 243197
January 242923
Russian 242831
currently 242102
institutions 241995
requirements 240552
New 240225
April 239051
tions 238847
Africa 238809
trade 238798
05 238041
g@@ 236681
meetings 236144
requested 236110
specific 234777
very 234576
account 234451
budget 233781
u@@ 232407
considered 232247
violence 232099
include 232005
document 231540
e@@ 230054
conditions 230035
noted 230005
service 228691
If 228254
2014 227743
Social 227701
issue 227055
policies 226720
consideration 226337
increase 225976
Article 224343
field 223140
while 222273
authorities 221905
2003 221876
40 221532
upon 221016
2000 220834
needs 220023
what 219691
required 219384
age 218616
proposed 218380
South 218059
second 217836
developed 217787
07 217771
am 217658
gender 217594
current 216716
like 216582
sector 216095
g 215780
08 215637
concerned 215341
how 215002
19@@ 214927
ting 214849
various 214829
control 214807
bodies 214557
n@@ 214470
her 214318
framework 213827
2015 213399
systems 212753
submitted 212752
2002 212725
There 212653
my 211929
a@@ 211603
term 210991
09 210802
delegation 209674
f@@ 209663
future 209488
different 209050
participation 208737
ad@@ 208135
projects 207759
above 207757
given 207306
0 207304
water 207253
F 206838
private 206720
means 206690
African 206318
Court 206289
an@@ 206158
society 205091
Z@@ 205005
dis@@ 204545
military 204029
Re@@ 203848
r@@ 203594
life 202363
ar@@ 202213
No. 201843
plan 201789
addition 201732
b@@ 201686
continued 201481
particularly 201238
2001 201067
t 199927
sustainable 199833
total 199658
j@@ 199474
address 199408
Union 198793
www.@@ 198789
zation 198678
August 198586
because 197748
importance 196990
results 196565
February 196407
additional 196326
population 196270
or@@ 196138
levels 196111
However 195806
free 195160
Fund 194826
note 194598
M 194140
im@@ 193970
Ministry 193396
representatives 193220
15@@ 193005
member 192876
land 192687
promote 192196
er@@ 192040
long 191890
2.@@ 191785
at@@ 191737
conflict 191093
production 190896
II 190681
change 189831
v 189580
form 189574
h@@ 189400
Women 189095
sub@@ 188673
discrimination 188615
All 188398
O 188354
concerning 187914
48 187716
1998 187143
Law 186536
1.@@ 186156
Department 185722
force 185418
L 185062
even 184882
32 184744
l@@ 184728
operations 184432
° 184417
di@@ 184216
result 183992
child 183599
1999 183577
organization 183075
civil 182951
18@@ 182925
agreed 182744
ed 182518
IS@@ 182015
16@@ 181911
agencies 181650
it@@ 181619
Protocol 181384
police 181180
status 180346
did 179153
received 179064
Action 178918
k 178855
1995 178825
day 178822
33 178724
Posted 178689
request 178525
ates 178374
major 177899
er 177761
governmental 177467
35 177422
own 177187
legislation 177147
Secretariat 177068
en 176765
u 176669
14@@ 176525
Ex@@ 176509
ts 176146
application 176026
humanitarian 175604
environmental 175539
whether 175446
attention 175149
person 174705
resolutions 174631
government 174351
secretariat 174142
49 174009
impact 173494
does 173351
main 173214
Governments 173170
They 173126
quality 173118
Affairs 173069
ri@@ 172740
third 171891
fully 171850
Act 171785
context 171778
found 171711
towards 171698
li@@ 171359
ative 171238
making 171193
de@@ 170941
1997 170676
1994 170425
standards 170241
representative 169964
contained 169781
then 169393
ex@@ 169338
existing 169180
En@@ 169127
monitoring 169027
RE@@ 168967
approach 168726
good 168434
him 168361
question 167781
included 167511
personnel 167178
family 167177
establishment 166979
environment 166777
business 166513
market 165590
consider 165489
equipment 165380
costs 165346
Mission 164798
1996 164574
poverty 164348
line 164202
state 164120
20@@ 164063
weapons 163474
example 163373
subject 163223
terms 163216
inter@@ 163163
45 163062
position 162724
13@@ 162611
due 162426
technology 162282
procedures 162249
energy 162099
small 161926
men 161915
last 161763
th@@ 161523
Party 161236
IC@@ 161113
ab@@ 161098
ment 161054
You 160988
Y@@ 160972
am@@ 160953
60 160761
These 160668
increased 160616
st@@ 160200
fact 159967
amount 159862
therefore 159780
34 159392
provision 159338
help 159278
especially 159245
concern 159192
as@@ 158957
date 158520
rules 158347
Europe 158290
treatment 158183
Rapporteur 158099
G 157961
n 157814
IN@@ 157779
relating 157737
expressed 157706
L.@@ 157696
51 157558
mandate 157488
6.@@ 157469
ers 157464
Kazakhstan 157177
still 157085
problems 156486
agreement 156467
High 156403
several 156279
list 155979
Executive 155585
taking 155505
tion 155471
36 155427
ic@@ 155418
ted 155354
annex 155079
With 154941
cost 154851
reporting 154609
J@@ 154583
statement 153966
x 153959
care 153958
domestic 153444
37 153390
took 153331
-- 152947
regarding 152553
criminal 152417
Minister 152269
EN@@ 152228
17@@ 152149
ti@@ 151469
best 150988
CE@@ 150851
Declaration 150850
And 150539
provides 150481
Sub@@ 150251
documents 150223
52 150007
principles 149996
already 149802
called 149435
alization 149315
55 149161
improve 149048
EC@@ 148138
key 148085
para 147439
reported 147396
file 147386
r 147079
38 147046
f 147004
Reply 146990
comprehensive 146705
justice 146528
25@@ 146480
least 146181
th 146122
transport 145734
decisions 145595
coordination 145522
10@@ 145103
44 144970
39 144937
3.@@ 144893
risk 144625
on@@ 144255
si@@ 144176
me 144154
ant 144039
C.@@ 143841
official 143706
X@@ 143668
open 143601
providing 143560
responsibility 143505
con@@ 143318
41 143299
ent 143268
Report 143189
entitled 143094
implement 142905
&amp; 142769
power 142636
Service 142294
procedure 142235
assessment 141839
practices 141809
large 141754
decided 141442
common 141438
foreign 141006
ir@@ 140870
addressed 140815
cultural 140713
growth 140620
57 140620
als 140314
5.@@ 139940
obligations 139789
section 139654
42 139641
Russia 139544
mechanisms 139481
post 139162
l 139120
47 138626
Bank 138452
pre@@ 138243
inter 138214
OF 138212
ha@@ 137914
pro@@ 137786
every 137653
develop 137515
THE 137492
IT@@ 137446
response 137117
just 136958
days 136880
y 136818
strengthen 136706
4.@@ 136652
adoption 136482
Al@@ 136448
become 136401
funds 136393
America 136364
China 136357
using 136282
Israel 136200
ance 136041
mission 135922
53 135847
54 135625
light 135520
43 135416
next 135402
em@@ 135283
58 135195
59 134966
46 134771
recent 134752
certain 134693
armed 134499
actions 134267
ding 134228
food 134174
rate 134158
Central 134152
four 133996
less 133913
significant 133741
T 133634
Arab 133456
research 133219
ro@@ 133142
Federation 133111
five 133095
100 132988
might 132960
AT@@ 132466
together 132443
another 131997
Centre 131863
point 131850
indigenous 131677
es@@ 130404
p 130392
follow 130062
products 130036
Other 129686
ability 129625
AL 129447
ac@@ 129389
trans@@ 129247
Palestinian 129233
carried 129197
56 129096
better 129059
administrative 129019
Information 128992
1993 128936
form@@ 128881
space 128665
contributions 128663
@ 128532
ag@@ 128440
however 128183
regular 128142
ch@@ 128139
individual 128105
practice 127969
East 127839
strengthening 127831
Advisory 127664
integration 127489
rule 127365
Chairman 127297
company 127103
sp@@ 126994
victims 126796
employment 126763
approved 126711
challenges 126620
performance 126597
per@@ 126549
ar 126393
UNDP 126361
2017 126331
organized 126285
below 126100
give 125974
interest 125824
zed 125331
analysis 125325
acts 125317
Com@@ 124841
zing 124826
forces 124590
establish 124275
il@@ 123955
investment 123938
according 123760
h 123745
planning 123387
experience 123134
informed 123112
Code 122976
annual 122960
problem 122915
purpose 122650
missions 122645
consultations 122503
ational 122013
strategy 121895
ze 121528
lack 121301
income 121094
office 120925
act 120891
CO@@ 120412
she 120237
meet 120225
value 120194
much 120190
times 120113
over@@ 120108
joint 119911
needed 119087
responsible 119044
facilities 118773
Director 118665
Asia 118570
prepared 118557
body 118504
property 118360
st 118261
7.@@ 118180
fication 118088
x@@ 118074
ms 118001
.com 117787
During 117745
dated 117710
agreements 117551
UN 117436
recommended 117362
um 117261
discussion 117249
commitment 117209
behalf 117205
experts 117194
But 116748
wipe 116682
months 116625
city 116580
safety 116541
initiatives 116535
&apos;t 116334
matters 116282
dialogue 116148
course 116059
great 116021
matter 115856
ings 115789
changes 115714
Representative 115693
priority 115646
H 115575
exchange 115426
text 115374
living 115357
III 115336
Annex 115332
Geneva 115262
site 115206
direct 114756
While 114742
peoples 114719
expected 114714
prevention 114672
presented 114510
previous 114411
natural 114347
plans 114312
terrorism 114276
early 114255
se 114129
knowledge 113928
laws 113827
violations 113769
involved 113724
equality 113719
el@@ 113601
proposal 113597
instruments 113565
8.@@ 113544
focus 113511
man 113404
One 113316
z 113297
Meeting 113128
active 113083
ol@@ 113075
promotion 113007
forms 112897
aimed 112867
go 112787
reform 112777
disarmament 112769
media 112560
atory 112554
ally 112543
posts 112452
type 112426
air 112382
prevent 112284
proposals 112205
requests 112123
partners 112092
nature 111895
put 111800
supported 111346
potential 111312
study 111234
steps 111164
reduction 111109
Covenant 110819
clear 110809
communication 110762
Agreement 110714
Iraq 110479
led 110457
Ms. 110109
reference 109972
ap@@ 109865
basic 109598
test 109562
crime 109554
stated 109546
ER@@ 109472
trafficking 109099
past 109013
30@@ 108952
ator 108935
That 108905
issued 108594
operation 108583
know 108442
funding 108403
committed 108262
implemented 108088
range 107812
des 107799
objectives 107722
having 107701
Ukraine 107673
serious 107651
author 107645
thus 107613
ants 107540
treaty 107519
low 107354
self 107128
achieve 106972
language 106972
compliance 106951
often 106881
ECE 106809
V 106774
Ad@@ 106754
authority 106714
effect 106626
statements 106565
Foreign 106399
come 106398
sh@@ 106378
principle 106325
63 106299
equal 106288
65 106257
ul@@ 106252
implementing 106041
ements 105970
court 105916
others 105905
According 105757
connection 105615
conference 105421
operational 105372
greater 104982
school 104886
until 104869
is@@ 104595
lo@@ 104577
sexual 104556
Ac@@ 104543
Dis@@ 104450
12@@ 104429
HIV 104014
Kingdom 103835
communities 103672
promoting 103648
name 103635
bi@@ 103549
notes 103476
arms 103458
Trade 103382
strategies 103362
W 103344
affected 103267
table 103174
back 103144
peacekeeping 103062
workers 103019
facilitate 102965
material 102940
yet 102915
9.@@ 102825
activity 102816
strategic 102656
Criminal 102542
awareness 102361
limited 102338
Ar@@ 102307
ages 102186
co@@ 101995
questions 101967
processes 101633
US 101571
Management 101558
economy 101537
sion 101526
Division 101444
64 101420
room 101389
26@@ 101368
ement 101336
Agenda 100993
ways 100936
An 100830
Treaty 100601
opportunity 100589
aspects 100478
AN@@ 100446
understanding 100440
adequate 100374
offices 100250
find 100242
De@@ 100158
functions 100138
St@@ 100138
former 99978
00@@ 99971
independent 99829
goods 99606
.1 99589
opportunities 99515
el 99494
arrangements 99452
evaluation 99399
essential 99348
par@@ 99270
Constitution 99261
ed@@ 99236
Commissioner 99214
participants 98943
Permanent 98666
territory 98599
Armenia 98495
biennium 98488
AIDS 98463
regions 98386
preparation 98355
medical 98294
referred 98240
Inter@@ 98222
ments 98143
te@@ 98025
ter 97973
officials 97886
ensuring 97837
financing 97748
war 97744
detention 97673
wish 97608
undertaken 97380
articles 97370
guidelines 97353
Germany 97309
events 97280
61 97255
delegations 97220
climate 97203
materials 97184
increasing 97068
individuals 96993
Forum 96991
cannot 96919
infrastructure 96832
paragraphs 96787
transfer 96684
far 96547
higher 96545
ur@@ 96516
items 96413
w@@ 96407
freedom 96367
AM@@ 96329
assist 96240
down 96198
ency 96100
Agency 96088
done 95960
ality 95950
recognized 95830
judicial 95741
80 95647
York 95619
labour 95526
final 95509
His 95483
companies 95410
U 95324
France 95144
hours 95141
whole 95115
Global 95035
ES@@ 95026
wide 94945
Tribunal 94916
conducted 94685
recommendation 94390
contribute 94061
views 93974
crisis 93928
ent@@ 93921
around 93761
today 93686
mentioned 93646
directly 93555
conduct 93550
works 93513
negotiations 93476
relations 93340
om@@ 93326
Plan 93206
When 93122
benefits 93086
Belarus 92964
Cooperation 92902
six 92875
pursuant 92804
informal 92778
enhance 92649
ak@@ 92617
torture 92574
comm@@ 92563
0.@@ 92522
28@@ 92479
Public 92475
under@@ 92415
te 92204
se@@ 92173
forum 92161
construction 92144
Justice 91919
integrated 91912
protect 91862
team 91813
IS 91696
vehicle 91523
enable 91509
et 91493
AR@@ 91425
ses 91407
citizens 91392
ec@@ 91357
internal 91347
Charter 91344
A. 91229
62 91151
here 91116
rates 90989
mechanism 90942
create 90700
ot@@ 90653
N 90638
young 90584
overall 90536
Institute 90328
Democratic 90310
manner 90242
goals 90123
ad 90120
tive 90118
mo@@ 89909
close 89896
sions 89789
fundamental 89786
page 89763
contribution 89728
girls 89728
ly 89643
&apos;@@ 89490
old 89489
visit 89462
Some 89367
Regional 89304
positive 89248
alized 89229
Mobile 89192
points 89174
pm 89173
27@@ 89130
allow 89046
evidence 88957
ans 88857
get 88823
Dec@@ 88791
administration 88789
us@@ 88761
approval 88573
remain 88562
ic 88486
capital 88457
letter 88414
ine 88376
submit 88373
participate 88366
actual 88340
purposes 88335
reduce 88317
CH@@ 88313
indicated 88283
AC@@ 88253
Japan 88249
Since 88147
ary 88126
ST@@ 88076
о@@ 88033
sources 87990
No 87949
ren@@ 87850
Review 87843
officers 87833
share 87791
rural 87788
American 87644
refugees 87487
God 87476
sessions 87473
effects 87471
Under 87336
.org 87241
AD@@ 87141
regulations 87114
standard 86971
Implementation 86906
Israeli 86851
event 86831
People 86791
structure 86763
enti@@ 86695
itself 86544
side 86534
includes 86521
expert 86471
communications 86427
Protection 86365
su@@ 86232
keeping 86115
technologies 86009
few 85971
formal 85923
complete 85870
play 85826
ge@@ 85596
concerns 85571
created 85496
exercise 85432
gas 85420
identified 85350
crimes 85346
return 85345
forward 85345
off 85204
again 85193
real 85184
90 85180
alia 85173
industry 85089
strong 85039
call 85024
K 85017
67 84903
Canada 84831
whose 84657
70 84587
66 84580
Force 84549
out@@ 84547
ended 84494
methods 84424
ethnic 84341
ical 84261
X 84153
provisional 84116
е@@ 84040
1992 83971
elements 83853
ov@@ 83649
Di@@ 83611
there@@ 83610
design 83573
apply 83474
lead 83466
What 83362
enforcement 83344
achieved 83318
recommends 83261
applied 82964
primary 82843
remains 82792
Support 82694
UNO@@ 82682
bring 82654
res 82616
comments 82562
fy 82487
throughout 82397
Health 82383
ents 82298
Panel 82157
Add.@@ 81950
commitments 81721
ological 81683
objective 81455
art 81454
ci@@ 81390
First 81385
vi@@ 81379
ev@@ 81274
death 81261
revised 81050
always 80998
entities 80839
fourth 80753
efficiency 80690
Non 80595
centres 80544
border 80484
committee 80473
families 80349
vote 80232
Environment 80199
introduced 80156
words 80032
resource 80013
Ch@@ 79855
receive 79825
proceedings 79813
ne@@ 79786
TI@@ 79783
circumstances 79780
parts 79704
interests 79696
elections 79640
Section 79439
delivery 79437
institutional 79413
indicators 79388
met 79348
operating 79346
oil 79298
invited 79281
ity 79239
network 79216
Min@@ 79167
improving 79163
either 79140
sectors 79092
Millennium 79056
ob@@ 78999
maintenance 78962
29@@ 78866
outcome 78846
multilateral 78845
CC@@ 78658
Services 78529
po@@ 78330
designed 78258
By 78228
gu@@ 78187
vehicles 78099
read 78072
brought 77996
similar 77934
а@@ 77916
signed 77866
After 77843
hand 77807
religious 77801
discussed 77801
follows 77793
schools 77733
OR@@ 77691
mi@@ 77677
developments 77599
statistics 77595
IV 77287
road 77229
themselves 77090
travel 76954
India 76952
op@@ 76944
periodic 76895
com@@ 76884
kind 76787
discussions 76762
Sudan 76735
transition 76701
benefit 76681
require 76638
ES 76631
urban 76539
Summit 76375
Par@@ 76334
US@@ 76234
ongoing 76180
supply 76089
housing 76023
program 75971
face 75930
ons 75923
critical 75857
English 75837
,@@ 75810
pay 75753
ded 75717
prior 75700
drug 75689
ing@@ 75668
ati@@ 75659
associated 75600
claims 75562
Such 75525
ties 75492
initiative 75488
difficult 75456
mental 75382
ure 75366
km 75355
distribution 75352
Sh@@ 75310
av@@ 75254
substantive 75125
effectively 75108
ter@@ 75034
Regulation 74993
scale 74835
ali@@ 74782
outside 74746
68 74743
estimated 74648
once 74620
fifty 74608
ov 74607
URL 74605
Also 74584
75 74583
Administrative 74578
ni@@ 74534
welcomed 74404
physical 74383
AND 74365
source 74320
UNCTAD 74308
40@@ 74179
EU 74154
Gu@@ 74142
UNICEF 74128
settlement 74123
pl@@ 74071
Joint 73998
press 73816
contact 73679
UR@@ 73678
Ser@@ 73631
central 73621
scope 73612
et@@ 73559
series 73485
.php 73484
TRANS 73433
relation 73358
respective 73311
states 73283
Internet 73264
centre 73233
ty 73169
mass 73154
effectiveness 73129
т@@ 73047
2,@@ 73019
units 72968
located 72936
known 72868
AS@@ 72784
50@@ 72753
effort 72737
legislative 72638
qu@@ 72628
um@@ 72619
hold 72600
Unit 72587
alities 72573
asked 72564
creation 72562
guidance 72534
single 72511
balance 72472
size 72389
ut@@ 72373
applicable 72291
le@@ 72214
priorities 72181
paid 72164
le 72088
amendments 72081
offer 72037
Children 71900
Cor@@ 71784
ds 71718
defined 71713
home 71711
Korea 71697
situations 71658
combat 71631
server 71613
solution 71611
1990 71578
1991 71493
price 71393
average 71377
itation 71366
rather 71350
assets 71224
co 71090
CON@@ 71074
governance 71040
ism 71033
Political 71029
want 71026
for@@ 71024
detailed 71008
ON@@ 70953
Y 70953
intergovernmental 70904
University 70803
courts 70766
tical 70763
Pacific 70761
Deci@@ 70746
ru@@ 70681
French 70617
att@@ 70553
specialized 70542
extent 70528
ground 70484
Our 70473
Islamic 70458
Li@@ 70440
os 70430
Me@@ 70421
payment 70420
Education 70370
Civil 70359
billion 70316
ors 70295
и@@ 70214
educational 70160
paper 70147
to@@ 70115
77 70111
types 70042
collaboration 69987
ten@@ 69953
Q@@ 69830
permanent 69787
personal 69642
Room 69511
culture 69421
.ru 69398
Im@@ 69365
She 69273
debt 69254
peaceful 69210
practical 69182
uni@@ 69120
Trans@@ 69109
later 69067
ay@@ 69030
Iran 68999
stakeholders 68978
stage 68970
ous 68953
positions 68951
TR@@ 68901
Item 68804
Federal 68800
B. 68780
no@@ 68769
net 68716
completed 68675
opinion 68338
poor 68288
collection 68204
Turkey 68116
category 68024
200 67984
civilian 67936
re 67812
An@@ 67744
short 67728
GR@@ 67724
UNEP 67552
entry 67548
ship 67504
investigation 67500
Italy 67357
demand 67354
money 67347
establishing 67293
ence 67268
sts 67245
start 67211
etc 67191
initial 67180
external 67168
product 67145
teenth 67136
continues 67135
scientific 67086
identify 67072
sed 66967
traditional 66962
voluntary 66961
trial 66930
Furthermore 66925
too 66823
North 66659
end@@ 66654
Moscow 66616
along 66616
Azerbaijan 66605
reached 66562
sk 66560
ators 66502
For@@ 66450
Sustainable 66415
minimum 66401
universal 66347
RC 66330
sec@@ 66278
fifth 66262
Crime 66253
house 66252
professional 66249
Ab@@ 66230
head 66159
der 66123
responsibilities 66107
Peace 66066
sent 65920
improved 65911
mm 65872
majority 65808
ari@@ 65701
beginning 65677
West 65674
carry 65674
WP.@@ 65650
leading 65605
ering 65560
ite 65522
ah 65489
build 65477
ina 65434
leaders 65418
Regi@@ 65320
step 65304
core 65302
efficient 65265
seen 65232
emergency 65190
task 65177
continuing 65166
zone 65144
reasons 65106
factors 64997
anti 64965
be@@ 64835
73 64807
95 64780
website 64776
Afghanistan 64737
lines 64722
calls 64697
model 64671
hotel 64662
violation 64624
acc@@ 64558
Add.1 64513
stability 64495
10.@@ 64462
intended 64458
economies 64454
supporting 64409
consultation 64345
au@@ 64232
achieving 64203
aim 64202
month 64181
Mar@@ 64166
UNHCR 64158
Mexico 64129
covered 64062
ii 64019
content 63985
atic 63966
AS 63941
version 63936
Second 63932
aid 63919
-@@ 63860
successful 63835
coming 63821
obligation 63773
reach 63733
agency 63719
abuse 63683
Chair 63678
partnership 63676
multi@@ 63628
Joined 63617
CN.@@ 63617
From 63608
software 63514
half 63465
live 63402
contract 63401
say 63391
dec@@ 63351
criteria 63289
rec@@ 63208
function 63182
a.@@ 63067
Car@@ 63044
across 63018
pos@@ 62976
believe 62956
serve 62917
possibility 62847
published 62840
Caribbean 62835
1,@@ 62827
10H 62821
Su@@ 62799
Po@@ 62769
sufficient 62759
adopt 62739
Discrimination 62670
bilateral 62668
jurisdiction 62638
studies 62537
Vienna 62500
students 62487
addressing 62470
TS 62447
election 62421
left 62409
produced 62407
fund 62387
Au@@ 62290
ev 62282
concluded 62233
cover 62208
encourage 62148
ade 62116
Association 62092
threat 62063
pres@@ 62022
regime 62015
Netherlands 61956
twenty 61948
added 61930
news 61922
racial 61850
Proc@@ 61846
determination 61812
lower 61723
youth 61719
claim 61700
Mi@@ 61567
Bureau 61557
69 61525
P.@@ 61521
emissions 61424
compensation 61390
industrial 61388
described 61377
planned 61371
Th@@ 61369
values 61316
shown 61151
vulnerable 61139
Sec@@ 61137
placed 61070
me@@ 61054
goal 61024
although 61002
sing 60988
encounter 60987
oc@@ 60975
soon 60937
ka 60833
IC 60777
Draft 60754
conferences 60748
users 60713
Countries 60617
encouraged 60556
maintain 60551
markets 60445
complex 60430
Technical 60398
ps 60369
tor 60330
Un@@ 60324
success 60273
System 60250
pressure 60234
Transport 60232
Congo 60116
solutions 60060
Cuba 60022
consensus 59912
debate 59899
raised 59829
presence 59828
appreciation 59772
man@@ 59757
requires 59754
Recalling 59735
Mo@@ 59718
commercial 59704
IM@@ 59688
maximum 59595
Latin 59528
displaced 59497
red 59496
movement 59483
Australia 59428
af@@ 59419
treaties 59350
applications 59328
sure 59283
languages 59231
suggested 59135
Disarmament 59072
hope 59038
electronic 59031
Mal@@ 59009
Although 58946
station 58938
Ireland 58935
ession 58872
tools 58800
ving 58771
uses 58764
useful 58746
Child 58722
specified 58703
deal 58638
proliferation 58617
determined 58584
den@@ 58460
authorized 58447
takes 58430
clearly 58344
judges 58341
NGOs 58330
Syrian 58324
categories 58307
sub 58276
Rec@@ 58269
Moreover 58263
Spain 58260
improvement 58257
Rev@@ 58193
reflected 58183
Administration 58146
bank 58106
prepare 58075
history 58074
recently 58052
p.m. 58027
agricultural 58025
temporary 57981
deployment 57966
phase 57956
loss 57939
avoid 57894
longer 57825
leave 57809
written 57800
ago 57771
show 57737
elected 57704
ID@@ 57685
Windows 57670
terrorist 57652
Unknown 57642
mis@@ 57605
ned 57563
remained 57540
beyond 57505
har@@ 57445
IL@@ 57426
ture 57395
away 57383
Headquarters 57353
fr@@ 57332
fuel 57314
word 57313
OP@@ 57281
Policy 57266
38@@ 57262
mind 57248
export 57232
Brazil 57217
registration 57182
Fac@@ 57157
independence 57131
submission 57114
PR@@ 57111
observations 57101
consistent 57050
My 56995
stressed 56955
growing 56939
El 56905
ve 56894
online 56879
resulting 56862
disabilities 56788
actors 56721
places 56682
seek 56664
plenary 56645
72 56608
utili@@ 56548
pe@@ 56547
ai@@ 56521
aries 56519
represented 56502
top 56377
EM@@ 56377
Goals 56358
origin 56341
topic 56340
Table 56335
compared 56323
finance 56315
mobil@@ 56315
Georgia 56300
speed 56266
diversity 56226
300 56214
sea 56206
Middle 56161
Hotel 56078
Persons 56062
aged 56039
he@@ 56009
target 55928
Switzerland 55871
dem@@ 55850
ats 55731
Page 55702
approaches 55698
monitor 55676
Prevention 55648
rev@@ 55642
How 55634
updated 55552
UNECE 55537
statistical 55466
Pe@@ 55462
cause 55424
tr@@ 55349
location 55333
came 55322
forest 55295
likely 55130
consequences 55091
sharing 55051
Peace@@ 55047
mod@@ 55033
appeal 55025
Develop@@ 54989
ge 54971
recovery 54934
Optional 54933
concept 54924
host 54893
destruction 54885
Community 54858
Legal 54853
Provi@@ 54844
instrument 54832
COMM@@ 54790
king 54740
sixth 54700
advice 54691
rooms 54639
rise 54631
options 54628
involving 54623
Egypt 54553
н@@ 54540
prison 54536
reason 54518
focused 54512
leadership 54496
look 54484
Experts 54458
modern 54437
skills 54340
ya 54325
relationship 54308
analy@@ 54245
hor@@ 54238
weapon 54227
sixty 54209
Deputy 54194
base 54178
message 54161
fying 54117
Coordination 54090
Western 54084
illegal 54063
implications 54006
harmoni@@ 53997
Norway 53973
12.@@ 53971
fore@@ 53949
unit 53904
offers 53820
fields 53743
Requests 53710
reduced 53704
ou@@ 53698
ATION 53692
gi@@ 53679
au 53667
fac@@ 53603
Wel@@ 53445
Police 53437
documentation 53429
por@@ 53401
alternative 53342
FOR 53335
Please 53287
definition 53235
allowed 53198
enterprises 53123
Ho@@ 53116
500 53093
Pakistan 53089
components 53081
ancement 53059
why 53044
up@@ 52989
conflicts 52956
ending 52953
separate 52951
ju@@ 52936
AC.@@ 52886
prices 52865
respond 52823
contains 52793
hi@@ 52777
ples 52763
CD@@ 52736
ID 52733
é 52718
rence 52710
sibility 52590
duty 52546
OS 52507
Energy 52501
fight 52487
dic@@ 52485
ninth 52475
actively 52473
e.g. 52460
almost 52449
near 52433
inform 52433
sk@@ 52426
caused 52380
going 52362
measure 52275
standing 52273
tic 52264
11.@@ 52264
competent 52230
registered 52223
Poland 52186
processing 52142
achievement 52129
stations 52083
23@@ 52068
Bi@@ 52012
conclusion 51992
keep 51938
sy@@ 51934
Elimination 51901
vision 51887
ness 51830
workshop 51822
71 51786
highest 51708
cross 51701
Labour 51676
Ap@@ 51643
Princi@@ 51629
seventh 51603
forced 51593
Great 51585
expenditure 51582
sanctions 51582
3,@@ 51577
democratic 51511
Ro@@ 51510
launched 51491
Al 51466
highly 51426
safe 51390
Further 51358
procurement 51357
é@@ 51355
structures 51324
challenge 51323
See 51316
little 51314
never 51298
CE 51289
damage 51208
Asian 51202
Financial 51192
eighth 51174
fin@@ 51170
week 51161
tional 51134
ess 51130
determine 51100
mon@@ 51095
74 51086
Lebanon 51076
SP@@ 51031
capacities 51018
conclusions 51018
UNFPA 51018
85 50992
Stat@@ 50990
followed 50935
str@@ 50932
game 50930
ile 50849
participated 50798
ff@@ 50772
Is@@ 50753
DC 50729
49@@ 50716
and@@ 50674
absence 50671
accountability 50670
ks 50664
grounds 50609
recognition 50599
ang@@ 50530
л@@ 50525
listed 50514
extended 50495
vo@@ 50481
99 50464
broad 50448
ening 50442
ING 50346
og@@ 50345
negative 50281
Sweden 50217
transparency 50208
accepted 50196
consumption 50163
Rules 50139
nor 50133
direction 50092
oni@@ 50083
Parliament 50074
workshops 50035
generally 50025
Man@@ 49978
things 49972
entire 49960
extension 49954
az@@ 49939
car 49916
Pre@@ 49901
zes 49860
discuss 49830
Tor@@ 49827
sound 49791
approximately 49749
search 49744
Members 49712
dollars 49697
difficulties 49697
stry 49664
raising 49612
Ma@@ 49584
insurance 49546
Bosnia 49546
competition 49522
mail 49516
guarantee 49514
Nuclear 49508
island 49495
interested 49485
membership 49470
subregional 49456
FI@@ 49434
rest 49393
involvement 49374
female 49346
let 49320
\ 49289
reflect 49285
forty 49280
AT 49248
mainly 49198
Mon@@ 49189
true 49109
24@@ 49094
timely 49084
owing 49066
ver@@ 49057
Many 49019
ue 49018
freedoms 49008
accounts 49000
comp@@ 48996
Czech 48975
Vice 48957
More 48955
ire 48899
amended 48876
advance 48869
Note 48856
setting 48840
makes 48774
credit 48765
est@@ 48765
concrete 48759
confidence 48755
Here 48749
der@@ 48739
summary 48718
pen@@ 48694
board 48643
Authority 48611
Lo@@ 48606
C. 48593
try 48566
partnerships 48437
ven@@ 48431
76 48377
Sa@@ 48345
Strategy 48333
VI 48319
closely 48309
ulation 48298
ash@@ 48265
offences 48264
IR@@ 48260
shared 48212
expertise 48193
component 48190
became 48166
Thus 48124
ь 48123
code 48065
ies 48047
risks 48011
Third 47991
immediately 47970
audit 47947
JSC 47944
Kar@@ 47941
Tim@@ 47931
exploitation 47930
96 47926
Finland 47920
Ministers 47911
migration 47910
science 47862
pre 47843
medium 47788
Prime 47679
Territory 47667
ning 47648
Contrac@@ 47590
с@@ 47589
tri@@ 47584
occupied 47564
ia 47524
despite 47516
mer@@ 47516
minorities 47461
limit 47448
lives 47420
comes 47403
Ambassador 47391
century 47384
book 47375
urgent 47372
PRO@@ 47333
started 47331
Total 47273
в@@ 47248
sc@@ 47247
rent 47227
Cyprus 47196
Rwanda 47181
illicit 47146
NE@@ 47089
Monday 47088
Sun 47037
Governing 46991
tasks 46949
disaster 46938
charge 46920
reviewed 46895
Herzegovina 46893
• 46890
res@@ 46886
AL@@ 46880
mar@@ 46861
getary 46855
commission 46823
ology 46819
id@@ 46818
holding 46798
bu@@ 46792
record 46772
tax 46766
minutes 46717
flow 46714
Per@@ 46705
AP 46662
corruption 46632
78 46617
4,@@ 46591
existence 46576
CR@@ 46541
release 46520
da 46496
Guinea 46393
mat@@ 46388
cycle 46373
round 46363
sites 46307
Research 46286
contributing 46283
puts 46266
Austria 46262
all@@ 46255
assessments 46254
son 46248
reducing 46239
Of 46204
estimates 46168
granted 46161
Part 46126
rehabilitation 46111
ever 46101
fair 46094
ming 46081
woman 46053
Eastern 46045
PC 46039
seven 46034
acy 46033
Chief 46009
load 45999
the@@ 45971
selected 45954
ute 45927
availability 45910
ME@@ 45888
Coun@@ 45886
original 45883
appointed 45876
regi@@ 45844
MI@@ 45830
immediate 45826
ters 45820
details 45819
recommend 45800
mandates 45796
waste 45780
participating 45770
Assistance 45761
eight 45752
database 45748
welcome 45736
engaged 45713
produce 45696
AG@@ 45662
emphasized 45662
sex 45635
please 45607
Yugoslavia 45592
City 45588
Indonesia 45528
courses 45511
enhancing 45474
rem@@ 45467
opening 45460
sian 45456
els 45455
Croatia 45409
think 45405
conventions 45398
Paragraph 45363
turn 45358
move 45333
religion 45332
tion@@ 45296
Cs 45276
floor 45270
donors 45256
Day 45212
clu@@ 45211
fied 45113
entered 45110
cha@@ 45073
democracy 45070
UNITED 45067
imposed 45065
Somalia 45064
Thursday 45063
welcomes 45060
ch 45047
Integr@@ 45010
Sea 45000
declaration 44990
complaints 44978
undertake 44941
Si@@ 44932
inclusion 44880
defence 44877
bo@@ 44851
web 44839
grading 44830
trust 44817
presentation 44805
cooperate 44766
attacks 44762
networks 44755
Kuwait 44623
PO@@ 44615
PS 44595
Friday 44580
Training 44579
87 44566
dealing 44554
Task 44550
cash 44545
Cultural 44494
namely 44455
mutual 44438
containing 44406
opened 44371
ph@@ 44361
Pr@@ 44350
refugee 44329
creating 44328
oting 44306
Vi@@ 44293
offered 44282
ce 44246
aircraft 44245
representation 44211
honour 44186
Pl@@ 44173
traffic 44166
do@@ 44164
ON 44162
civilians 44162
inv@@ 44159
reviews 44137
territories 44114
Regulations 44101
respectively 44070
í@@ 44053
I. 44034
unique 44028
Bo@@ 44025
SO@@ 44012
senior 43987
AC 43984
Technology 43954
assess 43935
remaining 43933
coordinated 43922
don 43899
built 43845
paras 43844
ep@@ 43782
requirement 43757
Coordin@@ 43755
parents 43747
bl@@ 43743
ret@@ 43731
Palestine 43724
Project 43708
Six@@ 43696
ites 43685
html 43680
subsequent 43679
ratification 43676
extr@@ 43645
Armenian 43644
observers 43606
ics 43604
fications 43530
á@@ 43512
specifically 43498
whom 43492
amendment 43464
Argentina 43457
reforms 43434
Operations 43424
tieth 43407
SE@@ 43404
interpretation 43400
express 43348
fl@@ 43305
Chapter 43267
identification 43263
secure 43231
Rea@@ 43221
€ 43217
Dist@@ 43210
device 43202
enc@@ 43178
enhanced 43161
exp@@ 43154
Sig@@ 43140
79 43123
ars 43114
Northern 43088
39@@ 43029
punishment 43028
fil@@ 43022
map 43015
run 43008
numbers 43005
actually 42989
br@@ 42985
offence 42970
400 42964
dr@@ 42956
ual 42941
Moldova 42940
constitute 42926
AN 42900
causes 42885
trends 42842
failure 42747
condition 42697
la 42691
indicate 42679
resulted 42678
ili@@ 42641
NATIONS 42618
Islands 42607
enter 42594
vari@@ 42555
urged 42488
que 42429
C.3 42404
employees 42391
86 42361
association 42349
ENT 42345
ess@@ 42341
Fifth 42333
constitu@@ 42317
tal 42306
83 42298
ici@@ 42239
files 42232
sum@@ 42223
88 42218
Recogni@@ 42187
motion 42186
user 42186
work@@ 42157
EC 42134
ous@@ 42122
compl@@ 42118
tors 42118
survey 42097
sentence 42081
Those 42058
began 42055
Co@@ 42048
occupation 42046
closed 42037
engine 42017
affairs 42010
ell@@ 41970
chemical 41963
CD 41963
tool 41957
regulation 41953
Letter 41936
Year 41891
TE@@ 41882
port@@ 41872
raise 41845
ize 41839
ves 41823
tu@@ 41820
Recommend@@ 41768
relief 41764
subsidiary 41759
El@@ 41745
aware 41731
Therefore 41725
constitutional 41705
UNIDO 41673
speaking 41651
functioning 41590
counter 41587
chapter 41526
So 41473
WP.29 41464
expression 41463
ances 41458
ill 41450
strengthened 41448
Framework 41445
Zealand 41435
Views 41426
81 41412
gross 41349
observed 41346
nation 41318
.html 41304
introduction 41288
600 41287
Chairperson 41272
acting 41251
allows 41243
Company 41243
campaign 41222
Incre@@ 41219
records 41212
integrity 41197
update 41172
decide 41152
choice 41132
recorded 41124
candidates 41106
games 41097
collective 41095
conformity 41021
lies 41020
rati@@ 41017
link 40994
cur@@ 40994
electoral 40979
Following 40970
ER 40969
82 40961
multi 40937
increasingly 40923
targets 40919
institution 40902
comply 40897
60@@ 40889
add 40870
Kaz@@ 40863
job 40858
organizational 40823
internationally 40812
du@@ 40798
ready 40796
Supreme 40780
attended 40779
headquarters 40768
send 40767
Am@@ 40761
Center 40743
computer 40723
executive 40704
earlier 40673
Chamber 40668
ones 40635
recruitment 40631
Prepar@@ 40616
Col@@ 40603
Ð 40601
evalu@@ 40598
EL@@ 40592
bed 40586
fire 40577
98 40575
threats 40563
findings 40549
84 40535
are@@ 40527
q@@ 40502
Wednesday 40492
emphasis 40444
i.e. 40406
though 40402
ST 40393
w 40388
cities 40379
Officer 40349
largest 40348
unless 40326
ra@@ 40307
mitting 40307
sale 40287
temperature 40268
OH@@ 40248
protected 40245
к@@ 40245
secondary 40181
eg@@ 40169
Jerusalem 40167
except 40164
substances 40123
enjoy 40106
ful 40081
93 40058
combating 40030
territorial 40014
R.@@ 39992
organs 39966
Head 39937
ay 39904
Safety 39894
announced 39872
contracts 39852
del@@ 39844
publication 39831
Consi@@ 39830
Cre@@ 39781
RO@@ 39776
donor 39770
ty@@ 39705
nations 39704
encourages 39698
kg 39685
gr@@ 39682
emerging 39661
completion 39644
mines 39634
volume 39632
method 39612
norms 39585
IG@@ 39555
Particip@@ 39527
option 39513
94 39485
daily 39482
obtain 39467
payments 39466
affect 39444
pi@@ 39444
Tuesday 39434
posed 39430
night 39423
97 39390
investigations 39389
Commit@@ 39376
regulatory 39364
race 39356
aims 39356
extend 39348
investments 39268
С@@ 39249
j 39235
late 39178
eliminate 39170
Kosovo 39164
outcomes 39158
variety 39157
ou 39155
Territories 39151
class 39150
Pri@@ 39132
outstanding 39117
Comm@@ 39057
grant 39046
Any 39029
migrants 39003
Weapons 39003
shows 39002
crucial 38989
German 38983
ION 38925
Control 38916
carrying 38913
seeking 38893
ten 38880
perspective 38824
agriculture 38823
ED 38813
significantly 38783
contributed 38762
ines 38749
Fourth 38722
inc@@ 38716
akh 38691
E. 38688
confirmed 38687
Staff 38680
dissemination 38668
top@@ 38657
highlighted 38636
minority 38622
linked 38617
Inter 38606
previously 38581
ame@@ 38537
Gaza 38480
port 38446
devices 38436
numerous 38414
substantial 38387
Food 38364
experiences 38346
AR 38339
modi@@ 38334
advisory 38303
TO 38293
heard 38287
Sierra 38285
Status 38284
ca@@ 38280
la@@ 38265
Direc@@ 38262
otherwise 38238
nationality 38226
visits 38225
Each 38225
restrictions 38213
spirit 38210
Pol@@ 38191
Belgium 38181
alize 38172
alleged 38154
heads 38140
stay 38131
ders 38125
Population 38108
them@@ 38104
WA 38086
ani@@ 38077
birth 38075
gave 38067
MIN@@ 38059
ery 38046
Bar@@ 38039
а 38034
considering 38027
ries 38021
p.@@ 38020
aire 38006
Most 38002
Eff@@ 38001
obtained 37981
92 37978
Ob@@ 37973
Its 37952
eng@@ 37951
Gender 37942
urges 37937
бр@@ 37916
Spanish 37905
allegations 37890
pages 37889
ak 37882
ea@@ 37870
qui@@ 37867
formed 37849
considers 37840
Rule 37831
Tr@@ 37819
understand 37796
91 37794
Prosecutor 37768
Financing 37760
ASE 37751
begin 37674
consent 37610
89 37580
sought 37574
asylum 37560
UNI@@ 37516
factor 37512
via 37505
responses 37501
Liberia 37496
governments 37492
car@@ 37483
mine 37481
speci@@ 37456
fi@@ 37448
ech@@ 37425
accounting 37402
concluding 37398
Internal 37379
tification 37377
Introduction 37377
theme 37372
Ne@@ 37346
pointed 37294
Space 37287
reiter@@ 37252
simply 37234
exist 37186
endorsed 37181
TION 37169
funded 37159
D. 37147
iii 37135
OS@@ 37125
testing 37105
forth 37089
realization 37078
Bel@@ 37069
worked 37061
ling 37045
erial 37037
DL@@ 37025
diseases 37019
AP@@ 37014
considerable 37007
Haiti 36999
Tran@@ 36995
bit 36980
Over@@ 36980
Minist@@ 36962
format 36928
district 36916
Expert 36914
Another 36884
Field 36881
ach@@ 36863
ale 36834
Adoption 36826
placement 36819
70@@ 36817
eradic@@ 36808
5,@@ 36789
instance 36787
Date 36773
examination 36748
Colombia 36736
ub@@ 36720
ementary 36715
sen@@ 36712
expenditures 36686
ant@@ 36675
UNESCO 36673
To@@ 36670
cu@@ 36658
Romania 36656
Statistics 36648
Or@@ 36644
Speci@@ 36603
accused 36578
11@@ 36578
commissions 36546
IAEA 36520
stipul@@ 36500
declared 36465
les 36464
maintained 36447
Cl@@ 36394
reservations 36384
latest 36358
learned 36325
went 36324
Kyrgy@@ 36315
correct 36313
contain 36286
Questions 36282
mu@@ 36271
wor@@ 36252
od@@ 36246
recognize 36237
proper 36234
tives 36222
go@@ 36221
Ye@@ 36215
ill@@ 36213
Are 36212
learning 36202
prisoners 36200
La 36191
elimination 36183
expansion 36182
sted 36163
Bu@@ 36162
cl@@ 36159
Paris 36154
locations 36153
reservation 36147
MO@@ 36144
eries 36140
Consul@@ 36135
governing 36107
ua 36089
center 36076
dress 36069
FAO 36068
giving 36064
ma 36064
Two 36053
sky 36043
alism 36037
flows 36024
airport 36021
scheduled 36018
supports 36013
links 36006
Resolution 35999
Leone 35967
anniversary 35945
Tajikistan 35916
Finally 35911
Morocco 35909
clari@@ 35878
engage 35861
heart 35850
banks 35847
Ur@@ 35840
glob@@ 35839
elabor@@ 35829
ised 35825
Monitoring 35802
Burundi 35753
Environmental 35742
associations 35730
dissemin@@ 35702
delay 35699
Chinese 35684
view@@ 35642
lot 35637
delivered 35619
.net 35608
double 35599
preparing 35594
est 35590
eri@@ 35588
fo@@ 35585
guarantees 35570
initiated 35565
satisfaction 35537
Respon@@ 35527
length 35513
Nigeria 35500
latter 35492
land@@ 35492
faced 35487
marriage 35480
victim 35466
stock 35456
ton 35447
Sha@@ 35437
combined 35433
sovereignty 35417
degree 35404
UND@@ 35404
publications 35387
supplies 35383
arbitr@@ 35383
quite 35339
toral 35339
ratified 35336
Today 35328
impe@@ 35325
arising 35303
preliminary 35302
hard 35294
VII 35293
Ky@@ 35278
6,@@ 35277
appointment 35261
ently 35258
800 35249
identity 35211
selection 35210
ki 35209
lessons 35206
preventing 35197
diplomatic 35150
percentage 35125
Denmark 35117
so@@ 35113
Region 35109
inclusive 35098
a.m. 35095
boundary 35087
tual 35079
ges 35070
check 35070
agree 35064
Hungary 35058
TV 35037
enough 35036
flights 35006
engagement 35005
sign 34982
duties 34955
emission 34954
drugs 34944
eli@@ 34922
easy 34921
innovative 34920
IP@@ 34919
Lu@@ 34904
front 34903
primarily 34873
productive 34855
Your 34842
Humanitarian 34823
thirty 34809
performed 34789
played 34788
DA 34783
mes 34777
teams 34774
DA@@ 34748
love 34743
populations 34719
contr@@ 34716
Congress 34712
doing 34712
cor@@ 34695
Use 34683
influence 34678
weeks 34663
element 34640
Op@@ 34612
р@@ 34609
Chile 34607
prec@@ 34576
decrease 34572
Resources 34565
enterprise 34559
Indigenous 34556
convened 34536
Thailand 34533
PS@@ 34524
Streng@@ 34522
Lord 34516
ular 34516
fulfil 34505
men@@ 34489
proc@@ 34453
Power 34414
normal 34405
Ad 34399
coverage 34384
Astana 34379
Number 34378
reaffir@@ 34377
s.@@ 34372
background 34359
Mea@@ 34357
assessed 34353
Open 34331
figure 34283
im 34270
ori@@ 34255
transit 34220
main@@ 34214
ful@@ 34209
advantage 34202
wishes 34202
envis@@ 34179
Habitat 34175
allocated 34167
min@@ 34160
choose 34159
Ju@@ 34097
town 34079
accept 34068
deep 34067
arrest 34064
enjoyment 34056
video 34051
akes 34033
fe@@ 34030
gen@@ 34021
Bulgaria 34010
surface 34005
ory 34000
thousand 33947
changing 33936
Family 33903
Business 33883
spoke 33848
ana 33844
expenses 33842
technological 33824
ects 33808
Turkish 33798
partner 33797
7,@@ 33793
ve@@ 33785
ani 33780
marked 33768
worldwide 33727
Pur@@ 33721
,0@@ 33693
Guid@@ 33678
Serbia 33671
PR 33661
Free 33645
vital 33642
ited 33591
Greece 33544
Their 33542
ilization 33539
Lithuania 33536
ET@@ 33536
amounts 33533
Sam@@ 33532
iting 33525
Ste@@ 33522
pri@@ 33502
equitable 33497
Scientific 33493
charges 33460
facing 33443
Several 33433
Now 33427
comment 33417
draw 33413
storage 33381
Uzbekistan 33351
strongly 33320
Cha@@ 33319
Britain 33298
Additional 33296
Latvia 33273
marine 33266
na 33261
medi@@ 33253
idea 33243
Despite 33225
failed 33225
ication 33212
mobile 33192
appear 33191
racism 33171
mean 33166
ective 33147
drawn 33143
departments 33128
authori@@ 33128
AD 33127
penalty 33123
Sun@@ 33112
limits 33102
features 33087
stan 33087
entation 33077
click 33060
programs 33044
sign@@ 33040
hoc 33038
mor@@ 33031
iss@@ 33019
ass@@ 32999
residence 32994
corporate 32992
generation 32974
released 32940
disease 32930
&apos;I@@ 32927
drafting 32918
judge 32916
recalled 32915
learn 32907
Roma 32866
anc@@ 32852
Model 32848
e.@@ 32839
Refugees 32832
enabling 32830
ation@@ 32827
sense 32806
WHO 32774
customers 32767
IT 32763
targeted 32760
sets 32749
ization 32749
serving 32749
ver 32749
maintaining 32744
News 32738
prohi@@ 32719
sus 32701
conven@@ 32675
ja 32675
of@@ 32670
inside 32657
Network 32656
plant 32642
prosecution 32633
fall 32623
Trust 32623
Cô@@ 32620
ends 32611
visited 32599
ying 32597
Algeria 32572
м@@ 32569
weight 32559
perform 32558
differences 32550
names 32549
Construction 32533
intention 32519
budgetary 32515
impacts 32491
000 32472
elines 32458
Ter@@ 32449
facilit@@ 32413
dev@@ 32399
Ps 32393
Water 32389
seminars 32381
accommodation 32372
powers 32371
Qu@@ 32360
verification 32353
convention 32345
receiving 32338
Ben@@ 32332
alone 32316
entity 32311
dence 32280
fixed 32260
owned 32259
Volun@@ 32255
designated 32244
stop 32224
ian 32214
ho@@ 32203
reconciliation 32148
ber@@ 32139
ast@@ 32089
favour 32086
V. 32085
streaming 32077
occurred 32075
permit 32071
eco@@ 32062
fif@@ 32041
proved 32017
lost 31975
Work 31974
Portugal 31974
controlled 31928
rein@@ 31924
dum 31904
socio 31897
ownership 31889
everything 31863
sections 31852
Organiz@@ 31839
widely 31838
binding 31805
List 31804
ain@@ 31801
tory 31795
37@@ 31789
Docum@@ 31787
sides 31786
attack 31785
Where 31778
Har@@ 31749
Customs 31726
Ukrainian 31725
legitimate 31720
committees 31713
Pen@@ 31712
equipped 31699
ster 31679
duction 31675
told 31671
80@@ 31648
teachers 31634
thereby 31621
AB@@ 31621
ably 31599
examine 31566
ble 31561
ice 31549
bio@@ 31541
transportation 31531
Z 31530
born 31504
ens 31497
sures 31485
IA 31481
ta@@ 31475
internally 31456
suppl@@ 31445
CO 31445
tests 31439
unable 31429
achievements 31422
sur@@ 31411
package 31408
aff@@ 31381
regularly 31374
liber@@ 31368
Kenya 31354
No@@ 31350
liability 31348
Philippines 31341
San 31329
facts 31329
wi@@ 31327
train 31273
represent 31265
thought 31262
dedicated 31262
bringing 31261
usually 31258
equ@@ 31250
served 31234
passed 31222
reproductive 31196
ection 31195
something 31192
itors 31173
PT 31170
facilitating 31161
transparent 31151
sive 31151
changed 31143
customs 31142
120 31134
Bal@@ 31124
extensive 31114
Jesus 31105
geographical 31104
oration 31097
Peru 31083
assigned 31055
stand 31026
refer 31017
ler 31017
Ci@@ 31016
Summary 30992
advanced 30981
village 30976
Foundation 30969
rich 30963
calendar 30955
F.@@ 30952
settlements 30919
д@@ 30881
Euro@@ 30877
cont@@ 30866
Gen@@ 30852
ен@@ 30848
sports 30831
sis 30795
troops 30777
principal 30772
Br@@ 30768
guide 30759
incidents 30750
discriminatory 30747
index@@ 30739
systematic 30738
dangerous 30716
faith 30705
Initiative 30704
obstacles 30702
TH@@ 30697
tourism 30671
Re 30670
Official 30654
jointly 30649
Ethiopia 30649
Data 30646
cour@@ 30645
ra 30637
subjected 30635
starting 30624
examples 30624
dating 30623
1989 30612
ese 30612
mortality 30610
encouraging 30604
Forces 30585
explained 30584
Inv@@ 30584
Mat@@ 30574
seminar 30571
figures 30566
Main 30564
imprisonment 30556
Set@@ 30555
inspection 30514
Then 30513
tics 30512
attached 30473
ry 30459
connected 30456
entr@@ 30441
covering 30436
OECD 30416
bar 30397
cohe@@ 30391
ll 30350
ideas 30334
dit 30324
Science 30296
identifying 30295
150 30294
ur 30256
Out@@ 30254
oversight 30238
distributed 30230
A.@@ 30226
Suppl@@ 30214
Church 30198
directed 30194
really 30185
panel 30181
War 30139
link@@ 30136
resolve 30128
Fun@@ 30120
sustained 30106
reconstruction 30084
improvements 30083
transmitted 30074
lists 30066
tl@@ 30057
corresponding 30053
rapid 30029
sa 30013
Jud@@ 30012
Plat@@ 29999
Por@@ 29990
allocation 29985
older 29963
transactions 29960
Air 29955
2nd 29954
reasonable 29939
eous 29928
communic@@ 29919
IN 29902
stable 29862
prepar@@ 29860
everyone 29859
looking 29853
shi@@ 29821
fur@@ 29810
Bud@@ 29809
Assistant 29806
lu@@ 29801
believes 29796
700 29757
detained 29757
structural 29753
topics 29752
outer 29742
index 29741
trading 29736
ption 29728
я 29700
adaptation 29698
attend 29685
mot@@ 29670
Malaysia 29669
arrested 29643
appropri@@ 29630
examined 29587
Military 29586
201@@ 29574
shing 29570
stand@@ 29554
federal 29541
SU@@ 29532
killed 29526
amend 29526
Universal 29525
tw@@ 29519
migrant 29512
vities 29488
Q 29478
historical 29470
ancy 29466
sustainability 29461
Finance 29454
gated 29451
200@@ 29446
collabor@@ 29426
sin@@ 29426
35@@ 29414
pending 29402
PA 29401
inform@@ 29399
pollution 29394
ena 29388
ane 29387
Home 29368
Drugs 29355
appears 29338
Saudi 29307
protecting 29302
exc@@ 29289
competence 29267
gives 29255
Partnership 29253
Be@@ 29252
affecting 29247
Appl@@ 29243
Saint 29240
guests 29234
Hel@@ 29220
spec@@ 29214
Mechan@@ 29168
ental 29167
losses 29114
Res@@ 29109
Bangladesh 29107
nationals 29107
preventive 29107
ships 29101
vac@@ 29101
GMT 29059
ns 29053
speakers 29049
thing 29038
dispute 29036
abroad 29035
initi@@ 29028
Terrorism 29027
EM 29006
1st 29000
noting 28980
pha@@ 28972
shes 28970
exhibition 28969
Mar 28964
sensitive 28956
writing 28954
controls 28953
ot 28937
disasters 28936
interim 28911
ensive 28894
Independent 28855
Des@@ 28851
Deleg@@ 28851
sional 28839
register 28837
coordinate 28829
ki@@ 28822
pursue 28821
speak 28821
Uganda 28820
nine 28814
Acti@@ 28794
app@@ 28789
GE@@ 28736
36@@ 28731
charged 28730
managed 28729
Cer@@ 28723
hour 28713
employed 28702
Society 28701
mother 28688
Darfur 28684
complainant 28680
lam@@ 28662
Soviet 28658
² 28648
ex 28637
tolerance 28637
transferred 28616
capabilities 28614
CC 28603
prohibited 28593
weather 28589
characteristics 28589
affir@@ 28584
Doc@@ 28582
Post 28554
encies 28548
card 28543
Costa 28520
forums 28519
strength 28508
ail 28507
ardi@@ 28502
unemployment 28492
Ver@@ 28487
District 28483
lat@@ 28470
instead 28461
nothing 28461
B.@@ 28454
image 28448
я@@ 28447
purchase 28442
ences 28438
pilot 28436
object 28436
judiciary 28427
managers 28421
regards 28415
ear@@ 28396
dignity 28383
Iraqi 28382
Strategic 28368
sel@@ 28364
Red 28356
era 28353
ree 28344
Sunday 28330
sible 28323
sha@@ 28307
Sat 28281
lab@@ 28275
Slovakia 28259
à 28256
&apos;ll 28255
1988 28244
St. 28243
voc@@ 28242
periods 28241
heavy 28213
Govern@@ 28212
platform 28206
ol 28203
composition 28201
friendly 28195
methodology 28194
lin@@ 28185
accessible 28173
ambi@@ 28149
Professional 28141
character 28132
suitable 28131
8,@@ 28120
wished 28114
simple 28109
consult@@ 28097
ong@@ 28094
popular 28091
hoped 28089
remedies 28062
valuation 28041
Apr 28038
jobs 28029
Guatemala 28029
Representatives 28028
sal@@ 28023
suffering 28020
NO@@ 28012
disputes 28010
annex@@ 27988
expand 27981
eeding 27980
Myanmar 27978
reliable 27957
returned 27956
trend 27940
Jordan 27937
guaranteed 27919
helped 27915
sometimes 27904
constructive 27899
circulated 27899
sequently 27893
Erit@@ 27891
safeguards 27878
expanded 27831
ai 27831
behind 27829
Constitutional 27819
moment 27813
pan@@ 27784
voting 27783
I.@@ 27773
bility 27754
ig@@ 27750
feel 27734
1.1 27722
radio 27721
disability 27706
2.1 27698
val@@ 27697
proportion 27688
ely 27686
tural 27670
perpetrators 27659
acceptance 27658
UR 27651
ICT 27637
USA 27625
Jan 27621
tables 27615
manage 27612
installation 27597
shares 27594
Movement 27586
premises 27576
himself 27530
focal 27525
lic@@ 27520
demonstrated 27503
exports 27493
reiterated 27484
difference 27481
tot@@ 27479
assi@@ 27437
joined 27431
WTO 27429
percent 27427
chemicals 27420
observer 27404
alizing 27397
multiple 27393
des@@ 27389
burden 27387
mal@@ 27381
attempt 27380
bro@@ 27373
shop 27347
adjustment 27336
description 27330
votes 27327
sol@@ 27325
Fi@@ 27318
subsequently 27315
successfully 27307
Earth 27281
represents 27276
Before 27273
ner@@ 27266
Taking 27252
south 27249
empowerment 27223
instructions 27217
experienced 27215
Excell@@ 27214
House 27207
buildings 27202
Cy@@ 27174
900 27171
Co 27166
join 27142
ser 27140
outlined 27129
objects 27095
Given 27075
tons 27062
Jo@@ 27054
schedule 27053
Local 27050
os@@ 27034
Over 27022
ban 27018
bur@@ 27007
Ti@@ 27007
Slovenia 26989
cut 26981
method@@ 26976
Accordingly 26961
sales 26957
Ku@@ 26951
select 26949
big 26932
depth 26926
bun@@ 26909
din@@ 26900
output 26893
dealt 26876
ennial 26873
Small 26867
Is 26863
papers 26861
ically 26854
Cal@@ 26851
Uni@@ 26844
says 26841
Estonia 26832
manife@@ 26831
Compreh@@ 26829
1.2 26818
Concer@@ 26817
LD@@ 26811
contrary 26810
extremely 26799
Beijing 26798
Pal@@ 26790
phone 26787
models 26782
Le@@ 26777
demands 26773
complaint 26771
Rel@@ 26767
liberty 26752
legally 26752
hotels 26741
non@@ 26735
thank 26727
Wi@@ 26702
Sch@@ 26700
oriented 26667
App@@ 26665
AI@@ 26662
ask 26657
letters 26655
currency 26639
carbon 26634
deployed 26623
Having 26620
increases 26618
Д@@ 26618
Even 26612
pool 26602
finding 26587
soldiers 26578
Team 26567
Sep 26562
stri@@ 26550
Web 26521
Price 26520
opposition 26518
bearing 26509
bil@@ 26508
installed 26508
abilities 26505
relatively 26496
pe 26491
Lebanese 26490
felt 26488
constraints 26482
devoted 26481
measured 26469
humanity 26468
Do 26464
war@@ 26452
mandated 26452
endi@@ 26446
Calls 26444
continuous 26441
DE@@ 26437
kept 26430
ner 26426
operate 26421
title 26417
won 26413
revision 26406
warning 26405
Ecuador 26402
techniques 26401
Belar@@ 26392
partial 26381
shment 26378
organize 26356
maps 26353
Only 26334
ins 26329
mits 26319
firm 26313
IONS 26296
Ak@@ 26294
ables 26288
Climate 26277
tor@@ 26274
stages 26273
becoming 26267
formation 26261
equivalent 26256
XX@@ 26249
As@@ 26248
introduce 26246
missible 26229
British 26220
NGO 26219
ann@@ 26214
master 26208
Sar@@ 26183
campaigns 26170
reality 26168
п@@ 26166
Venezuela 26160
assisting 26156
launch 26146
Sp@@ 26125
incorporated 26102
adv@@ 26100
conducting 26098
Rome 26091
il 26088
applying 26075
Fifty 26068
soci@@ 26067
fies 26064
clean 26058
ument 26046
у@@ 26043
facility 26040
sphere 26036
90@@ 26033
ä@@ 26029
ir 26026
Assessment 26020
execution 26017
satellite 26013
gap 25976
direc@@ 25967
questionn@@ 25959
establi@@ 25949
qualified 25944
tees 25943
sanitation 25923
ordinary 25920
vessels 25920
Country 25919
distance 25917
ambia 25891
extreme 25887
quarter 25887
box 25886
aya 25880
href 25880
} 25869
signing 25864
violated 25853
ber 25853
peace@@ 25851
iter@@ 25848
Comp@@ 25847
clients 25842
gre@@ 25826
mit 25803
authors 25794
trained 25786
accompanied 25781
teaching 25777
easily 25762
EP 25753
enting 25748
relate 25739
not@@ 25737
sti@@ 25731
aw@@ 25725
machine 25719
believed 25710
imp@@ 25702
quickly 25700
CA 25700
{ 25687
med 25685
arbitrary 25684
wing 25682
anti@@ 25665
ail@@ 25658
pension 25658
substance 25657
treated 25645
oples 25645
overcome 25639
completely 25637
reply 25610
locked 25597
Road 25591
involve 25588
Next 25579
relevance 25569
coordinating 25564
grave 25557
Communications 25553
Turk@@ 25552
Uruguay 25545
MD@@ 25543
endeav@@ 25531
manufacturer 25517
Right 25505
Agriculture 25501
Location 25497
books 25484
track 25480
duration 25466
Go 25460
mitted 25457
Gr@@ 25437
nutrition 25431
ems 25400
Fa@@ 25393
Observer 25360
holder 25354
cap@@ 25353
translation 25346
command 25344
PRE@@ 25342
innovation 25332
TER@@ 25327
north 25324
custody 25319
gallery 25304
London 25281
Sri 25273
vali@@ 25269
47@@ 25269
laid 25233
indicates 25232
Let 25225
invitation 25217
Change 25215
ah@@ 25200
input 25196
welfare 25193
spread 25192
neither 25174
serv@@ 25170
valuable 25169
IL 25169
music 25156
monthly 25137
apartment 25133
reaffirmed 25132
department 25130
houses 25126
detainees 25124
Equ@@ 25110
ü@@ 25110
eable 25102
AF@@ 25095
exception 25092
dependent 25087
reaching 25082
cooper@@ 25075
hands 25072
minist@@ 25070
Planning 25064
grants 25048
aison 25016
orders 25012
lea@@ 24997
GDP 24979
officer 24977
emphasi@@ 24970
preparations 24962
sters 24950
consists 24949
functional 24947
109 24947
Jul 24938
representing 24935
Fore@@ 24933
ario 24932
amounted 24906
sul@@ 24901
ö@@ 24887
Southern 24876
resumed 24875
Em@@ 24868
resident 24853
Jun 24847
Body 24836
Angola 24832
Sal@@ 24828
with@@ 24826
Nairobi 24825
trem@@ 24824
dering 24823
Tur@@ 24807
Not 24803
105 24802
Among 24785
segment 24779
pass 24772
sues 24772
dates 24767
ish 24765
lasting 24765
remote 24756
ga 24745
Within 24744
Lea@@ 24740
Cap@@ 24736
Treatment 24726
Nor@@ 24714
roles 24713
indeed 24700
Cambodia 24694
hibition 24692
restric@@ 24689
investigate 24656
avi@@ 24648
savings 24645
disp@@ 24642
disposal 24636
protocol 24610
micro@@ 24607
Ge@@ 24605
mining 24595
incorpor@@ 24595
larger 24573
2.2 24559
ko 24550
budge@@ 24543
VIII 24541
ased 24540
id 24528
down@@ 24521
belief 24514
disciplinary 24512
termin@@ 24510
leader 24508
staffing 24508
ect 24502
ophobia 24501
Industrial 24500
212 24495
Wor@@ 24483
air@@ 24476
competitive 24473
seem 24471
largely 24460
acquisition 24458
Rica 24440
So@@ 24430
witnesses 24428
lia 24416
southern 24398
icking 24396
import 24381
generated 24370
flight 24357
sting 24345
borders 24341
solidarity 24338
refers 24332
thousands 24316
mid 24314
repatri@@ 24308
fill 24303
Press 24300
13.@@ 24298
ach 24290
Fri 24281
TA 24272
bid 24255
impunity 24254
ye 24253
E.@@ 24248
broader 24244
classification 24229
societies 24222
rea 24210
allowing 24206
adi@@ 24205
green 24201
army 24188
recognizes 24187
DP 24178
Sy@@ 24171
wood 24157
9,@@ 24156
budgets 24146
orial 24142
balanced 24137
covers 24125
bar@@ 24122
ined 24116
replace 24113
lands 24106
occup@@ 24103
Mu@@ 24094
troop 24087
arts 24085
minim@@ 24078
aci@@ 24069
grad@@ 24056
ear 24055
professionals 24053
leg@@ 24053
15.@@ 24044
newly 24043
USD 24034
ministerial 24030
measurement 24022
loc@@ 24008
gaps 24005
Based 23998
reflects 23993
biological 23987
occasion 23982
certificate 23982
Tri@@ 23972
showed 23971
Time 23966
Youth 23960
relative 23949
Montenegro 23944
square 23936
detail 23926
deliver 23920
camps 23919
48@@ 23910
sponsors 23894
lar 23888
suffered 23886
taining 23882
....@@ 23878
deliberations 23871
unication 23864
Equality 23861
wrong 23858
players 23857
belonging 23826
severe 23807
removed 23794
missing 23791
ously 23789
Advis@@ 23783
saw 23782
250 23778
acti@@ 23778
45@@ 23777
probably 23761
andum 23745
conc@@ 23742
ore 23736
Budget 23733
accordingly 23722
focusing 23721
decline 23714
pment 23703
Investment 23694
financed 23694
ta 23693
constitutes 23672
Operation 23671
door 23653
vol@@ 23643
withdrawal 23640
ker 23639
key@@ 23633
rose 23619
programming 23614
prohibition 23610
confi@@ 23610
consolidated 23609
plants 23568
eth 23555
lig@@ 23552
residents 23544
seems 23524
pression 23515
Senegal 23508
ght 23503
Ri@@ 23502
acial 23498
Tunisia 23483
wast@@ 23472
Aug 23471
Arabia 23469
died 23440
enh@@ 23439
applic@@ 23438
22@@ 23435
California 23433
tel 23429
define 23421
stration 23398
applies 23397
MON@@ 23397
ging 23394
father 23389
advocacy 23384
vulnerability 23380
log@@ 23379
Send 23379
Follow 23375
ste@@ 23363
exceed 23363
notification 23362
mark 23354
Exchange 23347
super@@ 23346
zones 23338
household 23330
Land 23319
IP 23318
homes 23315
mode 23315
atives 23306
3.1 23267
kha@@ 23261
Ki@@ 23257
pleased 23248
ce@@ 23245
33@@ 23232
acceptable 23228
disabled 23223
parti@@ 23200
Self 23193
journalists 23189
regul@@ 23188
Both 23181
Last 23177
Ou@@ 23161
urs 23158
å@@ 23158
equity 23152
industries 23135
Sup@@ 23127
barriers 23122
considerations 23118
integrate 23111
Island 23109
decade 23096
prostitution 23091
ita 23088
capable 23084
meaning 23070
14.@@ 23067
dimensions 23066
oral 23063
stan@@ 23059
copy 23059
male 23058
aud@@ 23042
Nevertheless 23036
Il@@ 23034
extradition 23020
conservation 23019
Char@@ 23012
Oct 23005
School 22998
110 22993
intervention 22991
fighting 22981
At@@ 22977
ica 22977
harm 22945
collected 22942
intellectual 22937
occur 22931
manufacturing 22912
Lanka 22907
torate 22889
Ty@@ 22888
oms 22887
stat@@ 22886
undertaking 22881
ei@@ 22880
interaction 22879
deration 22878
Armed 22873
presidential 22866
oto 22866
и 22865
Greek 22863
Alexander 22853
insufficient 22846
Rem@@ 22846
Christ 22846
tem@@ 22842
thanks 22826
ase 22825
PL@@ 22809
ratio 22803
fish@@ 22789
transfers 22782
Defence 22777
valid 22774
Val@@ 22772
television 22767
ee 22763
Saturday 22762
Gar@@ 22730
Salvador 22717
offering 22716
engineering 22709
decades 22691
crimin@@ 22690
tigation 22684
Notes 22676
east 22675
removal 22674
oring 22674
atmosphere 22670
Vol@@ 22669
holders 22667
resolved 22659
unity 22649
gration 22647
enko 22646
pat@@ 22639
League 22637
foster 22630
3rd 22621
Ni@@ 22618
gener@@ 22617
Source 22612
wage 22611
col@@ 22591
Area 22591
porting 22584
nearly 22566
issu@@ 22563
ices 22560
О@@ 22557
tried 22556
ino 22538
appeared 22536
Palestinians 22536
Nepal 22529
machinery 22528
LE 22523
forming 22495
bas@@ 22485
cive 22482
proceed 22471
Macedonia 22458
Arti@@ 22447
essional 22446
ada 22443
acknowledged 22443
elling 22433
adverse 22430
compatible 22424
widespread 22419
counsel 22413
spices 22406
fishing 22402
requ@@ 22401
specialists 22396
answer 22383
surveys 22372
understood 22371
academic 22371
Du@@ 22360
Mon 22359
tures 22343
ulated 22342
parliamentary 22302
Off@@ 22300
Nar@@ 22299
permitted 22291
behaviour 22283
Rio 22276
Access 22269
grade 22268
Washington 22267
integral 22267
ories 22267
bound 22267
cr@@ 22264
eastern 22258
Violence 22244
ma@@ 22231
min 22224
notice 22222
bear 22220
xen@@ 22217
intensi@@ 22216
cles 22204
agents 22192
contacts 22191
wider 22190
deb@@ 22182
parameters 22177
LE@@ 22169
asset 22165
excellent 22164
photo 22160
seriously 22150
reimbur@@ 22135
properly 22125
MAN 22122
tom@@ 22116
spent 22114
beautiful 22113
stic 22112
Sur@@ 22109
А@@ 22102
Rep@@ 22071
restricted 22070
ru 22068
fear 22059
determining 22043
ft 22027
Cas@@ 22018
summer 22017
inventory 22016
appeals 22013
wall 22004
atistical 21985
Clo@@ 21982
middle 21974
di 21972
ke 21970
atively 21963
mac@@ 21962
expresses 21950
thir@@ 21945
estimate 21941
anian 21936
danger 21935
Acc@@ 21934
copies 21933
ef@@ 21923
scheme 21919
Standard 21911
demonstrate 21888
composed 21884
memor@@ 21882
versi@@ 21878
movements 21876
ard 21873
replaced 21871
helping 21868
talks 21864
regardless 21859
em 21849
Luxembourg 21849
white 21836
EX@@ 21813
Multi@@ 21806
client 21800
ser@@ 21797
truth 21775
ets 21768
style 21766
aggression 21761
Tanzania 21758
conclude 21756
productivity 21754
adopting 21741
sively 21740
calculated 21729
flexible 21718
prescribed 21714
Indeed 21713
dual 21710
1.5 21682
interventions 21666
agu@@ 21663
Heads 21662
turned 21661
friends 21658
cutting 21649
conventional 21645
comb@@ 21641
requesting 21635
drew 21634
invite 21634
Electr@@ 21628
assembly 21619
ther@@ 21596
consoli@@ 21585
suggestions 21584
rejected 21583
ie 21571
hearing 21564
six@@ 21557
correc@@ 21550
Regar@@ 21548
è@@ 21539
got 21535
reserves 21526
forests 21510
.. 21510
Libyan 21508
rap@@ 21497
eb@@ 21487
atically 21483
enth 21477
municipal 21475
Holy 21473
ain 21468
driver 21455
hus@@ 21454
Building 21448
lawyers 21440
annually 21439
frame 21432
itor 21418
cred@@ 21412
citizenship 21410
cul@@ 21407
digital 21406
pose 21405
recogni@@ 21405
grateful 21397
57@@ 21397
istic 21390
conjunction 21380
wa@@ 21369
briefing 21368
aging 21367
texts 21359
prospects 21350
Se@@ 21349
ches 21341
resi@@ 21340
onic 21332
dian 21329
claimed 21319
allowance 21311
icing 21310
&apos;re 21303
mandatory 21292
Ev@@ 21287
drawing 21285
adequately 21285
OM@@ 21285
La@@ 21277
IX 21276
customer 21274
34@@ 21274
foundation 21257
worth 21256
path 21255
ash 21250
psychological 21246
marks 21229
abu@@ 21227
Contin@@ 21219
yan 21216
running 21215
1,000 21213
ка@@ 21206
exactly 21204
showing 21199
CS@@ 21199
esti@@ 21195
PAR@@ 21194
U.S. 21192
win 21185
promoted 21182
street 21180
hear 21170
LO@@ 21170
Lin@@ 21164
FC 21157
IF@@ 21141
Election 21135
Work@@ 21132
screen 21131
unilateral 21112
BI 21111
water@@ 21096
Ali@@ 21094
buy 21089
ils 21085
balances 21078
ao 21077
explore 21075
Ombudsman 21074
Under@@ 21066
un 21065
dry 21060
remedy 21052
tary 21049
ware 21044
electric 21043
properties 21042
organizing 21041
leaving 21027
ected 21022
margin@@ 21017
bus 21004
depending 21003
scri@@ 21001
rape 20999
CN@@ 20999
union 20988
loans 20986
Through 20986
gate 20984
drive 20974
stress 20973
Academy 20971
combination 20963
archi@@ 20956
ecting 20952
negotiation 20943
deemed 20940
becomes 20937
fiscal 20932
interesting 20928
ED@@ 20917
remove 20916
Mad@@ 20903
compar@@ 20892
morning 20878
desire 20877
accomp@@ 20875
Fin@@ 20869
Annual 20867
v. 20859
bill 20858
norm@@ 20857
church 20849
chosen 20848
2.5 20845
Dr@@ 20833
hazardous 20833
pr@@ 20830
intolerance 20829
3.2 20820
Mali 20810
equally 20801
aggre@@ 20796
CT@@ 20791
procedural 20785
John 20784
restructuring 20770
dupl@@ 20770
Sol@@ 20762
prove 20755
Adv@@ 20753
Go@@ 20751
moving 20731
advantages 20724
Cross 20719
electricity 20714
greatest 20694
investors 20686
adoles@@ 20680
indicator 20670
forecast 20666
impossible 20661
Legisl@@ 20659
dity 20643
def@@ 20641
ility 20637
Pres@@ 20629
Gal@@ 20628
citizen 20625
Dem@@ 20622
intelligence 20619
Employment 20616
101 20611
CP 20608
underlying 20602
requiring 20601
Yugosla@@ 20592
Dec 20587
ba 20578
moral 20572
households 20572
Nicar@@ 20563
Mongo@@ 20560
ly@@ 20546
we@@ 20540
back@@ 20538
settings 20538
4th 20526
pressing 20521
ne 20515
inf@@ 20507
Albania 20507
Ann@@ 20505
boys 20505
Petersburg 20505
fish 20504
ternal 20504
mari@@ 20504
calling 20499
flexibility 20490
inadequate 20489
evaluate 20488
subjects 20487
om 20486
fine 20470
filed 20467
renewable 20466
bri@@ 20464
Educ@@ 20457
hydro@@ 20452
salary 20452
blood 20443
Because 20430
introducing 20428
our@@ 20426
1986 20423
print 20421
supervision 20418
northern 20417
fre@@ 20415
defenders 20393
trac@@ 20392
fa@@ 20392
ro 20392
tribu@@ 20371
lah 20357
patterns 20350
aining 20343
relationships 20343
Liber@@ 20337
goes 20335
ferences 20334
feature 20326
Compl@@ 20323
embargo 20287
telephone 20280
ographic 20273
neighbouring 20270
sample 20267
eding 20265
46@@ 20261
ures 20244
ax@@ 20244
window 20234
zon@@ 20225
claiman@@ 20217
assisted 20214
zi@@ 20205
gar@@ 20178
Afghan 20174
ado 20171
Acting 20169
noti@@ 20167
TO@@ 20166
Test 20147
tenth 20147
ole 20145
president 20140
explanation 20130
possibilities 20129
Org@@ 20125
gation 20122
Order 20120
inde@@ 20114
Singapore 20100
til@@ 20099
transmission 20094
Nov@@ 20093
1.3 20085
ologies 20060
munici@@ 20059
hu@@ 20058
gh@@ 20053
cer@@ 20051
EN 20051
ji@@ 20046
uation 20046
Hy@@ 20033
here@@ 20019
wife 20014
businesses 20010
tering 19993
з@@ 19989
profit 19980
DI 19978
moderni@@ 19976
stone 19975
ere@@ 19972
agua 19967
Oc@@ 19949
film 19942
fast 19940
environmentally 19931
ports 19926
reserve 19925
77@@ 19922
crises 19895
ases 19895
od 19890
award 19888
saying 19887
Type 19883
icity 19881
producing 19876
consumer 19874
serves 19872
stering 19869
icate 19852
break 19849
inst@@ 19845
patients 19843
save 19841
maternal 19833
decides 19832
17.@@ 19830
fees 19819
download 19819
particip@@ 19817
ñ@@ 19816
reading 19796
dynamic 19790
han 19788
presents 19785
Str@@ 19764
ova 19759
Ghana 19750
schemes 19747
К@@ 19740
г@@ 19737
extra 19736
concentration 19710
gain 19697
Relations 19694
constant 19682
eni@@ 19667
frequently 19661
UL@@ 19649
contingent 19643
Every 19642
ruption 19636
ski 19633
founded 19629
tur@@ 19625
tested 19625
Sem@@ 19623
Bolivia 19612
Qatar 19595
revi@@ 19588
oned 19579
Je@@ 19572
eration 19562
oo@@ 19560
can@@ 19554
pon@@ 19537
Culture 19536
continuation 19536
Italian 19535
stabili@@ 19527
projected 19527
lar@@ 19526
reflecting 19523
reviewing 19520
Traff@@ 19520
sport 19516
sev@@ 19500
greatly 19492
seats 19489
signs 19486
comparison 19478
gencies 19476
т 19473
Army 19471
feration 19467
Tem@@ 19461
AU 19458
18.@@ 19456
low@@ 19443
transitional 19442
cluster 19440
va 19438
begun 19438
alling 19433
consi@@ 19426
eption 19420
syn@@ 19411
ath@@ 19411
Fl@@ 19397
Once 19393
Mauri@@ 19387
entations 19384
cards 19379
Oper@@ 19376
ene 19375
ours 19374
prisons 19359
branch 19354
istan 19354
replies 19351
explain 19348
Nam@@ 19347
sovereign 19339
diversi@@ 19308
Nov 19290
ha 19286
ulate 19285
shed 19284
appro@@ 19281
lamp 19277
manufacture 19274
dness 19267
concepts 19267
deprived 19265
Dom@@ 19257
16.@@ 19248
tank 19244
SB@@ 19244
tro@@ 19243
MS@@ 19239
bonds 19232
struggle 19227
Reports 19226
Ko@@ 19219
regarded 19218
Mis@@ 19218
trying 19212
UNIT@@ 19211
shr@@ 19206
awarded 19201
amp 19187
mercury 19183
Interior 19180
picture 19176
Pi@@ 19173
Industry 19161
tension 19157
Statement 19156
denied 19155
ling@@ 19153
practi@@ 19147
ring 19141
exists 19140
urge 19140
commit 19136
roads 19131
deser@@ 19128
strict 19126
heritage 19118
rapidly 19113
acity 19108
necessity 19103
Mari@@ 19103
favourable 19092
consolidation 19089
miti@@ 19088
earth 19079
Moz@@ 19074
1987 19070
institu@@ 19070
Ham@@ 19069
tell 19068
Standards 19056
instances 19052
headed 19047
е 19045
itary 19042
collect 19039
cal@@ 19035
banking 19033
Bas@@ 19033
airspace 19030
observ@@ 19027
arrangement 19026
expanding 19021
Her 19020
responded 19016
Can@@ 19012
cargo 19006
managing 19004
renewed 19001
imm@@ 19000
assessing 18989
1985 18988
deaths 18969
adjustments 18959
TM@@ 18951
ata 18950
defini@@ 18950
liv@@ 18949
visitors 18946
by@@ 18940
voice 18938
130 18937
distinction 18936
Indian 18932
ahead 18924
ained 18923
iliation 18921
о 18905
manual 18901
revenue 18895
profile 18890
candidate 18886
Ñ 18879
ā@@ 18876
2.3 18873
enforced 18860
Naz@@ 18859
drop 18843
replacement 18843
alo@@ 18827
driving 18826
walk 18823
Det@@ 18820
discharge 18819
species 18813
izing 18811
allevi@@ 18798
Figure 18795
tain 18794
stocks 18783
attempts 18776
entru@@ 18776
healthy 18769
Standing 18769
soil 18761
her@@ 18759
POR@@ 18747
automatically 18742
genocide 18740
addresses 18730
univers@@ 18727
cold 18722
Sk@@ 18720
ority 18719
arities 18716
parallel 18701
ards 18696
comprising 18694
phenomenon 18686
limitations 18681
pied 18677
division 18674
closer 18674
huge 18672
sion@@ 18672
sto@@ 18663
Occu@@ 18653
signature 18647
powerful 18644
za 18643
ered 18642
outreach 18629
ilit@@ 18629
commodity 18627
dur@@ 18581
Syria 18564
kov 18561
opti@@ 18555
ć 18544
Similarly 18538
Ber@@ 18538
unions 18537
sam@@ 18537
aspect 18515
mostly 18514
coastal 18505
sentenced 18497
freely 18478
102 18477
integr@@ 18471
ei 18468
camp 18465
Three 18464
incident 18464
suggest 18463
arrival 18459
violent 18452
lining 18435
convicted 18432
disc@@ 18421
oning 18418
Machine 18414
divided 18404
coordin@@ 18403
stein 18402
ide@@ 18400
pling 18394
tention 18393
chap 18393
Malta 18380
stitu@@ 18377
depends 18375
CL@@ 18364
Cameroon 18360
adults 18359
sia 18358
ARY 18357
He@@ 18353
oy@@ 18343
verb@@ 18335
steel 18327
AF 18327
notably 18324
55@@ 18324
acquired 18315
waters 18309
duc@@ 18307
convinced 18299
meters 18295
doubt 18285
irs 18279
famous 18278
moved 18275
counter@@ 18275
administ@@ 18274
Class 18268
tre@@ 18263
harassment 18262
career 18255
orientation 18254
River 18254
cen@@ 18254
H.@@ 18249
pu@@ 18235
reportedly 18235
seeks 18231
ang 18230
Fas@@ 18229
ls 18221
university 18217
declar@@ 18214
Tu@@ 18210
mutually 18199
themes 18196
delays 18194
Strip 18189
certification 18177
75@@ 18177
conver@@ 18170
CI 18165
chair@@ 18162
sufficiently 18161
seat 18160
Anti 18160
M. 18157
Sit@@ 18157
Lev@@ 18147
driven 18142
1980 18134
Airport 18134
104 18132
gies 18130
part@@ 18128
ba@@ 18127
Yes 18125
classes 18120
Question 18111
bre@@ 18106
railway 18099
receipt 18098
Main@@ 18096
images 18087
emb@@ 18077
ped@@ 18077
vessel 18074
rental 18072
compulsory 18071
universities 18062
subsi@@ 18055
.com.@@ 18055
sum 18052
sement 18047
Vehic@@ 18044
system@@ 18042
bat 18040
destroyed 18039
Museum 18039
termination 18034
messages 18031
recalls 18023
ack 18022
Japanese 18021
ong 18020
aria 18013
SC 18013
providers 18010
Yemen 18006
gold 18001
protocols 17997
alternatives 17990
20.@@ 17988
poly@@ 17979
depl@@ 17965
hs 17953
67@@ 17950
Upon 17947
ved 17943
dimension 17935
entering 17934
write 17918
allegedly 17909
sect 17908
J 17891
hosted 17886
submissions 17883
unities 17872
Emp@@ 17866
MS 17865
cm 17850
speech 17849
19.@@ 17845
respected 17844
inhabitants 17836
hundred 17834
forthcoming 17833
bs 17832
hospital 17832
1982 17828
judgement 17827
perpetr@@ 17822
ict 17819
103 17818
farmers 17811
ania 17802
resort 17795
human@@ 17788
180 17785
employers 17770
ans@@ 17769
tic@@ 17762
generate 17756
Del@@ 17751
head@@ 17745
accountable 17743
witness 17735
solve 17735
coun@@ 17735
stream@@ 17733
proof 17730
Barcelona 17727
Production 17724
Senior 17720
Wh@@ 17712
virus 17708
customary 17696
handling 17693
exhau@@ 17679
saving 17677
Feb 17671
accurate 17670
grou@@ 17667
census 17664
ke@@ 17662
seekers 17657
metres 17655
sponsored 17653
derived 17644
Tar@@ 17644
pp@@ 17639
locate 17632
ass 17618
separation 17618
Progress 17608
ра@@ 17605
flu@@ 17599
metal 17595
situated 17589
Original 17583
solid 17581
dic 17576
colour 17576
incorporate 17572
nation@@ 17566
anticipated 17563
ference 17554
Park 17550
ano 17544
lit@@ 17535
negotiating 17531
eligible 17525
exclusion 17522
prejudice 17521
atories 17519
Burk@@ 17514
restaurant 17514
spiritual 17511
erous 17505
consultants 17498
inquiry 17497
Prev@@ 17496
internet 17489
equi@@ 17488
gained 17478
MP 17478
Guide 17474
raw 17473
consisting 17473
Emergency 17469
111 17465
propose 17460
Basic 17460
prises 17457
Log@@ 17428
sig@@ 17423
NATO 17421
1967 17416
laundering 17412
pursued 17404
Vladimir 17396
sal 17396
nit@@ 17393
inflation 17390
memory 17386
kinds 17385
quot@@ 17379
perhaps 17377
interpre@@ 17377
utions 17373
aking 17373
bul@@ 17365
exclusive 17360
maritime 17360
Commonwealth 17356
portion 17346
4.1 17338
photos 17337
AH 17330
Cau@@ 17329
SID@@ 17329
firms 17327
enabled 17324
director 17322
SS 17317
arise 17313
SA 17311
continent 17307
Tru@@ 17305
heading 17299
girl 17292
observation 17292
watch 17290
historic 17276
absolute 17260
Mun@@ 17260
tocols 17255
ately 17251
gg@@ 17239
Cri@@ 17235
sl@@ 17234
gains 17225
106 17223
Tel 17223
cents 17218
indic@@ 17217
info 17217
140 17215
playing 17213
ressing 17193
bits 17184
Av@@ 17179
explosive 17175
simpli@@ 17170
chain 17165
Montreal 17165
channels 17161
marketing 17161
112 17159
certainly 17155
fu@@ 17155
hara 17153
destination 17149
exceptional 17146
fell 17141
perfect 17140
sea@@ 17139
bia 17139
filled 17126
transaction 17125
regulated 17116
rel@@ 17116
harmful 17116
Jewish 17115
wanted 17113
Sc@@ 17113
essing 17108
my@@ 17103
UNF@@ 17098
depend 17097
ete 17096
bor@@ 17093
necessarily 17091
resol@@ 17090
injury 17085
obtaining 17085
AO 17080
short@@ 17077
ist@@ 17077
reductions 17074
108 17062
minor 17055
mention 17048
penalties 17042
hand@@ 17042
exposure 17039
sup@@ 17035
coherent 17034
Jamaica 17032
villages 17027
Bon@@ 17011
UC@@ 17011
ping 17005
GO@@ 16999
cruel 16998
shift 16993
teen 16985
lawyer 16984
makers 16978
genuine 16975
Medical 16971
oper@@ 16966
107 16964
Inclu@@ 16963
Mediterranean 16963
fer@@ 16957
Drug 16950
connections 16950
ordin@@ 16942
poll@@ 16929
Te@@ 16927
significance 16923
lev@@ 16916
ron@@ 16910
adhe@@ 16901
Ren@@ 16901
Alliance 16900
Cour@@ 16896
opinions 16893
incentives 16888
season 16887
button 16883
М@@ 16869
ero@@ 16868
2020 16857
none 16856
abo@@ 16851
ala 16849
nel 16844
immigration 16841
Reg@@ 16832
EA 16805
Her@@ 16799
ened 16793
Mor@@ 16793
Id@@ 16784
Program 16778
Suite 16771
responding 16767
till 16765
summit 16763
1990s 16761
competitiveness 16759
yl@@ 16758
carefully 16748
meant 16743
looked 16740
modified 16734
depos@@ 16727
heat 16724
incurred 16719
Property 16719
assumed 16718
б@@ 16707
empha@@ 16694
root 16686
carriage 16681
Ru@@ 16680
Lan@@ 16679
decreased 16670
marking 16661
navigation 16661
conting@@ 16643
west 16640
Hague 16631
pattern 16630
ó@@ 16628
attributable 16626
permits 16619
ME 16619
Chad 16616
Ly@@ 16615
IMF 16612
Iceland 16612
VE 16607
guided 16604
arrived 16603
ministers 16597
errors 16597
refused 16595
Private 16591
RA 16585
underlined 16576
normally 16571
BO@@ 16570
ws 16570
consequence 16569
repeated 16566
Descri@@ 16565
objection 16546
ric@@ 16544
black 16534
statute 16528
skin 16524
preserve 16522
centr@@ 16521
anything 16515
tation 16507
expectations 16505
spo@@ 16504
beings 16503
Lim@@ 16496
producers 16492
stresses 16491
invites 16483
UT@@ 16481
justified 16477
ame 16472
liabilities 16472
contents 16462
realized 16455
clarify 16454
Ir@@ 16453
hal@@ 16446
interference 16444
unlawful 16439
Doha 16433
tim@@ 16429
File 16427
brief 16426
finally 16421
cooperative 16420
dy 16418
height 16414
Life 16413
hunger 16412
oods 16408
mption 16407
mobility 16406
Er@@ 16405
Name 16399
sh 16397
ention 16388
referendum 16385
realize 16383
sert 16379
Shi@@ 16378
wind 16375
abuses 16374
beach 16372
delegates 16370
maxim@@ 16368
exploration 16365
mul@@ 16361
elev@@ 16358
pil@@ 16355
player 16353
row 16341
wrote 16335
43@@ 16335
dule 16330
deeply 16320
tin@@ 16313
vis 16309
XI 16302
millions 16296
organisations 16294
Don@@ 16293
UK 16292
44@@ 16279
curement 16276
owners 16274
securities 16267
remun@@ 16265
lor@@ 16263
intensive 16256
Nag@@ 16250
satisfactory 16242
diverse 16239
aster 16236
chance 16231
chaired 16231
juvenile 16225
recur@@ 16223
87@@ 16219
Paragrap@@ 16219
pa@@ 16209
Grand 16207
condu@@ 16199
measuring 16193
ara 16189
du 16185
doesn 16177
deposit 16163
diff@@ 16157
ow@@ 16156
log 16153
ric 16147
interactive 16144
indicating 16143
tran@@ 16139
ration@@ 16133
ulsion 16125
restoration 16113
uk@@ 16111
seized 16109
terrorists 16109
eded 16108
LA 16100
parking 16100
Jama@@ 16087
ameter 16084
apping 16082
injured 16081
stitutes 16076
willingness 16067
G.@@ 16062
89@@ 16058
Zimbabwe 16048
fresh 16045
eyes 16044
115 16043
sm@@ 16036
lock 16036
ban@@ 16032
lish 16031
Common 16031
vin@@ 16029
chief 16027
160 16025
river 16020
officially 16017
emer@@ 16016
liquid@@ 16012
closing 16011
Panama 16003
6th 15995
servants 15993
hot 15988
detection 15985
deprivation 15978
tivity 15974
specify 15957
FR@@ 15954
dependence 15950
Appeals 15947
asser@@ 15943
vice 15942
tradition 15942
arity 15940
mp@@ 15937
sentences 15936
secured 15930
rit@@ 15925
deals 15920
QU@@ 15919
Bot@@ 15910
burg 15909
relates 15901
inci@@ 15899
conviction 15893
anyone 15890
bitr@@ 15890
enced 15886
broad@@ 15879
democr@@ 15862
Click 15861
aires 15860
finds 15859
5th 15856
estate 15855
operated 15854
generations 15853
rol@@ 15853
4.2 15851
etings 15851
Fre@@ 15842
59@@ 15842
ore@@ 15841
quantity 15835
chi@@ 15833
oun@@ 15826
stru@@ 15820
ti 15819
expect 15817
granting 15817
contemporary 15805
Olympic 15805
ley 15804
apartments 15797
PP 15791
q 15790
88@@ 15788
architecture 15787
Web@@ 15784
departure 15775
ater@@ 15768
mer 15763
ini@@ 15761
error 15750
66@@ 15748
radi@@ 15738
F. 15737
excessive 15736
logistics 15736
clearance 15732
cultures 15723
astly 15723
0,000 15716
specific@@ 15713
minors 15713
inary 15708
operative 15704
itative 15700
rail 15694
possession 15694
closure 15691
ст@@ 15690
Yet 15687
ads 15687
nar@@ 15684
pedi@@ 15684
ts@@ 15684
mag@@ 15682
named 15680
deleted 15679
stronger 15673
lied 15670
fe 15667
Analysis 15663
passing 15654
ancies 15653
vation 15652
Former 15648
datab@@ 15646
Azerbai@@ 15642
Muslim 15635
ple 15629
ains 15628
resistance 15616
enemy 15616
Ban 15612
Na@@ 15601
Agre@@ 15600
Mrs. 15599
husband 15592
Christian 15581
twel@@ 15581
Equi@@ 15565
ailed 15562
s. 15561
21@@ 15555
IO@@ 15552
strictly 15547
western 15541
organic 15537
assume 15533
vast 15527
ss@@ 15527
Mag@@ 15518
pol@@ 15510
slow 15508
eless 15505
alogue 15499
rising 15493
Basel 15491
dor@@ 15479
About 15473
ination 15472
posted 15472
Besides 15467
visible 15464
Pap@@ 15462
capability 15456
breach 15456
Sev@@ 15453
secret 15452
son@@ 15450
Chemical 15449
translated 15447
merely 15437
led@@ 15431
consequ@@ 15429
classified 15413
fit 15404
cell 15402
accelerate 15387
Pension 15386
prev@@ 15371
involves 15366
ized 15365
istics 15360
CI@@ 15351
Quote 15343
frequency 15339
owner 15339
ok 15339
Fe@@ 15331
й 15331
wh@@ 15325
repair 15320
smaller 15318
feedback 15318
awi 15309
traditions 15308
occupying 15306
program@@ 15304
excluded 15295
Why 15294
Spirit 15294
TC 15291
brief@@ 15288
3.3 15286
ich@@ 15285
guest 15282
minute 15276
Way@@ 15271
civili@@ 15270
heating 15268
ulating 15265
dro@@ 15263
1.4 15262
minister 15258
David 15255
plus 15254
monitored 15249
restore 15245
whereas 15244
ammunition 15235
Dr. 15235
approve 15234
operators 15234
IV@@ 15231
Records 15227
holiday 15226
getting 15221
65@@ 15221
lay 15215
Resour@@ 15204
à@@ 15196
Take 15194
provinces 15192
unnecessary 15189
craw@@ 15187
ama 15186
58@@ 15180
ideal 15179
Mac@@ 15177
Estab@@ 15177
Sof@@ 15173
vian 15170
loading 15169
thy 15166
Т@@ 15165
lived 15159
obliged 15158
hom@@ 15154
prosecutors 15154
toward 15152
ref@@ 15151
Down@@ 15151
5,000 15151
ocide 15147
mil@@ 15146
Anti@@ 15140
ACT 15132
Eth@@ 15128
Met@@ 15127
consult 15120
surveillance 15115
Systems 15112
bles 15111
char@@ 15107
regimes 15105
literacy 15094
inequality 15092
Viol@@ 15091
125 15087
taxes 15086
whereby 15081
shments 15081
loan 15078
appearance 15063
Latest 15063
codes 15060
ths 15059
vic@@ 15059
Dominican 15053
32@@ 15043
CM@@ 15040
yl 15040
brow@@ 15039
den 15038
drinking 15034
cultiv@@ 15033
organ 15033
duly 15032
Georgian 15032
ick@@ 15024
sw@@ 15018
arm@@ 15009
readiness 15008
persistent 15004
eliminating 15004
revealed 15003
116 14990
int@@ 14986
passenger 14983
Between 14983
geo@@ 14980
truly 14980
dent 14979
Emirates 14977
Observ@@ 14974
2.4 14971
ching 14968
hibitions 14965
hospitals 14962
fulfilled 14955
Esti@@ 14951
adjusted 14949
Google 14949
Ram@@ 14947
transformation 14941
beauty 14939
pictures 14933
wealth 14932
suffer 14931
S.@@ 14929
color 14927
Arms 14919
grow 14917
ich 14913
Arabic 14910
display 14905
113 14901
Texas 14900
Independence 14899
facto 14896
Swiss 14892
offset 14891
coer@@ 14884
counts 14867
ey@@ 14861
confisc@@ 14859
exclusively 14858
pregnancy 14857
&apos;ve 14852
star 14851
DS 14846
56@@ 14840
twice 14839
tanks 14839
willing 14828
monetary 14827
ordered 14820
Final 14819
trials 14811
seas 14803
Establishment 14802
ections 14798
province 14791
comfortable 14789
114 14784
mothers 14782
Stockholm 14780
stock@@ 14779
199@@ 14774
limit@@ 14770
pend@@ 14768
Len@@ 14764
FOR@@ 14762
MM@@ 14760
Parliamentary 14754
looks 14752
posi@@ 14749
consistently 14746
Due 14745
fraud 14741
furniture 14730
tative 14728
Pan@@ 14721
weak 14718
Inf@@ 14718
ote 14717
bud@@ 14715
bad 14713
ays 14707
ón 14707
counting 14704
cease 14702
encomp@@ 14700
ger 14697
suspected 14694
infr@@ 14687
ok@@ 14683
salaries 14681
districts 14677
aj@@ 14672
complement 14664
foot@@ 14661
progressive 14660
П@@ 14660
isite 14659
suppliers 14659
moni@@ 14658
Do@@ 14653
ishable 14651
И@@ 14649
Pat@@ 14646
beneficiaries 14646
atters 14645
sized 14640
Eur@@ 14629
Natural 14628
deadline 14624
ticul@@ 14620
gratitude 14615
accor@@ 14610
Administr@@ 14606
Quality 14600
tia 14593
ensured 14593
ux 14589
happy 14588
gl@@ 14582
spending 14570
dation 14569
route 14566
references 14564
advances 14561
123 14554
satisfied 14552
meth@@ 14550
emented 14540
inland 14537
kewise 14536
hin@@ 14535
plate 14534
pun@@ 14529
displayed 14527
optional 14520
drafted 14512
Tel@@ 14508
3.5 14500
dar 14499
eting 14484
Round 14482
ining 14480
supervis@@ 14480
117 14479
acted 14470
creative 14466
meaningful 14460
conversion 14459
&apos;m 14457
web@@ 14454
club 14450
Gol@@ 14447
Н@@ 14447
Library 14443
BR@@ 14442
tioners 14442
eva 14441
thanked 14440
install@@ 14435
PD@@ 14425
val 14418
UC 14417
ITY 14415
intends 14411
attitudes 14404
bis 14402
cast 14400
ums 14400
.... 14390
quest 14386
1978 14384
electrical 14375
repl@@ 14373
acquire 14371
referring 14371
provincial 14356
Currently 14351
org@@ 14347
1984 14339
helps 14327
adult 14325
suspended 14318
symbol 14303
kilometres 14302
causing 14301
credited 14299
Gi@@ 14297
impose 14292
cell@@ 14292
solv@@ 14291
Best 14289
forcing 14285
onal 14282
trip 14281
recall 14269
Just 14263
mony 14262
Gas 14261
del 14255
tian 14253
Electoral 14252
Front 14252
Kiev 14251
dollar 14248
prevented 14247
Kr@@ 14245
post@@ 14237
Sat@@ 14218
Add 14217
stro@@ 14212
peti@@ 14211
occasions 14211
revit@@ 14207
jan 14206
Iranian 14205
consistency 14204
entreprene@@ 14199
killing 14195
substantially 14193
Chair@@ 14187
foreigners 14185
remarks 14181
tribunal 14178
cre@@ 14177
Р@@ 14177
invasion 14176
plane 14173
Sw@@ 14158
thinking 14156
passengers 14153
existed 14149
prompt 14148
album 14145
defici@@ 14144
automatic 14143
patient 14143
characterized 14140
Microsoft 14134
entirely 14134
certificates 14134
ate@@ 14131
Branch 14125
Kin@@ 14120
coll@@ 14119
attitude 14114
122 14112
TER 14112
circul@@ 14111
cou@@ 14108
airlines 14104
sor@@ 14098
ck@@ 14097
identi@@ 14095
act@@ 14094
Studies 14091
coal 14089
subsidies 14088
detect 14087
Freedom 14081
ali 14079
possibly 14078
В@@ 14077
defining 14060
acceler@@ 14058
considerably 14056
pul@@ 14056
Fil@@ 14055
poses 14054
speaker 14053
Sav@@ 14052
Comb@@ 14047
Wind 14046
Twenty 14037
wel@@ 14037
fee 14034
gathered 14029
decree 14023
performing 14022
condi@@ 14016
Mand@@ 14015
instruction 14007
G. 14005
desirable 14000
24.@@ 13999
zh@@ 13998
ight 13995
ny 13989
mation 13989
inations 13987
outline 13986
greenhouse 13973
branches 13971
exposed 13970
2,000 13969
Def@@ 13963
student 13962
stence 13960
ease 13959
PE 13954
TD 13950
enders 13947
zero 13940
dly 13935
communicate 13929
ceremony 13926
machines 13923
dead 13922
seemed 13921
1981 13921
Tro@@ 13913
separately 13910
amb@@ 13909
ET 13903
Black 13895
Nur@@ 13894
stance 13891
gases 13889
appoint 13887
iti 13882
aboli@@ 13881
imports 13879
sold 13876
concer@@ 13872
permission 13871
constantly 13870
ily 13869
pot@@ 13863
ville 13856
elsewhere 13850
Not@@ 13849
confirm 13847
Travel 13842
Ag@@ 13841
administered 13832
promptly 13826
ural 13823
san@@ 13822
column 13819
targeting 13811
meets 13803
holds 13795
sole 13793
Iv@@ 13793
Korean 13789
partially 13788
VI@@ 13786
tournament 13784
quick 13776
indication 13766
ista 13762
stood 13759
San@@ 13759
î@@ 13758
tan@@ 13757
pal 13755
pur@@ 13754
focuses 13753
ules 13753
leads 13748
hy@@ 13747
met@@ 13745
SS@@ 13744
coordinator 13741
Base 13737
Supp@@ 13736
explicitly 13731
parliam@@ 13728
kitchen 13723
commodities 13714
Contact 13711
seconds 13710
disadvantaged 13707
eline 13704
kin@@ 13701
documented 13700
rating 13700
regre@@ 13700
accounted 13698
directions 13697
Back@@ 13691
scientists 13690
118 13688
sit 13684
Dep@@ 13684
contractors 13684
Euro 13682
ensures 13682
park 13677
proceeds 13676
Capital 13675
install 13673
attract 13672
plo@@ 13665
threatened 13664
Ocean 13664
icial 13649
Cru@@ 13647
eigh@@ 13643
visa 13637
encing 13635
Mer@@ 13635
benef@@ 13634
analyse 13631
encountered 13625
lose 13617
accidents 13617
Kal@@ 13613
stands 13606
� 13604
hopes 13601
play@@ 13598
hatred 13595
Honduras 13587
Light 13584
pupils 13582
ank@@ 13578
channel 13578
credibility 13575
ens@@ 13572
ap 13571
falls 13571
solely 13568
Hall 13566
hori@@ 13560
arguments 13553
hard@@ 13552
industri@@ 13551
gol@@ 13544
frag@@ 13531
surrounding 13528
Related 13525
Games 13524
Gab@@ 13523
cars 13521
intermedi@@ 13521
wages 13518
Current 13515
didn 13512
fruit 13512
ruling 13508
mountain 13505
disclosure 13494
Win@@ 13490
Ref@@ 13483
exercises 13482
demographic 13478
packages 13474
S. 13471
long@@ 13466
potentially 13464
prai@@ 13464
Line 13460
supplied 13457
dispens@@ 13448
pregnant 13446
drivers 13444
precise 13443
highlight 13443
ww@@ 13442
rential 13439
undermine 13437
appreciated 13433
Good 13432
elderly 13432
Brussels 13430
lishments 13428
Tob@@ 13425
preservation 13424
vary 13413
Governor 13412
sch@@ 13411
hundreds 13409
Workers 13408
ious 13405
exam@@ 13404
Jews 13387
lished 13384
recei@@ 13384
shape 13380
Tre@@ 13378
ades 13372
AK@@ 13371
retained 13370
ist 13369
119 13365
reinforce 13364
versions 13363
mit@@ 13357
Market 13346
ise 13343
extensions 13338
Pow@@ 13335
viol@@ 13330
comparable 13328
Bri@@ 13328
tionally 13328
bottom 13327
sizes 13325
Hu@@ 13324
difficulty 13323
suggests 13321
Reli@@ 13318
talk 13316
whatever 13311
tically 13308
SI@@ 13300
politics 13299
hel@@ 13298
assurances 13297
Canadian 13296
fea@@ 13296
exchanges 13295
e.com 13291
Maur@@ 13287
ca 13286
Imp@@ 13283
shelter 13282
fare 13280
PI 13274
contracting 13274
Ph@@ 13271
complexity 13270
affordable 13268
residential 13257
valence 13250
dition 13247
crossing 13246
Super@@ 13245
arm 13243
rever@@ 13241
radiation 13237
guration 13235
Without 13234
retain 13232
cycles 13229
earing 13227
kers 13219
autom@@ 13219
visiting 13215
pro 13210
eness 13210
angle 13208
refrain 13205
ga@@ 13203
hot@@ 13200
feed 13198
eing 13197
fax 13193
phrase 13192
Media 13189
kin 13180
dium 13180
reas@@ 13179
Bahrain 13176
Luk@@ 13175
hoods 13173
Paul 13172
exemp@@ 13171
pieces 13167
ranging 13161
disappearance 13160
Cuban 13155
Forty 13151
conv@@ 13149
spare 13145
yana 13142
married 13140
Libya 13139
jo@@ 13138
let@@ 13137
nevertheless 13136
25.@@ 13135
tonnes 13135
foundations 13126
tourist 13125
lateral 13119
inhe@@ 13118
tices 13115
ре@@ 13111
executed 13109
blue 13105
ovi@@ 13104
onom@@ 13102
capit@@ 13092
conditioning 13091
Dar@@ 13090
nomin@@ 13085
a.com 13079
ona 13076
origin@@ 13058
uniform 13056
corporations 13053
prosecutor 13052
99@@ 13050
Hai@@ 13048
quiry 13046
Boo@@ 13043
bathroom 13040
interview 13039
ising 13039
Against 13030
NAT@@ 13029
obvious 13028
alists 13028
Petro@@ 13028
extraordinary 13022
Conduct 13020
consumers 13018
inspections 13014
verify 13009
injuries 13006
ek 13006
parent 13003
declined 12998
anda 12998
cataly@@ 12997
generating 12996
alt 12989
merits 12985
uri@@ 12985
Account 12984
prosperity 12983
appearances 12982
1,0@@ 12978
100@@ 12978
publicly 12976
cat@@ 12975
biting 12972
zz@@ 12961
tangible 12958
massive 12955
appreciate 12952
ffor@@ 12951
observe 12951
gradually 12945
Cup 12944
beneficial 12944
substan@@ 12943
vals 12937
towns 12935
putting 12930
apparent 12928
refusal 12928
hon@@ 12927
initially 12920
Housing 12919
falling 12914
employer 12912
Hong 12912
altern@@ 12909
Hi@@ 12908
liable 12908
library 12907
listing 12905
Madrid 12901
Presidents 12896
repeatedly 12894
Polish 12890
tour 12887
feasible 12877
DO@@ 12874
employee 12869
thorough 12869
counselling 12866
ought 12860
collecting 12859
motor 12846
yourself 12842
formally 12831
arious 12831
5.1 12828
Check 12818
retari@@ 12818
76@@ 12817
block 12813
gathering 12807
prosecute 12806
ageing 12803
labor 12798
awards 12797
Ol@@ 12796
ography 12796
happened 12790
NS@@ 12788
IB@@ 12781
prevailing 12778
upper 12775
DI@@ 12771
spring 12763
4.3 12757
nish 12755
Kong 12753
rely 12750
sin 12749
recruited 12747
width 12743
vit@@ 12734
imperative 12732
Ban@@ 12730
Auth@@ 12726
1973 12725
cere@@ 12724
signal 12723
Archi@@ 12723
revolution 12719
King 12716
glass 12714
ign@@ 12711
handed 12698
sten@@ 12698
Oil 12697
story 12692
Program@@ 12692
plays 12691
borne 12688
opposed 12686
decent 12686
cells 12680
Bill 12680
han@@ 12679
iles 12679
pace 12675
bes 12666
constructed 12663
whenever 12662
ratings 12662
viewed 12654
soli@@ 12652
128 12651
ourselves 12649
Directors 12646
confid@@ 12644
Person@@ 12640
negotiated 12637
easier 12635
viable 12632
eff@@ 12628
gin@@ 12622
bridge 12618
divisions 12617
Rw@@ 12615
calculation 12615
fitted 12609
stly 12601
Relief 12600
GS 12600
firmly 12599
mixed 12599
н 12597
declare 12594
gement 12593
orities 12593
dam@@ 12592
FA 12591
explan@@ 12586
presidency 12584
emerged 12577
AV@@ 12569
sition 12567
finished 12564
Ba@@ 12557
ais 12556
Atlantic 12552
Officers 12552
ris@@ 12550
assurance 12543
ose 12540
Inst@@ 12534
cia 12528
faces 12522
Rac@@ 12520
immigrants 12519
investigated 12518
beam 12517
Reform 12515
Unfortunately 12514
stream 12512
ari 12511
revenues 12509
voy 12509
ped 12508
LI@@ 12506
Survey 12503
Professor 12502
vers@@ 12500
spite 12497
HO@@ 12493
check@@ 12492
sel 12492
Major 12489
relatives 12487
bian 12485
Monetary 12481
wishing 12481
Peter 12479
ises 12474
maintains 12471
murder 12470
Boli@@ 12464
Cher@@ 12462
describe 12462
tis 12460
69@@ 12455
shops 12453
songs 12451
someone 12450
aka 12450
reception 12447
Study 12447
welcoming 12447
ys@@ 12446
know@@ 12442
resses 12439
Bl@@ 12438
liance 12437
paying 12436
Corporation 12433
dom@@ 12424
fulness 12422
Fr@@ 12422
economically 12419
evolution 12419
alist 12414
tensions 12413
accident 12410
tan 12408
ow 12406
realistic 12404
Cop@@ 12403
contributes 12399
ilian 12397
CO2 12394
cri@@ 12387
drought 12387
impl@@ 12384
expressing 12379
commerce 12375
winter 12375
delayed 12371
leum 12370
Be 12367
teacher 12359
rey 12353
ject 12353
punished 12351
curricul@@ 12350
pality 12347
Bur@@ 12345
tra@@ 12341
discriminate 12338
ams 12336
Agricul@@ 12336
ultimate 12336
governed 12335
ener@@ 12334
determin@@ 12333
construc@@ 12327
suring 12327
CF@@ 12326
ondly 12325
particul@@ 12324
vis@@ 12323
credible 12318
religi@@ 12318
prep@@ 12317
rendered 12312
Hot@@ 12309
illustr@@ 12303
Rom@@ 12301
tab@@ 12297
ceasefire 12297
stric@@ 12292
suspension 12289
ners 12277
guilty 12270
DR@@ 12266
interpreted 12263
malaria 12260
hosti@@ 12260
grown 12258
fail 12257
1979 12252
Mem@@ 12252
tionary 12250
68@@ 12250
Les@@ 12249
law@@ 12247
withdraw 12246
aviation 12243
fiable 12235
safeguard 12229
launching 12226
ae 12225
parliament 12219
song 12219
fol@@ 12215
proving 12210
swan@@ 12208
zer 12207
releases 12205
recording 12197
aba 12196
blog 12196
ette 12194
evident 12182
jurisdic@@ 12175
26.@@ 12174
urgently 12171
Pay@@ 12161
1970 12160
ox@@ 12153
else 12153
Forest 12153
damages 12150
ancient 12149
1983 12147
shot 12142
yn@@ 12142
Kam@@ 12141
Product 12140
Islam 12139
enables 12133
Gener@@ 12128
sof@@ 12128
emp@@ 12126
urgency 12125
email 12123
omin@@ 12121
Land@@ 12120
accum@@ 12114
propri@@ 12113
--@@ 12101
р 12100
pill@@ 12099
fulfilling 12099
accuracy 12092
uniqu@@ 12090
Peri@@ 12088
false 12087
Master 12081
ultimately 12073
berg 12073
Tat@@ 12073
Olympics 12071
default 12069
certified 12061
partly 12057
printing 12055
ys 12055
extending 12053
mainstream 12052
dam 12051
Key 12050
differenti@@ 12050
operator 12049
divi@@ 12046
stimul@@ 12044
well@@ 12043
AW@@ 12042
Roman 12041
Up 12030
suggestion 12028
Read 12028
carrier 12023
span 12022
phen@@ 12021
deep@@ 12020
slightly 12019
ward 12016
tel@@ 12016
cel@@ 12014
Royal 12010
5.2 12004
Defense 12003
cited 12002
enjoyed 12001
engaging 11998
Goal 11997
beds 11994
colleagues 11993
fel@@ 11988
net@@ 11987
adding 11984
gone 11982
separated 11974
booking 11972
currencies 11968
Rot@@ 11966
Economy 11963
remember 11957
desired 11955
ilities 11954
Target 11951
agent 11949
Os@@ 11948
restaurants 11946
Att@@ 11946
tub@@ 11946
deteri@@ 11940
proven 11939
ы@@ 11939
worthy 11938
islands 11938
ots 11933
Compu@@ 11930
settled 11928
onia 11924
78@@ 11920
animals 11911
commun@@ 11909
versity 11907
dig@@ 11903
privacy 11900
170 11900
game@@ 11900
partment 11899
appointments 11897
Fiji 11896
computers 11891
lic 11887
loads 11886
shipping 11884
Stock 11883
contrast 11881
perio@@ 11878
3,000 11876
Istanbul 11874
My@@ 11874
Tok@@ 11874
oked 11860
Investig@@ 11859
gor@@ 11859
privati@@ 11854
coffee 11850
store 11847
hi 11843
medicine 11842
FE@@ 11842
defend 11837
lad@@ 11834
breakfast 11832
centers 11831
securing 11831
sni@@ 11829
fic 11826
Future 11825
promotes 11821
distinct 11818
menu 11816
survival 11812
regrets 11809
compromise 11808
ster@@ 11807
Presidential 11806
tackle 11804
eventually 11803
Can 11803
Up@@ 11803
1975 11799
8th 11798
Summer 11798
telecommunications 11793
Net 11793
kets 11790
Father 11787
routes 11785
ocean 11785
CR 11784
dil@@ 11780
adapt 11779
Gran@@ 11779
ature 11778
guar@@ 11777
4.5 11777
enary 11768
enforce 11767
offenders 11766
ock 11764
addi@@ 11761
ell 11757
doctor 11748
resume 11744
urs@@ 11743
Putin 11739
Gaz@@ 11737
strike 11734
Prosecution 11733
graphic 11727
momentum 11726
die 11718
participant 11718
Kor@@ 11714
Sports 11709
retirement 11704
gs 11704
ction 11703
ublic@@ 11700
brand 11697
shareholders 11697
š@@ 11695
Products 11692
tage 11684
Long 11678
Australian 11678
Associ@@ 11668
waiting 11666
evening 11664
engines 11657
Bor@@ 11651
design@@ 11650
gues 11647
Personal 11646
elaborate 11645
ment@@ 11644
ab 11639
J. 11639
bo 11636
ac 11633
frequent 11633
confidential 11632
evil 11628
samples 11628
Radio 11627
lec@@ 11625
Ten@@ 11621
immunity 11621
pon 11619
pursuing 11618
severely 11616
Lake 11615
sons 11613
real@@ 11611
therapy 11606
retro@@ 11600
adap@@ 11598
eth@@ 11588
portfolio 11587
tus 11586
Mul@@ 11585
gam@@ 11579
ingly 11572
innov@@ 11570
anced 11570
ainment 11569
Alb@@ 11567
gy 11563
ни@@ 11563
imag@@ 11553
benefited 11548
petro@@ 11546
ONS 11544
logical 11542
workplace 11542
Traffic 11541
Journal 11540
ola 11538
echn@@ 11537
aches 11535
chair 11533
illa 11532
domain 11531
Pu@@ 11528
Sim@@ 11523
cali@@ 11523
manufacturers 11512
Club 11510
executions 11510
Cabinet 11508
advisers 11506
examining 11506
SO 11505
jects 11502
processed 11500
MA 11500
Overall 11498
container 11498
Monaco 11498
anese 11490
estic 11490
deposits 11486
Bar 11485
ails 11482
contradic@@ 11481
Kh@@ 11481
08@@ 11481
presu@@ 11479
reminded 11477
continuity 11476
theory 11475
func@@ 11475
enacted 11472
155 11469
Grou@@ 11467
arians 11466
manager 11466
Online 11466
NC@@ 11465
Chi@@ 11463
Swedish 11463
Beli@@ 11460
Sciences 11459
delete 11457
Results 11454
station@@ 11451
rements 11450
racist 11446
nutri@@ 11442
spend 11441
unified 11441
fir@@ 11441
enormous 11435
condemned 11435
attendance 11434
panels 11433
Well 11425
ested 11424
vertical 11423
Mess@@ 11421
arre@@ 11420
White 11416
victory 11413
1000 11411
match 11407
happen 11405
sending 11405
Trin@@ 11402
3.4 11397
edition 11397
ax 11393
presenting 11392
Ra@@ 11392
HR 11381
bases 11377
onian 11377
tered 11375
tak@@ 11374
tec@@ 11372
simultaneously 11370
29.@@ 11367
ri 11364
thly 11362
thesis 11361
da@@ 11361
hit 11352
admitted 11351
Part@@ 11350
adju@@ 11349
oul@@ 11348
Discus@@ 11347
constitution 11347
MP@@ 11346
Art 11345
Trial 11345
concentr@@ 11341
28.@@ 11338
satisfy 11335
Aff@@ 11334
demonstration 11332
ат@@ 11328
ath 11324
Pav@@ 11323
guarante@@ 11321
depend@@ 11320
135 11317
Book 11313
220 11313
tle 11312
Sen@@ 11311
FT@@ 11311
add@@ 11311
prosec@@ 11310
invest 11308
justification 11305
Dur@@ 11302
timetable 11300
fun@@ 11298
originally 11297
excess 11295
utmost 11294
21.@@ 11293
TE 11292
lie 11290
Arab@@ 11290
mea@@ 11283
Copenhagen 11283
doctors 11281
sequ@@ 11281
ung 11278
tend 11276
acces@@ 11276
erals 11276
expres@@ 11276
ution 11274
Appeal 11274
biggest 11267
amp@@ 11267
stake@@ 11262
May@@ 11261
27.@@ 11250
LA@@ 11245
bench@@ 11245
iciary 11243
reserved 11241
heal@@ 11239
Ca@@ 11238
bered 11236
cies 11224
FO@@ 11223
Gren@@ 11222
Sometimes 11219
investigating 11218
sha 11218
OB@@ 11218
competitions 11215
assured 11211
tial 11208
Inspec@@ 11207
deterior@@ 11206
hall 11206
circum@@ 11199
Embassy 11199
infected 11195
favorite 11191
mineral 11187
assignment 11187
warm 11182
10,000 11179
garden 11179
Should 11177
assure 11177
stu@@ 11172
nu@@ 11171
recipient 11170
orium 11167
inity 11162
CT 11159
brother 11158
ethics 11150
metals 11141
yah 11141
studied 11139
reads 11139
https 11139
open@@ 11136
iness 11134
kh@@ 11131
updates 11131
maternity 11128
brings 11125
semi 11125
deputy 11123
opens 11122
Sil@@ 11121
returning 11119
pornography 11119
23.@@ 11117
sheet 11116
ine@@ 11115
ker@@ 11114
ast 11112
curriculum 11110
exerc@@ 11109
rear 11109
classi@@ 11108
100,000 11103
introduc@@ 11102
Green 11101
nominated 11100
advise 11096
Top 11096
tru@@ 11094
flag 11089
ч@@ 11089
cancer 11088
sym@@ 11088
continuously 11080
formula 11078
fashion 11077
usual 11073
cing 11073
autonomy 11072
cleaning 11070
threshold 11069
alien 11066
Som@@ 11064
Mic@@ 11064
ska 11063
respon@@ 11058
circulation 11055
Men 11051
ede 11048
eve 11045
unknown 11045
si 11043
Who 11040
Port 11038
laboratory 11036
Manager 11028
school@@ 11027
expensive 11022
compens@@ 11006
sell 11005
efficiently 11004
motivated 11000
Victims 10999
filling 10998
210 10997
prise 10995
boards 10989
radioactive 10983
regulate 10980
confirmation 10975
pain 10974
Street 10972
cope 10970
opted 10967
manship 10958
upcoming 10956
withdrawn 10955
ential 10954
Andre@@ 10954
flash 10947
Soci@@ 10945
Florida 10937
legitimacy 10936
museum 10932
9th 10932
apo@@ 10931
Transfer 10930
tile 10929
guiding 10928
partments 10927
audience 10921
reali@@ 10919
tization 10918
hair 10918
aspirations 10912
hosting 10911
coast 10905
affects 10904
Province 10896
lights 10894
predictable 10893
Bangkok 10893
answered 10889
measurements 10887
skilled 10882
ept@@ 10882
instability 10875
powered 10873
Niger 10872
Fri@@ 10872
reliability 10872
alig@@ 10870
Lat@@ 10869
count 10868
PD 10868
perceived 10867
eas@@ 10865
Enterprise 10865
vegetables 10862
veri@@ 10859
aching 10858
pleasure 10858
Cro@@ 10858
pir@@ 10857
piece 10855
amoun@@ 10853
careful 10852
Head@@ 10849
sun 10846
fired 10844
Medi@@ 10841
advertising 10836
dges 10835
ecti@@ 10832
lowest 10823
statutory 10818
cum@@ 10809
unacceptable 10805
ians 10804
AI 10803
orian 10802
essentially 10800
planet 10798
containers 10798
eye 10795
neg@@ 10795
assumption 10795
mir@@ 10795
ands 10793
22.@@ 10791
Berlin 10788
esses 10787
placing 10781
scored 10780
etion 10775
Barbados 10772
contractor 10767
ities 10764
Sex@@ 10764
tioned 10761
doctr@@ 10759
ext 10758
Mil@@ 10757
Amendment 10756
entrepreneurs 10754
Fi 10748
ptions 10747
DE 10746
ç@@ 10744
Somali 10742
1.6 10740
Rig@@ 10737
pursuit 10736
atics 10731
Prague 10731
debates 10728
thermal 10727
justify 10724
wear 10723
Additionally 10719
returns 10718
Judge 10717
four@@ 10712
farm 10704
BT 10696
240 10693
Have 10693
usage 10691
reaction 10684
farm@@ 10684
slavery 10681
Altern@@ 10679
ila 10678
Hon@@ 10675
unemployed 10675
festival 10674
occurs 10670
ees 10670
sensi@@ 10660
trol@@ 10659
bon@@ 10656
GA 10653
enrich@@ 10652
adapted 10652
Festival 10652
ament 10651
GC 10648
Design 10647
realities 10643
fitness 10643
ound@@ 10642
interpret@@ 10633
blo@@ 10629
á 10627
wrestling 10626
ateral 10625
ori 10625
Cu@@ 10624
Commerce 10622
Four 10622
damaged 10621
stored 10621
ry@@ 10616
refriger@@ 10611
denial 10609
Exp@@ 10609
Coo@@ 10609
firearms 10606
obstacle 10603
Cairo 10602
unprecedented 10601
09@@ 10601
And@@ 10596
argument 10592
use@@ 10583
fer 10573
ere 10573
tt@@ 10569
distribu@@ 10568
ert 10558
che@@ 10556
excluding 10556
Works 10555
eds 10554
hidden 10549
Tax 10549
audio 10549
advancing 10548
poli@@ 10548
deri@@ 10547
fic@@ 10543
Experi@@ 10542
Commercial 10542
Buil@@ 10541
ethn@@ 10536
congratulate 10531
ora 10522
receives 10522
aling 10521
Add@@ 10521
145 10519
proposes 10517
environments 10515
mid@@ 10513
350 10512
oph@@ 10510
publish 10508
elect 10508
Cent@@ 10507
poorest 10506
lan@@ 10506
aqu@@ 10506
creates 10505
Ali 10504
akh@@ 10498
Est@@ 10496
council 10494
utes 10492
swimming 10491
stating 10489
tribute 10488
doors 10487
qualifications 10486
admission 10486
helpful 10484
GH@@ 10483
organisation 10480
conditional 10478
discover 10478
Catholic 10475
aliens 10473
ри@@ 10472
thirds 10471
2.6 10471
Zone 10470
refin@@ 10469
tively 10467
SN@@ 10467
highlights 10463
refuse 10456
testimony 10454
Vit@@ 10453
ã@@ 10451
conf@@ 10450
wants 10448
diagno@@ 10448
ern@@ 10446
Tourism 10445
sil@@ 10443
meat 10440
traff@@ 10439
hum@@ 10433
tracking 10433
Orthodox 10431
H. 10428
clam@@ 10422
Pennsylvania 10420
Thir@@ 10419
Opening 10415
exceeded 10409
0.5 10408
accommodate 10406
BA 10406
lawful 10400
scar@@ 10399
rogen 10395
Rap@@ 10394
Find 10394
ham@@ 10392
amm@@ 10391
1974 10390
к 10390
crops 10385
eat 10384
hn@@ 10382
buyer 10381
judg@@ 10381
connec@@ 10380
grew 10375
draw@@ 10373
advised 10372
inj@@ 10369
provider 10367
infection 10367
one@@ 10366
advers@@ 10364
D.@@ 10362
sitting 10361
invent@@ 10355
restraint 10344
upgrade 10340
Category 10337
discour@@ 10334
contest 10334
int 10333
radic@@ 10331
ey 10331
describes 10329
networking 10329
Gulf 10327
answers 10324
appealed 10323
exacerb@@ 10322
ро@@ 10320
Rail@@ 10319
Stand@@ 10315
Ltd 10313
liquid 10312
heavily 10309
attributed 10298
descent 10293
lighting 10292
в 10292
wine 10288
bly 10287
Chem@@ 10283
attending 10282
exceptions 10279
degrees 10279
broken 10278
age@@ 10277
aver@@ 10274
xed 10273
Young 10271
vers 10269
confident 10269
aku 10268
supportive 10267
packaging 10264
read@@ 10249
Med@@ 10245
enfor@@ 10244
fuels 10243
protective 10243
obj@@ 10239
outset 10236
Know@@ 10232
uring 10231
wrong@@ 10231
interviews 10222
lift 10222
ank 10220
perc@@ 10219
concep@@ 10218
Vie@@ 10217
ome@@ 10216
Box 10216
Nik@@ 10215
nine@@ 10214
medicines 10208
acknowledge 10206
spaces 10197
overn@@ 10191
Tit@@ 10190
Cape 10189
Glob@@ 10186
Iron 10182
1977 10178
discre@@ 10177
resu@@ 10175
ski@@ 10172
expense 10171
doc@@ 10170
abortion 10163
treat 10162
compati@@ 10162
ced 10160
Mine 10160
Case 10159
Taji@@ 10148
BC 10144
php 10144
supplement 10142
54@@ 10142
Aviation 10141
6.2 10141
knew 10135
compli@@ 10134
turing 10133
Eli@@ 10130
edge 10124
animal 10123
Bre@@ 10121
sustain 10119
brake 10116
concentrated 10116
soul 10116
Bhut@@ 10115
filing 10114
preferred 10109
ground@@ 10107
announcement 10098
edy 10096
fewer 10095
titu@@ 10093
TS@@ 10093
individually 10092
losing 10088
struction 10088
190 10087
isation 10085
Ha@@ 10082
argued 10081
visual 10080
Hand@@ 10077
newspaper 10073
Rus@@ 10071
baseline 10066
sly 10065
ut 10063
smuggling 10062
printed 10062
delivering 10059
Insurance 10058
entials 10054
War@@ 10052
sen 10051
Bak@@ 10051
roll 10050
ector 10049
Thanks 10048
fan 10046
loaded 10046
SH@@ 10045
Amend@@ 10043
ы 10043
killings 10042
Sport 10042
extra@@ 10039
History 10039
Station 10039
subsidi@@ 10038
hea@@ 10037
quantities 10035
yer 10033
Cont@@ 10030
pledges 10029
diary 10029
native 10023
acies 10022
accru@@ 10022
spon@@ 10020
ff 10019
worker 10015
plates 10014
rep@@ 10011
Illinois 10010
tent 10004
destroy 10003
holi@@ 10003
ales 10003
ballot 10002
tware 10001
websites 10001
emi@@ 9994
High@@ 9986
inner 9985
streets 9984
College 9983
Care 9983
Innov@@ 9982
friend 9981
respondents 9980
Е@@ 9978
num@@ 9976
runs 9969
tickets 9969
notified 9960
comfort 9959
ave 9955
Manufac@@ 9955
pret@@ 9954
desig@@ 9953
earn 9948
courage 9947
pal@@ 9944
spe@@ 9944
dies 9943
smooth 9942
discussing 9937
bal@@ 9937
ported 9934
Cur@@ 9929
1971 9927
Danish 9921
warran@@ 9917
ool 9916
resp@@ 9915
ran@@ 9912
uncertainty 9911
intimidation 9911
vity 9911
operates 9910
tariff 9908
fate 9908
Asp@@ 9908
weekly 9906
Five 9903
issuing 9903
negotiate 9902
actor 9900
supplier 9900
nationally 9897
retur@@ 9897
dy@@ 9895
fire@@ 9894
Reporting 9885
bedroom 9882
prefer@@ 9881
Organ@@ 9880
ush@@ 9879
roots 9879
judgment 9878
Produc@@ 9875
infra@@ 9872
actu@@ 9872
Baltic 9871
· 9868
defines 9862
tree 9861
locally 9860
entrance 9860
discipline 9858
specialist 9854
Croatian 9854
challenging 9851
sation 9847
evelop 9845
totally 9844
Phys@@ 9843
tability 9841
psych@@ 9841
Samoa 9839
gets 9832
steady 9832
GM 9832
Urban 9826
rolling 9825
invo@@ 9823
rers 9820
attempted 9816
tun@@ 9813
prof@@ 9812
evolving 9811
5.3 9810
R. 9809
Loc@@ 9806
ball 9806
clause 9805
any@@ 9804
mel@@ 9802
bour@@ 9801
joy 9799
Aid 9797
79@@ 9797
monitors 9796
mere 9795
orph@@ 9792
scenario 9791
robust 9790
discovered 9784
globally 9777
On@@ 9777
literature 9774
succession 9774
ï@@ 9769
aints 9769
violate 9765
Post@@ 9762
graph@@ 9761
1976 9760
discretion 9753
advoc@@ 9752
fruits 9746
responsive 9744
hearings 9738
absolutely 9737
sight 9736
nice 9736
Lab@@ 9735
appreci@@ 9734
holidays 9732
plan@@ 9731
PM@@ 9728
BB@@ 9724
independently 9721
reconc@@ 9720
stopped 9720
4,000 9714
Point 9714
prosecuted 9707
ide 9706
graphy 9705
structured 9704
Presid@@ 9702
reci@@ 9701
aligned 9693
cy 9693
buff@@ 9689
materi@@ 9688
Premi@@ 9686
voters 9682
interior 9682
Attorney 9682
Assi@@ 9681
chairs 9680
faster 9677
punish 9676
Air@@ 9673
trees 9672
Dan@@ 9670
band 9665
exact 9660
payable 9660
bn 9659
PE@@ 9658
л 9658
Green@@ 9652
safe@@ 9651
ì@@ 9646
belong 9645
distinguished 9640
aur@@ 9640
ben@@ 9636
defense 9622
draws 9622
walls 9621
decisive 9621
seller 9620
preser@@ 9615
precisely 9613
xim@@ 9613
oceans 9612
notion 9610
cir@@ 9608
flat 9608
Full 9607
exercising 9600
Abu 9599
7th 9598
designing 9595
explicit 9594
M.@@ 9590
corpor@@ 9584
sa@@ 9580
aniz@@ 9576
pt 9576
deficit 9575
scan@@ 9575
P. 9574
wai@@ 9574
aux 9567
emic 9566
Instead 9566
missile 9562
ERS 9562
appropriately 9561
eph@@ 9559
elec@@ 9559
230 9559
Deli@@ 9558
ffs 9556
remind 9553
feet 9552
vigor@@ 9552
Kon@@ 9549
Democracy 9547
xi@@ 9543
attractive 9541
privileg@@ 9539
umin@@ 9537
eeds 9536
vable 9535
OR 9533
cylin@@ 9532
aint 9529
stitution 9527
ò@@ 9527
aps 9525
contribu@@ 9522
pressed 9517
checks 9515
prize 9514
Vis@@ 9514
Veri@@ 9505
Commander 9504
publishing 9502
Gor@@ 9500
visibility 9499
amic 9485
ever@@ 9482
condem@@ 9479
Meanwhile 9477
innocent 9473
cas@@ 9473
Organisation 9472
tenance 9471
aly@@ 9469
50,000 9460
license 9460
Dest@@ 9456
socially 9455
acute 9452
sort 9450
arrive 9446
craft 9445
Laun@@ 9444
terrace 9442
avoiding 9441
dead@@ 9437
ethical 9435
complicated 9431
control@@ 9430
sual 9430
handle 9427
accomplished 9426
dri@@ 9425
filter 9422
train@@ 9421
allowances 9421
Don 9417
matic 9417
segments 9415
off@@ 9414
lers 9411
bet 9408
policymakers 9405
witnessed 9404
regret 9401
migr@@ 9401
commonly 9400
lem 9396
arranged 9396
prin@@ 9396
shortly 9392
tract 9392
associate 9389
Recomm@@ 9388
compreh@@ 9380
breeze 9380
oblig@@ 9376
seeing 9375
mg 9374
Abu@@ 9372
Senate 9371
pledged 9369
Expl@@ 9368
clean@@ 9358
timing 9356
recalling 9356
host@@ 9356
Shar@@ 9355
bit@@ 9354
ked 9352
solar 9349
decreas@@ 9349
eties 9344
micro 9343
tra 9339
gregation 9339
4.4 9338
eu 9336
directors 9334
stereotypes 9334
bel 9332
uk 9331
aside 9330
disproportion@@ 9326
feeling 9326
Mont@@ 9325
ourse 9323
toxic 9323
6.5 9323
voted 9317
scene 9314
bing 9312
Conc@@ 9311
wherever 9310
Yu@@ 9301
Mur@@ 9297
Performance 9296
eng 9295
Bio@@ 9292
20th 9290
guards 9290
solved 9288
selling 9286
cheap 9285
spr@@ 9285
cable 9284
qualification 9283
foot 9278
Maj@@ 9278
hydr@@ 9277
colonial 9276
dark 9275
virtually 9275
oke 9273
diet 9273
mechanical 9273
bi 9271
solving 9269
Real 9266
possess 9263
Color@@ 9262
Bol@@ 9258
credentials 9258
ze@@ 9258
ky 9254
Hor@@ 9253
Rat@@ 9253
div@@ 9251
gather 9251
Autom@@ 9250
tenure 9248
Mir@@ 9248
tations 9246
Coll@@ 9245
gin 9241
Muslims 9240
profound 9240
5.5 9239
Portuguese 9238
ran 9238
plastic 9237
iron 9236
Higher 9236
manufactured 9232
Saf@@ 9231
Investigation 9231
lishment 9231
Old 9225
aiming 9223
conscience 9219
utility 9219
Fif@@ 9218
ц@@ 9218
educ@@ 9217
spouse 9216
exit 9216
escape 9215
Individu@@ 9211
soft 9200
iland 9200
GE 9199
cho@@ 9199
Vo@@ 9198
Marine 9198
sou@@ 9198
corrections 9193
articul@@ 9192
ogen@@ 9190
arian 9190
ger@@ 9189
gnment 9188
Immigration 9188
rotation 9187
Age 9184
1972 9184
yes 9183
alls 9182
projections 9181
investigative 9180
fix 9179
dives 9177
consulting 9174
reflection 9164
VER@@ 9164
dropped 9163
Johannesburg 9162
traditionally 9161
plom@@ 9161
ira 9157
typical 9156
Pun@@ 9146
Taliban 9143
sy 9139
consulted 9139
breakdown 9138
bedrooms 9137
It@@ 9136
hour@@ 9135
comings 9133
managerial 9130
cop@@ 9130
Cen@@ 9130
GB 9129
administr@@ 9129
assault 9127
oma 9127
platforms 9125
cise 9124
icals 9123
conduc@@ 9119
Fo@@ 9118
ides 9112
parental 9111
Slov@@ 9106
capture 9106
Vil@@ 9105
,000 9101
intensity 9101
DR 9100
intend 9097
perfectly 9095
owed 9095
MB@@ 9093
strive 9089
nic 9089
Flo@@ 9087
ech 9085
Blue 9084
settle 9081
taught 9076
Telec@@ 9075
Starting 9074
tier 9073
football 9067
Woods 9067
Sud@@ 9065
lim@@ 9063
Palace 9061
Engineering 9061
Techn@@ 9059
touch 9059
wondered 9059
Brun@@ 9052
® 9052
sat 9051
elles 9050
Ale@@ 9049
20,000 9048
ICC 9046
genital 9046
intent 9045
connect 9042
nights 9039
shower 9035
TH 9035
beliefs 9028
í 9028
rest@@ 9027
spheric 9026
K. 9023
convenient 9017
reinforced 9016
factory 9013
acious 9013
narrow 9011
translate 9008
boat 9002
van 9000
diplomacy 8998
Egyptian 8994
ko@@ 8990
gres@@ 8989
afford 8989
starts 8989
proph@@ 8989
ther 8988
bulk 8983
prioriti@@ 8978
shopping 8977
hardware 8976
proj@@ 8974
Tun@@ 8970
prominent 8969
pping 8969
je@@ 8967
blocks 8964
ym@@ 8962
Far@@ 8959
ag 8958
purchased 8957
passage 8957
prescri@@ 8954
autonomous 8954
Eng@@ 8952
rs 8949
winner 8947
Jean 8946
wait 8941
steering 8940
lows 8939
eld 8934
afternoon 8933
й@@ 8933
worst 8932
pic 8931
nam@@ 8925
oni 8924
dismissed 8922
epidemic 8922
tar@@ 8920
rad 8917
Kit@@ 8916
stem@@ 8914
opposite 8912
transl@@ 8911
apart 8910
predic@@ 8907
isolation 8907
Norwegian 8905
surplus 8904
ress 8900
Make 8896
councils 8896
wid@@ 8894
Exc@@ 8890
Prison 8889
contrac@@ 8886
boundaries 8884
limiting 8883
isa 8883
correctly 8880
evi@@ 8879
ton@@ 8875
estici@@ 8874
practic@@ 8873
book@@ 8872
ram@@ 8871
sident 8868
anger 8867
researchers 8864
desk 8860
progres@@ 8858
personally 8856
layer 8852
lets 8851
CS 8850
sincere 8849
Sul@@ 8849
270 8848
promise 8844
applicants 8843
eted 8838
knows 8834
entional 8834
modelling 8829
cent@@ 8825
infant 8825
subscri@@ 8823
audits 8822
reverse 8820
virtue 8818
windows 8816
cher 8813
ulative 8810
holy 8807
ini 8806
bel@@ 8803
childhood 8801
med@@ 8797
ship@@ 8797
dimen@@ 8794
comprised 8794
nets 8792
exhaus@@ 8792
tyre 8790
2.7 8786
fle@@ 8786
chairman 8778
evic@@ 8776
Citizens 8772
edi@@ 8766
Sir 8765
ck 8764
pensions 8760
activists 8759
red@@ 8758
cancellation 8752
gro@@ 8745
iPhone 8745
warrant 8744
crit@@ 8743
The@@ 8743
Using 8743
score 8740
propor@@ 8738
helicopter 8737
detri@@ 8736
volumes 8734
ny@@ 8733
analysed 8732
studying 8724
Beach 8721
rou@@ 8718
Vir@@ 8717
Pos@@ 8717
ols 8705
Pot@@ 8703
mentation 8702
ula 8702
Reser@@ 8701
verse 8700
compe@@ 8700
ome 8699
Sea@@ 8699
renewal 8696
adjust 8696
ss 8695
suspects 8694
occur@@ 8692
deploy 8691
Az@@ 8679
aste 8678
ф@@ 8678
New@@ 8674
she@@ 8667
distor@@ 8666
squ@@ 8662
ek@@ 8658
choices 8657
li 8656
unanimously 8653
myself 8652
exclude 8652
insul@@ 8650
discount 8650
couple 8649
opi@@ 8649
varied 8649
spoken 8646
1960 8641
typically 8636
checked 8636
quiet 8629
telec@@ 8623
iling 8622
HS 8621
N. 8621
unlikely 8620
neutral 8620
persist@@ 8618
workforce 8617
Families 8615
Border 8615
Hamas 8612
hence 8606
accelerated 8604
lifting 8601
Puerto 8599
arr@@ 8598
imported 8595
Video 8592
L. 8591
births 8590
politicians 8588
hol@@ 8587
Bab@@ 8585
commentary 8582
Set 8579
Arctic 8578
crop 8570
artists 8570
De 8569
Prof@@ 8568
clothing 8568
č@@ 8568
aissance 8567
intensified 8567
commemor@@ 8566
peer 8563
joining 8562
Pha@@ 8562
federation 8558
aw 8556
Hence 8556
controlling 8555
chronic 8552
omm@@ 8551
guard 8545
keepers 8544
ж@@ 8540
concludes 8539
battle 8538
politically 8536
Men@@ 8536
emergence 8533
6,000 8527
briefed 8527
new@@ 8526
Dev@@ 8525
gran@@ 8520
linking 8520
rer 8520
gal@@ 8518
Bou@@ 8517
Prince 8515
ailing 8508
licensing 8508
restored 8506
reliance 8502
alcohol 8498
dynamics 8495
onc@@ 8491
Bil@@ 8489
und@@ 8484
Water@@ 8482
Pa@@ 8481
Ms 8474
threaten 8469
sponsor 8467
1958 8465
licence 8465
recover 8458
dilig@@ 8458
Kha@@ 8453
struc@@ 8450
peri@@ 8448
ministry 8448
profits 8447
justi@@ 8447
TY 8447
omet@@ 8446
Search 8441
turning 8440
preference 8435
hood 8434
theore@@ 8432
Will 8428
text@@ 8428
rad@@ 8428
embo@@ 8427
restrict 8427
star@@ 8426
siveness 8426
journ@@ 8425
spectrum 8423
yours 8421
ord@@ 8416
asses 8414
dures 8414
1.7 8410
dial 8404
uplo@@ 8404
gating 8402
hate 8399
stered 8399
concert 8399
diver@@ 8398
2018 8394
Mr 8391
ero 8388
develop@@ 8387
missiles 8386
constr@@ 8384
euro 8380
devi@@ 8378
Ay@@ 8374
mo 8370
familiar 8369
Strategi@@ 8366
convey 8363
Competition 8362
asting 8358
attacked 8353
Guar@@ 8351
AB 8350
fun 8347
Car 8347
enty 8344
yield 8343
differ 8341
genetic 8337
correspon@@ 8334
Om@@ 8333
athletes 8332
broadly 8330
ea 8330
Serbian 8328
quanti@@ 8328
flying 8326
Ed@@ 8325
175 8325
NI 8324
Budapest 8321
ope 8319
slo@@ 8315
Direct 8315
earnings 8313
mathem@@ 8312
bath 8310
tea 8309
Dim@@ 8308
MAR@@ 8306
Like 8302
7.5 8299
tox@@ 8299
Recent 8298
cli@@ 8298
screening 8298
gravity 8296
Accor@@ 8294
rare 8292
Fir@@ 8292
Stor@@ 8291
personality 8290
libr@@ 8290
Mus@@ 8287
dist@@ 8285
fa 8285
prolonged 8284
corrected 8283
FT 8283
ovo 8283
clubs 8280
Van@@ 8279
temporarily 8276
consultant 8275
broadcast 8275
1968 8274
stimulate 8271
journey 8269
Dutch 8269
unpaid 8267
completing 8263
protest 8262
ulations 8260
continental 8259
DVD 8258
gift 8257
walking 8252
centuries 8250
worship 8250
Mold@@ 8249
ð@@ 8246
advocate 8242
occurring 8240
AU@@ 8240
Ò@@ 8239
extrad@@ 8237
gradual 8237
wards 8235
Economics 8232
eptions 8231
goti@@ 8228
SC@@ 8228
begins 8224
ю@@ 8224
fragile 8223
Us 8215
committing 8200
crew 8197
clarity 8195
ATED 8194
conn@@ 8193
gri@@ 8192
Continu@@ 8189
Income 8189
dé@@ 8187
specially 8183
lending 8180
daughter 8176
urb@@ 8175
pillar 8174
hygi@@ 8174
Carolina 8173
somewhat 8169
saved 8169
objections 8169
s.com 8169
removing 8167
№ 8163
ace 8161
path@@ 8159
lav@@ 8158
clearing 8155
fertility 8153
united 8150
profession 8150
fairly 8149
cross@@ 8138
Together 8136
ull 8136
uph@@ 8130
Man 8130
penetr@@ 8129
Dang@@ 8129
arrange 8129
wounded 8128
remedi@@ 8126
AW 8125
guarding 8123
â@@ 8123
LY 8121
nomination 8120
separ@@ 8120
mate 8119
nik 8118
author@@ 8112
letin 8111
quantitative 8110
inconsistent 8109
Son 8109
virtual 8107
noise 8105
earning 8104
mov@@ 8104
Ger@@ 8101
symbols 8101
trainers 8101
credits 8100
illness 8099
tens 8098
detec@@ 8097
consu@@ 8093
Wi 8093
perception 8088
bea@@ 8088
tioning 8083
Tokyo 8081
Deb@@ 8080
scenarios 8077
legi@@ 8076
gen 8075
Sales 8074
prayer 8067
ken 8066
promising 8063
Square 8062
princi@@ 8058
3.6 8054
reli@@ 8054
Cr@@ 8053
resilience 8051
View 8051
Taiwan 8049
pes 8049
ez@@ 8049
Virgin 8046
Risk 8045
assumptions 8043
replied 8042
fini@@ 8042
ched 8038
prime 8037
1.8 8036
ony 8033
nov@@ 8031
Ass@@ 8030
institute 8027
worse 8025
az 8025
Series 8024
ella 8022
mix 8021
carries 8019
graduate 8018
aceful 8018
stories 8012
reg@@ 8011
questioned 8011
2.0 8010
Whether 8009
Dmit@@ 8009
refer@@ 8007
Mak@@ 8007
centred 8006
adequ@@ 8001
guid@@ 8001
0.1 7999
cled 7998
counterparts 7996
exemption 7994
dings 7993
Austrian 7992
Ke@@ 7992
verified 7991
SE 7991
cuts 7990
Tow@@ 7988
itate 7987
militia 7987
identical 7987
zards 7980
neighbours 7978
ury 7976
tili@@ 7976
aggregate 7975
taxation 7975
vement 7974
alled 7974
rot@@ 7973
Kom@@ 7972
sand@@ 7970
10,@@ 7970
Priv@@ 7968
set@@ 7968
1961 7967
oured 7966
rees 7965
shortage 7964
comman@@ 7964
ras 7964
sees 7960
earned 7958
ambitious 7957
films 7957
aties 7955
leaves 7950
demonstrations 7948
jeopardi@@ 7946
habit@@ 7946
creditors 7940
England 7940
ji 7939
uranium 7938
450 7938
wars 7937
Cir@@ 7936
forget 7934
fallen 7933
centage 7932
passport 7929
repres@@ 7928
succeed 7927
camera 7927
gence 7925
BM@@ 7925
asking 7924
ef 7922
aut 7921
ledge 7919
х@@ 7917
dia 7915
wells 7910
timel@@ 7909
Credit 7905
Star@@ 7903
Tal@@ 7898
lear@@ 7897
dom 7892
volunteers 7888
Execu@@ 7888
ranking 7887
drink 7887
Spe@@ 7887
mut@@ 7885
gious 7884
Spo@@ 7882
sm 7879
bat@@ 7879
Zi@@ 7878
sé 7870
clothes 7863
proud 7861
Bed@@ 7857
Michigan 7856
otted 7856
milk 7856
seed 7855
Fal@@ 7854
Virginia 7849
deportation 7849
password 7846
academ@@ 7845
categ@@ 7843
sem@@ 7843
ests 7841
Others 7839
arsen@@ 7835
accord 7834
Technologies 7834
persecution 7832
Radi@@ 7830
mountains 7828
poin@@ 7825
mated 7823
Prior 7823
organis@@ 7821
Obama 7820
George 7820
elled 7819
lan 7819
Eigh@@ 7813
clock 7812
Consider 7809
tious 7809
respects 7808
govern@@ 7808
fluctu@@ 7804
grati@@ 7803
Gro@@ 7802
Hol@@ 7798
diam@@ 7798
~ 7794
permanently 7787
ral 7787
Back 7786
mati@@ 7786
itable 7785
casualties 7782
freezing 7781
earliest 7780
ribu@@ 7778
ags 7776
promises 7774
disappeared 7774
lav 7772
ê@@ 7769
wheel 7765
concentrate 7760
Nature 7759
halt 7759
substitute 7753
produces 7752
ING@@ 7750
prob@@ 7748
10th 7745
Rest@@ 7743
compiled 7741
Stru@@ 7741
magnitude 7737
ь@@ 7737
sick 7736
vil@@ 7736
nished 7735
weaknesses 7731
tal@@ 7729
James 7728
block@@ 7728
ttable 7726
purchasing 7725
reasonably 7722
corro@@ 7720
invested 7718
wise 7718
Breakfast 7718
famili@@ 7714
readily 7709
riding 7707
incomes 7705
pipeline 7702
gy@@ 7700
circle 7694
ake 7693
tin 7690
Mel@@ 7686
terminal 7685
bol@@ 7683
avoided 7679
detected 7679
Sto@@ 7679
Pil@@ 7678
policy@@ 7677
consciousness 7672
TB 7672
valued 7671
tourists 7670
Single 7669
retail 7666
360 7666
deny 7664
postponed 7662
pair 7660
iring 7660
je 7660
Mas@@ 7659
sharp 7657
commented 7657
1969 7655
eased 7654
demanded 7651
rid@@ 7650
electr@@ 7649
settl@@ 7648
pressures 7646
Cat@@ 7645
character@@ 7640
kings 7639
winners 7636
wa 7635
suspect 7633
Solomon 7630
fron@@ 7628
Details 7628
Max 7626
amongst 7626
Until 7625
County 7625
correspondence 7624
boost 7621
onto 7621
incumbent 7621
phones 7621
distribute 7621
clinics 7620
servers 7620
expects 7619
PG 7619
1980s 7618
mill@@ 7617
ists 7615
dominant 7615
Out 7615
ater 7615
neutr@@ 7615
isolated 7614
uphold 7611
eliminated 7604
WW@@ 7600
tendency 7599
proceeded 7597
kindly 7597
patrol 7596
lacking 7595
compounds 7595
nearby 7593
explored 7592
debris 7592
proposing 7589
§ 7589
fathers 7588
positively 7586
smoking 7584
bot@@ 7583
Money 7583
Bat@@ 7583
propaganda 7581
boy 7581
venue 7580
selecting 7578
una 7577
win@@ 7575
exhi@@ 7575
supposed 7573
ged 7570
euros 7569
simul@@ 7565
Photo 7565
awaiting 7564
destab@@ 7563
activ@@ 7563
rul@@ 7562
techn@@ 7562
deter@@ 7560
WH@@ 7559
visitor 7558
mic@@ 7557
sor 7557
grav@@ 7553
Average 7551
Early 7549
combine 7548
quar@@ 7548
you@@ 7548
stones 7544
fruit@@ 7543
frames 7543
oven 7540
ruled 7538
pack@@ 7538
essence 7537
underground 7535
Ohio 7534
remarkable 7533
collectively 7533
ni 7531
ample 7531
plas@@ 7530
Friends 7528
inability 7524
row@@ 7524
une 7520
Pas@@ 7519
ache 7513
ond@@ 7510
wonderful 7507
republic 7506
threatening 7505
succeeded 7501
activated 7495
turnover 7495
violating 7492
profiles 7491
multin@@ 7490
rant 7489
tly 7488
Chambers 7487
nific@@ 7487
highlighting 7486
convert 7482
pol 7482
poker 7482
Socialist 7481
farming 7477
successor 7473
renew 7473
Var@@ 7469
dangers 7468
deliberate 7467
19th 7466
charging 7466
Brazilian 7465
tos 7464
Ash@@ 7462
warded 7462
misconduct 7462
gey 7460
apparently 7460
Michael 7458
heaven 7456
Shel@@ 7456
wisdom 7453
gn@@ 7452
ity@@ 7450
chains 7448
don@@ 7448
survivors 7448
Start 7445
signals 7444
Coalition 7441
newspapers 7439
gear 7437
ancing 7434
coalition 7432
discrimin@@ 7432
thi@@ 7432
evid@@ 7426
Santa 7426
norm 7425
Link 7423
mic 7421
ick 7418
farms 7415
aces 7415
bright 7414
tou@@ 7412
exhausted 7411
sheets 7411
reser@@ 7409
arrests 7409
Ini@@ 7405
grass 7404
AA 7403
Conservation 7402
ematic 7402
Bahamas 7401
ham 7399
Enforcement 7393
proclaimed 7392
exploring 7391
pel@@ 7391
225 7391
reveal 7389
helicopters 7386
ш@@ 7385
max 7383
agrees 7381
ISS 7379
Tom@@ 7378
battery 7378
eled 7377
mixture 7377
instantly 7377
eship 7375
leg 7374
systemic 7374
sun@@ 7373
freeze 7372
kit 7370
peak 7369
kill 7368
lo 7367
chamber 7366
tery 7365
economics 7364
Max@@ 7364
claiming 7359
stances 7358
deferred 7357
gging 7355
Refuge@@ 7355
elihood 7354
minimal 7352
kil@@ 7351
remov@@ 7348
Ul@@ 7348
inmates 7347
AG 7345
N.@@ 7344
t. 7343
ille 7342
adjacent 7339
NH@@ 7337
wan@@ 7335
magazine 7330
cad@@ 7326
pan 7326
suit 7324
ial 7320
defendant 7319
2.8 7316
finite 7314
dol@@ 7311
switch 7307
Pre 7306
divorce 7304
insp@@ 7304
mann 7303
ticket 7303
Town 7298
prefer 7297
endorsement 7295
temperatures 7293
venture 7292
eh 7287
acknowledges 7286
density 7286
promised 7285
advis@@ 7285
custom 7283
Very 7280
empty 7278
instruc@@ 7277
tag@@ 7276
Gibraltar 7276
sue 7273
yesterday 7273
aled 7272
catch 7271
© 7271
skill 7270
Dam@@ 7269
diamonds 7265
tended 7263
lease 7260
ety 7260
uel 7260
Den@@ 7258
bars 7257
Maria 7256
blank 7255
MC 7254
sake 7247
ennium 7246
demonstrates 7241
shor@@ 7240
hazard 7239
0.7 7238
moder@@ 7237
deputies 7237
miles 7233
cup@@ 7233
cement 7231
Tam@@ 7227
sexually 7227
artistic 7225
acks 7224
absor@@ 7222
anges 7218
dressing 7217
tragic 7216
acle 7216
declining 7215
fleet 7215
broadcasting 7214
brothers 7213
Armen@@ 7213
stores 7211
consecutive 7211
Chall@@ 7209
overseas 7209
ologists 7208
revolutionary 7201
nuts 7200
silver 7199
lest 7198
ho 7198
Living 7194
rai@@ 7193
phot@@ 7192
king@@ 7190
petrol 7190
na@@ 7187
ith 7187
CH 7187
Fer@@ 7184
surgery 7182
renov@@ 7182
Guard 7181
civic 7181
vendors 7176
luxury 7175
ulty 7175
technique 7172
organised 7171
alid 7169
Cam@@ 7169
grades 7165
fastest 7164
ú@@ 7164
opt 7162
pand@@ 7162
persi@@ 7160
Joseph 7154
baby 7152
marriages 7150
Apart 7146
saun@@ 7145
reputation 7139
ew@@ 7139
Mov@@ 7138
thoroughly 7135
inheritance 7132
producer 7127
Warsaw 7127
breaches 7127
bin 7125
spot 7125
sourcing 7121
celebration 7121
characters 7121
divide 7120
experiencing 7120
gor 7120
happens 7119
priori@@ 7117
GM@@ 7116
prisoner 7113
stre@@ 7112
Which 7112
acles 7110
dar@@ 7107
Americas 7105
Sey@@ 7104
arch@@ 7103
achment 7101
arly 7100
Thirty 7100
tes 7100
Bul@@ 7100
infections 7098
accompanying 7096
oth 7093
earthquake 7093
Fu@@ 7090
explosives 7089
vel@@ 7086
sensitivity 7082
fails 7082
elessness 7082
Sab@@ 7080
embr@@ 7080
ears 7080
Kur@@ 7078
nominations 7072
Mut@@ 7067
endor@@ 7067
Initi@@ 7065
child@@ 7062
reless 7060
UP 7060
Custom@@ 7059
urg@@ 7057
unchanged 7056
hardly 7048
rational 7045
churches 7045
perpe@@ 7044
past@@ 7042
esting 7042
Tol@@ 7042
Phot@@ 7042
demanding 7041
Б@@ 7041
Baghdad 7040
illegally 7038
Card 7036
м 7030
brac@@ 7028
breaking 7027
flag@@ 7026
err@@ 7026
Amsterdam 7025
imposing 7022
quarterly 7020
Award 7020
BS 7020
Cost 7019
meter 7015
coloni@@ 7011
thoughts 7010
extremist 7008
instructed 7006
Net@@ 7003
overe@@ 7001
weird 7000
influenced 6999
ami 6999
convictions 6998
hydrogen 6996
Nation@@ 6995
terror 6995
ult 6995
lying 6992
ually 6992
alu@@ 6991
Bir@@ 6991
referen@@ 6990
overy 6989
Kazakh@@ 6988
patrols 6987
ll@@ 6980
12,@@ 6979
hair@@ 6977
landscape 6976
Sla@@ 6975
1,500 6974
clo@@ 6974
sex@@ 6974
LL@@ 6974
argues 6972
band@@ 6972
challenged 6971
compu@@ 6970
acid 6970
evision 6967
3D 6966
dents 6961
converted 6959
tiously 6959
rail@@ 6958
generic 6957
Š@@ 6957
eral 6955
Kat@@ 6954
entertainment 6953
21st 6952
&apos;d 6952
tiz@@ 6951
drag 6951
FF@@ 6951
hec@@ 6950
refl@@ 6947
younger 6945
atmo@@ 6944
Save 6942
Argentine 6934
gaining 6932
essions 6931
isi 6931
inserted 6931
modest 6929
Reserve 6929
champion 6929
descri@@ 6927
Feder@@ 6927
tex@@ 6924
Succ@@ 6918
с 6918
Qaida 6917
hostile 6916
autumn 6916
0.2 6914
shelters 6912
pic@@ 6911
suff@@ 6910
Gre@@ 6910
ante 6909
assadors 6907
SW@@ 6903
Cli@@ 6902
inqu@@ 6902
mi 6897
ented 6893
everywhere 6886
Hea@@ 6886
voluntarily 6885
entries 6884
pursu@@ 6880
cub@@ 6880
Sum@@ 6876
fold 6875
tted 6874
rejection 6866
VA 6866
sust@@ 6863
Lithu@@ 6862
pour 6861
renovation 6860
talking 6858
FF 6857
theatre 6855
ires 6852
males 6850
entary 6850
Winter 6850
Implem@@ 6849
symptoms 6849
publ@@ 6848
Or 6847
repairs 6844
Thank 6843
accumulated 6838
Aut@@ 6837
cture 6836
cit@@ 6836
recycling 6835
Pop@@ 6834
tz 6833
ee@@ 6832
sn@@ 6830
que@@ 6825
Music 6825
Г@@ 6822
stars 6821
dream 6819
females 6818
yi@@ 6817
disclosed 6817
livest@@ 6816
fically 6816
roster 6814
practically 6812
taste 6807
calculations 6806
shell 6803
Ñ@@ 6800
time@@ 6798
tar 6794
stitutional 6792
authentic@@ 6790
planes 6789
teach 6789
nerships 6788
ite@@ 6783
ood@@ 6780
lay@@ 6777
sens@@ 6776
belongs 6775
nou@@ 6770
sciences 6770
organiz@@ 6760
7,000 6756
crow@@ 6755
tioner 6754
variable 6749
mol@@ 6748
rests 6748
expend@@ 6748
handled 6747
ignored 6747
Tren@@ 6741
wave 6740
arti@@ 6739
misu@@ 6738
Tradi@@ 6738
gur@@ 6738
commissioned 6737
fans 6736
explains 6735
disman@@ 6733
custom@@ 6731
eler@@ 6730
lap 6729
ket 6729
proves 6728
Christmas 6726
Hal@@ 6726
friendship 6719
hosts 6718
Meg@@ 6718
vent 6716
characteristic 6716
corner 6714
Nu@@ 6714
Psych@@ 6714
scienti@@ 6712
Sky@@ 6707
cy@@ 6704
buses 6703
HP 6703
aying 6699
BP 6699
list@@ 6698
pa 6698
orbit 6697
charter 6696
Anim@@ 6696
tis@@ 6695
inspectors 6693
atus 6693
nationwide 6692
diagnosis 6692
everyday 6692
portable 6692
impressive 6691
endorse 6691
terminated 6691
rank 6689
straight 6687
proportion@@ 6687
documentary 6685
kh 6684
dow@@ 6683
dance 6682
ranks 6681
varying 6681
Ari@@ 6678
ovsky 6678
extract 6677
Moses 6677
azazazaz@@ 6676
Select 6673
rix 6671
bited 6666
Film 6663
satellites 6663
erec@@ 6662
inquiries 6661
curator 6659
pure 6658
sustain@@ 6657
dramatic 6652
Communities 6648
Haz@@ 6647
collapse 6646
news@@ 6646
choosing 6645
tariffs 6644
Restaurant 6641
uma 6640
cla@@ 6639
Correc@@ 6638
attracting 6638
Does 6637
tours 6635
corporation 6634
suicide 6634
abled 6633
vacant 6633
lots 6631
diesel 6630
ills 6629
calcul@@ 6628
meantime 6626
1963 6626
rock 6625
lau@@ 6624
successes 6624
organizers 6624
coupled 6622
Hello 6622
ura 6620
Bro@@ 6619
predecessor 6618
ership 6617
,9@@ 6617
chart 6616
deciding 6615
escalation 6614
és 6611
8,000 6609
Similar 6608
Rai@@ 6608
barrier 6607
accepting 6606
incre@@ 6606
republic@@ 6605
schedules 6605
boxes 6602
Jav@@ 6601
stopping 6600
void 6600
stake 6599
etary 6598
Paper 6597
briefly 6596
defects 6596
pled 6594
Much 6591
Benef@@ 6591
tyres 6590
斯 6589
mini 6588
ovich 6587
abandoned 6585
travelling 6585
viewing 6583
alised 6583
extremism 6581
Oslo 6581
attribu@@ 6580
Diffe@@ 6577
拉@@ 6576
steadily 6573
doubts 6572
entive 6570
ORK 6570
adds 6568
transported 6565
Stock@@ 6561
sleep 6560
Mit@@ 6559
CB@@ 6553
investing 6549
formerly 6549
Republican 6548
Ang@@ 6547
ema 6545
tortured 6542
eases 6542
Ka@@ 6542
custo@@ 6541
schol@@ 6540
pel 6540
fertili@@ 6536
Prob@@ 6534
produc@@ 6534
coo@@ 6532
ension 6531
Fire@@ 6528
4.6 6528
Aar@@ 6527
roof 6524
ria 6524
pay@@ 6523
righ@@ 6523
routine 6518
Od@@ 6518
Arts 6517
eller 6511
desc@@ 6510
confrontation 6509
tains 6509
iled 6505
fighters 6503
Twel@@ 6502
Jersey 6502
batt@@ 6499
hearts 6498
Revi@@ 6498
criticism 6496
tment 6494
Analy@@ 6490
trips 6490
incentive 6489
logy 6486
det@@ 6485
rat 6483
ect@@ 6479
timber 6479
entitl@@ 6478
pharmaceutical 6477
locating 6471
sit@@ 6466
arily 6465
c. 6465
superior 6463
icians 6461
forensic 6460
Pack@@ 6460
repeat 6458
manu@@ 6457
sophisticated 6455
margin 6453
Kas@@ 6453
Mayor 6451
fat 6449
listen 6447
Hungarian 6445
domin@@ 6441
patent 6438
captured 6438
Intelligence 6437
shore 6437
lov@@ 6435
爾@@ 6435
precau@@ 6432
plu@@ 6432
script 6430
â 6430
dio 6430
Rad@@ 6427
acquiring 6426
reject 6424
remainder 6422
foremost 6420
Key@@ 6418
End 6417
rated 6417
Poly@@ 6414
founding 6413
Index 6413
servant 6411
Mach@@ 6410
feeding 6408
recipients 6408
announce 6407
sty 6407
commerci@@ 6407
Love 6404
Smo@@ 6404
Leg@@ 6402
Micro@@ 6402
Show 6400
Mexican 6399
monum@@ 6398
exten@@ 6398
burning 6397
array 6396
darity 6396
alisation 6391
leisure 6390
icit 6384
Mohamed 6381
expectancy 6378
pleasant 6375
tracted 6372
healthcare 6372
Hom@@ 6372
Fel@@ 6371
porary 6371
amed 6370
dge 6369
fal@@ 6368
ž@@ 6368
tobacco 6367
criminals 6367
tern@@ 6365
pays 6363
paired 6363
Brow@@ 6363
anthro@@ 6361
Mass 6360
coinci@@ 6358
Robert 6357
visas 6356
asy 6355
volatile 6355
bir@@ 6355
Ga@@ 6354
cks 6353
ron 6352
tragedy 6346
automated 6345
rescue 6344
Though 6339
toler@@ 6339
onga 6339
recovered 6337
Fish@@ 6337
diffe@@ 6336
tailored 6335
failing 6332
overdue 6331
postpon@@ 6330
EL 6328
porters 6327
jun@@ 6322
dynam@@ 6322
championship 6321
agon 6317
sugar 6310
1.9 6310
Modern 6310
repri@@ 6309
ér@@ 6309
jac@@ 6308
mouth 6307
Mes@@ 6305
Le 6303
dental 6303
rah 6303
contamination 6303
Pro 6302
Rou@@ 6301
amine 6300
rov 6300
inappropriate 6298
confirming 6297
13,@@ 6295
Christians 6293
Uzbe@@ 6293
fly 6292
alongside 6291
implic@@ 6290
Num@@ 6290
inger 6290
Marshall 6289
itted 6289
cle 6289
vie 6288
devastating 6287
Bush 6286
cc@@ 6283
Franc@@ 6280
bread 6277
journal 6275
atures 6274
Bah@@ 6273
tings 6273
philosophy 6272
IPO 6271
titles 6271
lodged 6270
suspend 6269
recomm@@ 6269
Pan 6268
icked 6266
nearest 6265
Kri@@ 6265
infl@@ 6264
Kir@@ 6264
tured 6262
OL@@ 6262
unusual 6261
750 6261
tric 6261
psycho@@ 6261
static 6260
person@@ 6259
accessories 6256
unfortunately 6253
finish 6253
affiliated 6253
Throughout 6252
Six 6252
moves 6251
Ji@@ 6251
outdoor 6250
Wal@@ 6247
har 6246
Alex@@ 6246
1948 6242
trailer 6241
Ethiop@@ 6238
belt 6238
investigators 6237
investor 6236
anywhere 6236
enemies 6235
juven@@ 6234
Ori@@ 6234
electro@@ 6234
aa 6234
Scheme 6233
enni@@ 6230
Employ@@ 6229
Vincent 6228
exchanged 6227
inth 6227
alum@@ 6225
Rol@@ 6224
inviting 6223
execu@@ 6222
describing 6222
14,@@ 6222
BL@@ 6222
alike 6217
Hospital 6213
regener@@ 6212
attempting 6211
tants 6211
packing 6209
itated 6207
rehabil@@ 6205
Heritage 6204
Quar@@ 6204
ometer 6202
legacy 6200
ook 6199
Truth 6197
dioxide 6194
ares 6191
undermined 6191
Muhammad 6191
gov@@ 6191
overwhelming 6190
developers 6189
humidity 6189
Mol@@ 6187
intense 6186
anim@@ 6183
Ret@@ 6182
premature 6182
certi@@ 6182
NA@@ 6180
G20 6179
designs 6177
adop@@ 6176
impression 6176
pricing 6176
amph@@ 6176
Л@@ 6175
honor 6173
preferences 6173
Bulgarian 6173
Lit@@ 6172
cov@@ 6171
Nic@@ 6171
acquain@@ 6168
disper@@ 6168
JP@@ 6168
hat 6165
eu@@ 6163
tent@@ 6162
unclear 6160
ambigu@@ 6157
brain 6157
tible 6156
dging 6156
mal 6155
archive 6154
econom@@ 6153
ept 6152
scores 6149
undoubtedly 6149
HS@@ 6149
pledge 6148
moderate 6146
recre@@ 6145
confirms 6143
rarely 6141
NG 6140
Aboriginal 6140
ograph@@ 6139
sequence 6138
iz@@ 6137
celebrate 6134
supporters 6133
rog@@ 6131
Mother 6131
contaminated 6128
1,6@@ 6128
Watch 6127
artist 6126
protests 6123
gun 6123
confined 6123
kingdom 6122
Tour 6122
veness 6120
fix@@ 6119
Greater 6119
extends 6118
replacing 6117
8.5 6116
rid 6114
behavior 6114
chron@@ 6113
warming 6110
illustrated 6108
Dark 6108
pray 6108
oli@@ 6108
revol@@ 6107
notable 6107
colors 6105
IA@@ 6105
Fur@@ 6103
dest 6102
preced@@ 6101
winning 6101
Partners 6101
banned 6100
OL 6096
ota 6095
Moon 6095
offensive 6089
raz@@ 6089
Place 6089
adi 6084
snow 6083
Fru@@ 6083
cuisine 6082
bills 6079
petition 6079
gas@@ 6079
cooling 6078
frozen 6077
piles 6077
vide@@ 6076
obviously 6075
ë@@ 6075
indications 6074
Nonetheless 6074
iP@@ 6074
risen 6071
ld 6071
Rather 6070
encouragement 6069
vulner@@ 6068
push 6064
naturally 6063
Express 6063
asing 6061
tude 6060
break@@ 6060
ush 6058
calm 6057
offender 6055
GL@@ 6053
Growth 6052
dest@@ 6051
fai@@ 6051
Clu@@ 6051
herself 6050
EE@@ 6050
shi 6048
bond 6047
Syn@@ 6047
Black@@ 6045
Rab@@ 6045
oci@@ 6044
videos 6041
antly 6041
shots 6040
physically 6039
Ta@@ 6038
cle@@ 6037
Americans 6032
pas@@ 6032
delegate 6031
desi@@ 6031
airports 6028
по@@ 6028
sla@@ 6026
icon 6026
ove 6021
Gra@@ 6020
vo 6019
mouse 6017
aggrav@@ 6016
inspired 6015
purely 6015
sher 6014
floors 6013
Unless 6012
warding 6012
ign 6011
selective 6011
ogy 6007
repe@@ 6007
Kan@@ 6006
condemn 6005
afraid 6002
Evi@@ 6000
atis@@ 6000
dev 5998
attracted 5995
tackling 5994
lake 5991
photographs 5990
arency 5989
definitely 5989
chose 5988
Was 5985
curren@@ 5984
rics 5984
crude 5979
tomorrow 5978
eci@@ 5978
Wall 5977
aftermath 5975
3.7 5975
oa 5975
protec@@ 5974
trains 5974
explosion 5971
ela 5971
mounted 5970
sioners 5970
zi 5969
evacuation 5969
assemb@@ 5969
obstruc@@ 5964
pur 5963
oners 5963
free@@ 5962
marital 5962
ovan 5961
demonstrating 5959
Ow@@ 5957
dust 5955
bet@@ 5955
silence 5954
pump 5954
Ny@@ 5953
quad@@ 5950
dd@@ 5950
У@@ 5950
yn 5949
ceiling 5945
slight 5944
successive 5944
keys 5944
ink 5944
anch@@ 5943
NP 5941
tracks 5941
Top@@ 5940
suing 5939
graduates 5939
pass@@ 5939
ques 5937
Operating 5935
emotional 5932
tender 5930
tunnel 5930
therap@@ 5928
Charles 5927
venti@@ 5927
detain@@ 5925
Get 5923
Cel@@ 5923
Ric@@ 5921
split 5919
wal@@ 5917
isn 5917
Sho@@ 5917
Actually 5915
catalogue 5915
18th 5912
fellow 5911
liquidity 5911
tee 5911
sty@@ 5911
solic@@ 5905
architec@@ 5902
struck 5901
him@@ 5901
Hill 5900
Han@@ 5898
importantly 5897
mentally 5896
Dol@@ 5895
15,@@ 5894
trucks 5893
entitlement 5890
itan 5890
guides 5889
restoring 5887
intern@@ 5887
shells 5887
Cle@@ 5886
veto 5886
universe 5884
tling 5884
erring 5883
expelled 5883
ima 5881
turns 5879
olds 5879
Wil@@ 5878
xi 5878
searching 5877
preserved 5877
ind@@ 5876
aki 5876
bought 5874
educated 5869
aded 5869
quarters 5867
failures 5866
styles 5865
intr@@ 5865
interrogation 5865
passes 5864
acknowledging 5864
debts 5863
shooting 5863
surely 5860
ven 5858
grams 5851
Bible 5851
Bali 5850
wake 5849
Gl@@ 5849
Valley 5849
caf@@ 5849
provi@@ 5848
allegation 5848
Jan@@ 5847
Game 5846
breaks 5845
1966 5842
raises 5841
Step 5841
eau 5837
chiev@@ 5836
instrumental 5835
uting 5834
thre@@ 5830
easiest 5828
ense 5828
alive 5823
Chicago 5823
dal 5822
mail@@ 5815
Large 5814
grain 5812
offshore 5812
ounce 5812
clinical 5811
ces 5809
Gri@@ 5809
hire 5808
che 5807
pick 5807
afforded 5805
Championship 5805
merit 5804
Romanian 5803
15th 5798
Native 5793
bin@@ 5790
enos 5790
congratulated 5790
best@@ 5789
Especially 5789
variations 5786
dre@@ 5785
worsen@@ 5783
vet@@ 5782
Everyone 5782
compare 5778
awa 5776
unfair 5775
Jam@@ 5774
magnetic 5773
ectors 5768
compensate 5767
employ 5765
FS@@ 5765
Moroccan 5764
ousness 5763
Nav@@ 5761
assign@@ 5761
Link@@ 5758
conscious 5757
scales 5757
rivers 5757
etal 5757
transform 5756
Bad@@ 5755
inte@@ 5752
grace 5751
editor 5751
bag 5747
dismissal 5747
dinner 5746
costly 5745
generous 5744
assuming 5743
Call 5743
dining 5743
Martin 5741
bureau 5741
globe 5740
oted 5740
trans 5739
behavi@@ 5738
Clar@@ 5737
adviser 5735
glad 5735
alliance 5734
Edward 5734
198@@ 5733
lifted 5732
accurately 5732
duce 5732
Sm@@ 5731
touched 5726
theft 5726
accomplish 5725
distinguish 5721
reduces 5720
320 5718
vend@@ 5717
sister 5716
Collection 5714
Mohammed 5713
und 5712
Photos 5712
celebrated 5710
rocket 5708
wea@@ 5705
pho@@ 5705
glory 5705
nic@@ 5704
Delhi 5702
connecting 5701
ologically 5699
wet 5699
restr@@ 5698
compete 5698
negoti@@ 5696
accessed 5695
prosp@@ 5694
By@@ 5694
journalist 5693
cru@@ 5692
LC 5692
harv@@ 5691
fairness 5689
Help 5689
lined 5689
reb@@ 5688
ght@@ 5687
Ahmed 5687
shocks 5686
stereoty@@ 5686
We@@ 5685
2.9 5684
Garden 5684
Perhaps 5682
0.3 5679
quet 5678
associ@@ 5675
compos@@ 5674
St 5674
essa 5674
moon 5673
depri@@ 5673
utilities 5673
disci@@ 5672
rounds 5670
ida 5669
onics 5669
Citiz@@ 5668
enters 5666
Welcome 5663
sioning 5663
之@@ 5663
apartheid 5662
financially 5661
confusion 5661
Lam@@ 5661
epid@@ 5660
Being 5660
rebel 5657
tremendous 5656
Janeiro 5656
tles 5655
inium 5653
eventual 5652
reaches 5651
Vas@@ 5651
govern 5650
intervene 5649
penis 5647
transformed 5646
Hist@@ 5646
neglect 5644
Nev@@ 5642
oversee 5641
Tex@@ 5640
ros 5639
logic 5638
4.7 5638
speeds 5637
eared 5637
Kol@@ 5637
aggressive 5635
kes@@ 5634
ez 5633
rain@@ 5632
develops 5631
sson 5631
Bay 5629
defender 5629
Fit@@ 5629
humans 5628
Meh@@ 5628
Revol@@ 5626
vir@@ 5625
priest 5625
ape 5624
hat@@ 5622
technically 5622
tici@@ 5621
radical 5619
plac@@ 5619
dominated 5617
1,9@@ 5609
disclose 5607
gible 5607
carriers 5604
construct 5602
prene@@ 5601
alarm 5599
ram 5597
bone 5594
chenko 5593
commis@@ 5592
undermining 5590
copper 5590
FM 5590
12th 5589
eans 5588
Ve@@ 5586
sten 5583
throw 5582
flo@@ 5582
Facebook 5582
Companies 5580
voter 5576
ente 5571
mas@@ 5570
diamond 5570
yright 5569
mass@@ 5568
의 5567
outs 5566
backs 5566
suite 5565
eco 5564
feelings 5563
Fish 5563
prospect 5562
Fair 5562
esh 5560
assistant 5560
aph@@ 5558
deleg@@ 5557
seizure 5556
Nat@@ 5555
bal 5554
No.@@ 5553
signatures 5550
17,@@ 5546
py@@ 5545
casting 5545
may@@ 5545
Jor@@ 5540
neighbour@@ 5540
pot 5537
arena 5537
bon 5536
necess@@ 5535
discipl@@ 5534
ayed 5534
run@@ 5532
shar@@ 5531
1,5@@ 5530
cler@@ 5529
Sin@@ 5529
handic@@ 5525
stam@@ 5525
fines 5525
chr@@ 5525
17th 5522
tribal 5521
xy 5520
tained 5520
edule 5520
vacuum 5518
None 5517
les@@ 5513
fuse 5513
artillery 5512
Above 5512
Rico 5512
influ@@ 5511
rain 5511
beaten 5511
1,8@@ 5510
Sag@@ 5510
kids 5508
scru@@ 5507
protects 5507
emerge 5503
pipe 5502
Alexand@@ 5501
cleaner 5496
grid 5496
orized 5496
eta 5496
expressions 5496
tism 5494
deeper 5492
fled 5492
testi@@ 5492
3.8 5491
intentions 5490
ake@@ 5490
caught 5484
salt 5483
publisher 5483
PH@@ 5482
treatments 5481
patri@@ 5480
editing 5480
alter@@ 5480
Ok@@ 5480
Week 5480
zers 5478
Los 5475
noble 5475
2,0@@ 5475
Prize 5474
effici@@ 5474
Published 5471
approached 5469
contested 5469
Kash@@ 5466
powering 5466
bru@@ 5466
simultan@@ 5465
Investments 5464
25th 5464
nec@@ 5463
upheld 5463
T. 5462
Af@@ 5460
wives 5459
surrounded 5456
ored 5454
ort 5454
1945 5453
readers 5453
mem@@ 5453
Electric 5452
Py@@ 5451
cancelled 5450
lacked 5449
ebr@@ 5448
Antonio 5448
spa 5448
doub@@ 5445
Wea@@ 5445
whatsoever 5441
fossil 5439
assing 5436
races 5436
gan 5436
flesh 5434
Massachusetts 5433
acking 5432
advertis@@ 5432
370 5432
Daily 5432
gers 5431
suited 5430
Non@@ 5430
undergo 5429
dered 5428
graduated 5427
30,000 5422
lengthy 5422
museums 5422
bers 5421
movie 5421
ato 5420
16th 5419
dens 5418
interfere 5418
life@@ 5416
transferring 5413
Mart@@ 5413
checking 5412
Spea@@ 5410
boats 5410
slowly 5409
precious 5407
corner@@ 5406
outlook 5405
asp@@ 5403
ld@@ 5403
tiles 5403
Recently 5403
Zh@@ 5403
advocates 5400
jury 5400
zo 5396
contin@@ 5395
tually 5393
tied 5393
engineers 5393
io 5393
boarding 5393
dose 5390
Villa 5390
precipit@@ 5388
1,7@@ 5388
Thomas 5386
weigh@@ 5382
Indonesian 5381
mented 5380
vege@@ 5380
。 5380
Kis@@ 5377
ø@@ 5376
Previous 5374
hampered 5370
knowing 5370
Industri@@ 5369
compound 5368
precision 5367
painting 5367
inated 5365
ital 5365
stag@@ 5364
convenience 5363
aly 5363
exclu@@ 5362
tongue 5361
11th 5357
inning 5357
Antar@@ 5355
cyber@@ 5354
Kabul 5353
ude 5351
evolved 5351
Vietnam 5345
Points 5343
meals 5342
Mary 5342
CEO 5338
Russians 5337
laying 5336
UK@@ 5336
hes@@ 5335
Gold 5334
Day@@ 5332
prevents 5330
plat@@ 5330
Ф@@ 5330
Mc@@ 5327
mir 5326
Stre@@ 5326
noticed 5324
clinic 5324
essors 5323
cooking 5323
ICE 5323
motivation 5321
label 5320
faithful 5318
appliances 5318
2,500 5315
Inc 5313
absorbed 5312
Down 5312
alert 5310
Times 5306
enrolled 5306
inced 5305
inser@@ 5305
import@@ 5303
hyper@@ 5302
immigrant 5302
ods 5302
Intro@@ 5302
interrupted 5301
ids 5300
Inspector 5300
Rub@@ 5299
330 5299
execute 5297
agre@@ 5295
trav@@ 5295
disorders 5293
ois 5291
aero@@ 5291
14th 5291
contracted 5290
favoured 5290
Kab@@ 5286
banning 5285
fabric@@ 5284
Amnesty 5284
gifts 5281
performances 5281
Pass@@ 5280
thering 5278
silent 5277
purchases 5276
condemnation 5276
Sources 5275
dramatically 5274
ups 5274
gent 5273
Corporate 5270
BE@@ 5268
Limited 5266
Southeast 5264
thr@@ 5264
isms 5264
gid 5264
valu@@ 5263
complic@@ 5262
ATP 5262
Advoc@@ 5261
asi 5261
abin@@ 5261
proxim@@ 5260
coc@@ 5260
breast 5260
hospitality 5259
parks 5257
Bea@@ 5257
deli@@ 5256
sals 5255
aga 5254
compet@@ 5252
enjoys 5251
Campaign 5251
destructive 5249
syl@@ 5247
ste 5244
high@@ 5242
infectious 5239
retri@@ 5238
cation 5237
ranges 5237
accepts 5235
eyed 5235
dan 5233
Liter@@ 5232
Bra@@ 5230
vacation 5230
buying 5228
Low 5227
Officials 5226
ket@@ 5224
Transportation 5222
motor@@ 5214
Eight 5214
Trav@@ 5214
spreading 5213
strongest 5213
ack@@ 5213
Shanghai 5213
Minnesota 5213
Beirut 5212
tre 5210
Dal@@ 5210
hill 5208
thermore 5208
porteur 5207
volunteer 5205
repeti@@ 5204
collections 5204
spel 5202
ume 5202
announcements 5197
smart 5196
superi@@ 5195
seiz@@ 5193
1964 5192
tropical 5192
Labor 5191
Ottawa 5191
competing 5190
i.@@ 5187
pain@@ 5186
artificial 5184
Milan 5184
Mac 5183
appoin@@ 5182
rooted 5181
inflicted 5181
dishes 5181
enda 5181
eive 5179
experimental 5178
buyers 5176
Prin@@ 5176
lyrics 5174
stig@@ 5173
com 5172
drilling 5171
represent@@ 5171
corrupt 5169
Making 5168
secretary 5168
Es@@ 5166
1950 5165
Alg@@ 5165
seriousness 5159
Primary 5158
sec 5158
13th 5155
imprisoned 5155
exploded 5154
itting 5153
educate 5152
param@@ 5150
floods 5149
rac@@ 5148
compact 5147
Emer@@ 5145
blind 5143
craf@@ 5143
defendants 5143
string 5140
itch@@ 5140
ading 5137
Apple 5136
shelf 5135
Ven@@ 5135
ë 5135
surprise 5134
happening 5133
Da@@ 5129
rice 5124
Ivan 5124
mum 5122
VAT 5121
T.@@ 5120
asive 5113
interactions 5113
proximity 5111
Irish 5110
loved 5109
Sor@@ 5108
Live 5107
maturity 5105
arch 5105
xes 5105
Fight 5100
Prot@@ 5100
renni@@ 5099
policing 5097
tail@@ 5092
ento 5091
psychiatric 5088
studio 5088
qualities 5087
rents 5086
opo@@ 5086
Nor 5083
Tehran 5083
18,@@ 5083
Ten 5082
metallic 5081
op 5079
Hun@@ 5078
ectively 5078
Phil@@ 5077
warned 5076
viral 5076
chances 5073
1965 5073
Ros@@ 5072
exploited 5071
noon 5071
Spa 5069
symptom 5066
Open@@ 5065
villa 5064
relax 5063
Blo@@ 5061
vacc@@ 5060
LLC 5059
mun@@ 5059
temple 5059
emen 5056
exploit 5055
volatility 5054
clashes 5054
stor@@ 5054
mix@@ 5054
ubli@@ 5054
hear@@ 5052
Lav@@ 5049
lik@@ 5048
meaning@@ 5047
deserve 5046
urging 5046
Colombian 5045
obe@@ 5042
fi 5041
Communist 5040
excellence 5040
Theatre 5039
pru@@ 5038
essor 5036
Fla@@ 5034
С 5032
flew 5031
rup@@ 5031
impro@@ 5030
fers 5029
Sergei 5029
complain@@ 5029
metro 5027
Mark 5026
militias 5026
alistic 5025
besides 5025
confront 5024
grim 5024
Israelis 5022
similarly 5020
washing 5019
diplomats 5017
elementary 5017
Yo@@ 5017
marginal 5016
qualify 5016
dedication 5016
CEF 5015
flowers 5013
&#@@ 5013
HD 5010
chann@@ 5008
500,000 5008
Agr@@ 5007
Poor 5005
Rail 5005
Cres@@ 5003
combining 5002
plot 5002
sionally 5001
var@@ 5001
150@@ 5001
stem 5000
Sheikh 5000
Falk@@ 4999
seeds 4997
Academ@@ 4995
clim@@ 4994
happiness 4992
gates 4991
recognised 4990
ickers 4989
uro@@ 4989
emin@@ 4984
650 4983
Me 4982
Almost 4981
Command 4981
surfaces 4980
Lar@@ 4979
ectives 4979
wooden 4979
buttons 4977
Belgian 4976
surge 4976
Maryland 4976
pical 4975
recruit 4974
kar@@ 4973
edoms 4970
assists 4967
Lot@@ 4965
uti@@ 4963
stal@@ 4962
toilet 4961
abstr@@ 4957
OK 4957
kits 4957
peac@@ 4956
Ry@@ 4955
certainty 4953
克 4953
bomb 4952
rez 4952
unlike 4951
cin@@ 4951
los 4951
tice 4951
interviewed 4950
classic 4950
lier 4948
fault 4947
positioning 4947
accommo@@ 4946
plight 4945
Inte@@ 4944
bears 4943
meteor@@ 4943
copyright 4942
pools 4941
massage 4941
Kimber@@ 4940
ind 4939
rement 4939
nes@@ 4937
safer 4935
riage 4934
concessions 4932
ÿ 4930
Juan 4929
dou@@ 4928
Four@@ 4927
alion 4926
strikes 4924
Adju@@ 4923
Dak@@ 4923
consultancy 4922
ī@@ 4922
chang@@ 4921
Gate 4921
rav@@ 4920
destinations 4920
yellow 4919
Crimea 4916
doubled 4915
smen 4914
Trump 4913
masters 4913
Maz@@ 4911
powerment 4911
circles 4906
pin 4906
consen@@ 4904
lit 4904
undergoing 4903
peninsula 4903
staff@@ 4902
opoly 4901
survive 4900
sim@@ 4900
sided 4900
Seven 4899
Sale 4898
ait 4896
200,000 4895
™ 4895
multicul@@ 4894
footing 4893
balcony 4893
iler 4892
197@@ 4892
tries 4891
Regul@@ 4891
conversation 4890
eni 4888
ender 4887
atical 4886
deliberately 4886
distingu@@ 4885
ploy@@ 4884
commander 4884
stolen 4884
horse 4883
Dri@@ 4883
thers 4883
congratulations 4883
Os 4880
intentional 4877
succ@@ 4876
gentle 4876
oratory 4874
grap@@ 4872
Ya@@ 4872
zy@@ 4872
ilia 4872
van@@ 4871
Thai 4871
alarming 4870
professionalism 4869
bank@@ 4869
defam@@ 4869
Tou@@ 4869
forec@@ 4866
eria 4866
explo@@ 4865
cotton 4865
tain@@ 4865
¾ 4864
preciation 4861
shorter 4861
musical 4861
prop@@ 4860
anians 4860
aise 4859
inn 4859
AND@@ 4856
cool 4855
suspicious 4853
ageous 4853
ainable 4851
Francisco 4849
hiring 4848
expectation 4848
bridges 4847
Revolution 4846
Domin@@ 4845
bigger 4842
problematic 4842
Hum@@ 4841
aggravated 4839
ello 4838
appreh@@ 4837
erian 4836
backed 4834
Econom@@ 4834
sand 4833
yna 4833
Crisis 4832
astic 4827
iro 4826
hypo@@ 4824
She@@ 4824
nesty 4823
precedent 4822
Mount 4822
Play 4822
milit@@ 4821
CDC 4821
Mah@@ 4821
county 4821
250@@ 4821
icient 4820
deliber@@ 4820
eye@@ 4820
vocal 4819
lor 4818
스 4818
Later 4816
mates 4816
ride 4816
cycl@@ 4814
.C. 4813
diplom@@ 4813
suspicion 4812
fought 4811
absent 4811
indictment 4811
Cash 4808
scholar@@ 4806
Cathedral 4806
volunte@@ 4805
EST 4805
Short 4804
complex@@ 4802
hr 4801
auction 4801
iner@@ 4796
strat@@ 4795
ester 4794
黑@@ 4794
fri@@ 4793
dumping 4792
lin 4792
DS@@ 4792
Marketing 4791
incoming 4790
Picture 4790
apers 4789
percus@@ 4786
inal 4786
understands 4784
commanders 4784
peror 4782
persist 4781
promotional 4780
ignore 4779
onically 4778
eling 4778
bonus 4777
nia 4777
imagine 4776
Broad@@ 4776
beaches 4776
lesson 4775
iz 4775
300@@ 4775
ernal 4774
popul@@ 4774
lifestyle 4773
landing 4773
Double 4772
clearer 4771
asks 4771
atch 4771
д 4771
expired 4769
occupy 4768
ladi@@ 4768
vigil@@ 4766
publicity 4766
amazing 4763
Golden 4762
pile 4761
Cay@@ 4761
positioned 4760
Impl@@ 4760
likelihood 4759
closest 4757
rigorous 4756
deliveries 4754
Steel 4752
Plans 4751
refined 4750
Tan@@ 4750
gged 4749
resistant 4749
dat@@ 4749
dict@@ 4748
Star 4747
scrutiny 4744
sie 4744
strengths 4743
jo 4742
fam@@ 4742
depen@@ 4741
bre 4741
confronted 4740
voices 4739
eper 4737
resor@@ 4736
attractions 4736
Sel@@ 4735
eved 4734
oles@@ 4734
nur@@ 4731
kes 4731
ml 4730
pride 4729
utionary 4729
Speaker 4729
favour@@ 4729
ensively 4728
elegant 4728
Columbia 4728
Las 4728
forecasts 4727
defeat 4727
LOS 4725
ley@@ 4725
relied 4724
Again 4724
trail@@ 4724
Leader 4723
chi 4723
deserved 4720
leverage 4719
screen@@ 4718
DN@@ 4718
ean@@ 4716
sli@@ 4716
admit 4711
trademar@@ 4711
siding 4710
ayer 4709
travelled 4709
allies 4708
Atl@@ 4706
openly 4704
consuming 4704
spl@@ 4703
Resid@@ 4703
arriving 4702
sins 4700
Authorities 4700
bold 4698
radar 4696
Neigh@@ 4696
mach@@ 4694
factions 4693
Far 4693
soldier 4691
incorrect 4690
ographical 4688
weak@@ 4686
Ama@@ 4686
app 4685
nat@@ 4685
interact 4685
mur@@ 4683
fed 4683
stants 4683
0.4 4683
inge 4681
Khan 4680
deci@@ 4680
9,000 4680
Fren@@ 4679
defending 4678
aic 4678
praised 4677
Hit@@ 4677
pav@@ 4676
wireless 4676
hur@@ 4675
inion 4674
circuit 4674
explaining 4673
founder 4672
Digital 4672
astr@@ 4671
liberal 4670
15,000 4660
staying 4659
basically 4659
Lau@@ 4658
Close 4658
quoted 4657
legislature 4656
Commis@@ 4655
prospective 4655
sle@@ 4654
Gross 4653
creativity 4652
Sak@@ 4652
contacted 4651
voy@@ 4650
ard@@ 4649
ames 4649
harvest 4647
Consumer 4647
assu@@ 4645
tasked 4645
ideological 4644
wild 4644
ferred 4643
enjoying 4640
hamp@@ 4637
recruiting 4635
birds 4634
See@@ 4634
argue 4633
haven 4632
Fire 4632
draf@@ 4631
RN@@ 4630
ford 4629
1,4@@ 4628
drinks 4627
fat@@ 4625
ician 4624
outbreak 4624
insured 4619
cam@@ 4619
roughly 4618
tube 4618
ernity 4617
couples 4616
Dor@@ 4614
abad 4613
ink@@ 4612
prompted 4612
fresh@@ 4612
pollu@@ 4611
ounding 4610
ó 4610
childcare 4610
Damascus 4609
zy 4609
versus 4607
nes 4606
inten@@ 4606
disturb@@ 4605
oldest 4604
Nation 4604
deduc@@ 4602
sacred 4602
1,200 4600
flood 4600
∙ 4600
resour@@ 4599
trigger 4597
unition 4597
minds 4596
Students 4596
tet 4596
holdings 4595
bombs 4594
ologi@@ 4592
umbrella 4590
editorial 4589
formity 4587
recession 4586
cleared 4586
favor 4585
navi@@ 4585
hostage 4581
midst 4577
semination 4577
0.8 4576
..@@ 4576
tsunami 4575
settling 4575
believing 4573
appearing 4571
implied 4570
Safe 4570
robbery 4570
Television 4568
Advanced 4567
recreational 4567
undering 4566
tower 4565
Thousands 4564
rela@@ 4564
inevitably 4562
anners 4562
believ@@ 4562
smoke 4561
road@@ 4560
Pit@@ 4560
deck 4560
Android 4560
corp@@ 4559
broke 4559
smo@@ 4558
contempl@@ 4558
alties 4557
ARD 4556
ul 4554
¸ 4554
rists 4553
thin@@ 4552
Moder@@ 4551
commo@@ 4550
donations 4549
valent 4548
tu 4545
maj@@ 4545
tech 4544
D.C. 4543
chambers 4542
Anna 4542
prom 4541
elite 4541
commem@@ 4541
compelled 4540
Cou@@ 4540
&apos;a 4540
con 4540
500@@ 4540
outlets 4538
Has 4536
Mountain 4536
stab@@ 4534
MD 4534
trouble 4531
docum@@ 4531
shut 4531
oxygen 4531
administrator 4531
peacefully 4530
decor@@ 4530
porter 4530
Holding 4530
fears 4529
uncertainties 4529
hil@@ 4529
benchmark 4528
retaining 4527
shoulder 4526
2030 4525
Vari@@ 4525
crash 4523
Aqu@@ 4522
sorts 4521
Luis 4520
dous 4519
commod@@ 4518
sta 4518
inevitable 4517
Camp 4514
mounting 4512
hide 4511
surrender 4511
bidden 4510
З@@ 4510
calculate 4508
vise 4507
acknowled@@ 4507
everybody 4506
pin@@ 4501
Did 4501
suddenly 4500
embar@@ 4500
Lom@@ 4499
wil@@ 4498
corrid@@ 4495
oria 4494
Sao 4493
conceived 4492
embarked 4492
put@@ 4489
masses 4489
tica 4487
Marriage 4483
refuge 4482
Jer@@ 4482
oh 4482
truck 4481
Girls 4481
Rum@@ 4480
feels 4479
ray 4477
abducted 4476
nonetheless 4475
ana@@ 4475
griev@@ 4475
tournaments 4475
Colorado 4471
acres 4470
Munich 4470
orderly 4469
liminary 4468
Jac@@ 4467
cial 4467
aning 4463
tow@@ 4463
burn 4462
lifetime 4460
discovery 4458
essed 4457
counsel@@ 4456
Archit@@ 4456
safely 4455
Resort 4454
professor 4453
supreme 4452
Consu@@ 4452
declares 4452
speaks 4452
reconsider 4452
interrog@@ 4451
priests 4451
ANG@@ 4450
Tra@@ 4448
Bay@@ 4448
imminent 4447
beat 4447
trillion 4446
Neither 4445
mercy 4445
Securities 4444
dus 4443
differently 4443
model@@ 4442
feder@@ 4441
Along 4441
TM 4440
attributes 4439
Holocaust 4439
г 4439
dean 4437
hole 4436
pipes 4436
fires 4434
ja@@ 4434
aband@@ 4433
mon 4432
steam 4432
seize 4428
bli@@ 4428
zer@@ 4425
ingu@@ 4422
kova 4415
LS 4414
prizes 4413
continually 4412
super 4410
lesser 4410
Stone 4407
keeps 4406
Studio 4406
aming 4405
pounded 4404
Opera 4403
ont 4400
tments 4400
privileged 4399
wr@@ 4398
rob@@ 4398
mini@@ 4397
rd 4397
profitable 4393
exer@@ 4393
su 4393
blocked 4392
vibr@@ 4392
approaching 4390
1970s 4390
0.6 4390
posing 4388
Whe@@ 4387
homeland 4386
mistakes 4386
forgotten 4384
foods 4383
Missouri 4381
hub 4378
reti@@ 4378
profes@@ 4378
react 4377
stati@@ 4377
Santiago 4377
ound 4376
erson 4376
warehouse 4375
Amb@@ 4375
rows 4374
Nothing 4373
obile 4371
whilst 4371
borrowing 4370
shortages 4370
deploy@@ 4370
onn@@ 4370
exempt 4369
卡@@ 4368
tight 4367
wire 4366
colleges 4364
tut@@ 4363
Separ@@ 4363
experiment 4362
apped 4362
Plus 4360
dos 4359
administrators 4358
motiv@@ 4357
Phar@@ 4357
abor@@ 4357
tunnels 4356
asia 4354
beg@@ 4353
reveals 4352
gress 4352
Lun@@ 4352
kidnapping 4351
1,3@@ 4350
albeit 4349
istrate 4349
reactions 4346
upgraded 4346
ele 4345
aerial 4345
ingredients 4344
lacks 4343
Cot@@ 4343
Visit 4343
cannabis 4341
polling 4339
turer 4338
REL@@ 4337
atrocities 4336
favorable 4336
dless 4336
House@@ 4336
ML@@ 4336
alter 4335
praise 4335
voiced 4332
Carlos 4332
lend 4332
complet@@ 4332
catering 4331
Cambo@@ 4330
sho@@ 4329
jected 4329
otic 4328
pers 4327
conflic@@ 4326
3.9 4326
Tak@@ 4326
Vik@@ 4324
MR@@ 4324
sexuality 4323
Still 4322
oxide 4320
din 4319
sci@@ 4318
Beyond 4317
tam@@ 4316
Counc@@ 4316
pregn@@ 4316
bathrooms 4316
pushed 4315
Ker@@ 4315
aker 4315
West@@ 4311
illu@@ 4310
wrest@@ 4309
premium 4308
bags 4308
Refe@@ 4308
where@@ 4306
Form 4306
UT 4305
gh 4304
particles 4302
sued 4301
maybe 4300
uncertain 4298
fitting 4297
Ts@@ 4297
Amer@@ 4297
teor@@ 4296
finances 4294
alty 4294
heated 4293
wheels 4290
Unlike 4289
unil@@ 4288
spots 4286
ticle 4286
Nab@@ 4286
terrible 4284
ware@@ 4282
Treasury 4280
Cov@@ 4280
incur@@ 4279
1962 4279
stina 4279
enter@@ 4276
400@@ 4276
Publi@@ 4274
healing 4274
curb 4273
eptive 4273
pretty 4270
ppy 4269
KS 4269
liances 4268
achiev@@ 4267
bias 4267
ence@@ 4267
Fon@@ 4267
backup 4266
UNID@@ 4266
tiv@@ 4264
Sti@@ 4264
mind@@ 4264
£ 4263
hired 4263
Pla@@ 4263
shock 4262
Sou@@ 4261
disputed 4261
gment 4260
harsh 4259
А 4258
surprised 4257
enses 4256
Empire 4254
rist 4253
stops 4253
Indiana 4252
25,000 4249
enly 4248
elle 4248
ney 4248
Ken@@ 4246
unlimited 4246
page@@ 4246
forever 4245
Pet@@ 4244
assembled 4243
토@@ 4243
lunch 4242
Foc@@ 4240
Speaking 4240
organ@@ 4240
talent 4239
college 4239
populated 4239
cup 4238
classical 4235
kies 4235
judged 4234
ppers 4234
dog 4229
But@@ 4229
unanimous 4228
accusations 4227
culmin@@ 4226
holes 4226
ren 4226
class@@ 4225
shaped 4224
counted 4220
imper@@ 4220
scream 4220
bb@@ 4220
skin@@ 4220
refurbi@@ 4220
bab@@ 4219
Schools 4218
quali@@ 4217
reader 4214
shortfall 4212
drops 4210
Ther@@ 4209
mistake 4208
demoli@@ 4207
poss@@ 4206
pared 4205
cattle 4205
suffici@@ 4204
rubber 4204
deserves 4203
victi@@ 4200
evel@@ 4199
suggesting 4198
enship 4198
sharply 4196
Cz@@ 4196
af 4196
milestone 4194
ideology 4192
builds 4191
retired 4191
elo@@ 4190
pronounced 4189
umb@@ 4189
prestigious 4188
audi@@ 4187
inged 4187
Dub@@ 4187
firing 4185
transi@@ 4184
pointing 4183
supplements 4183
Days 4182
declaring 4182
dez 4182
confronting 4181
Jak@@ 4180
scripts 4179
crossed 4178
narrative 4178
disturbing 4178
pper 4177
ace@@ 4175
Big 4173
traders 4172
intake 4171
batteries 4171
olog@@ 4171
otes 4170
Cab@@ 4170
brands 4169
orship 4164
cancel 4161
graduation 4160
Rh@@ 4159
Leaders 4158
strange 4158
iced 4157
vens 4157
plant@@ 4157
MH@@ 4156
Female 4155
Memorial 4155
eb 4155
von 4154
slave 4154
Kings 4154
Everything 4154
Dynam@@ 4153
Sound 4153
weakness 4151
gaz@@ 4151
tells 4149
random 4149
Except 4149
tified 4148
pecu@@ 4148
lap@@ 4148
edul@@ 4144
sky@@ 4144
Leon@@ 4143
Pin@@ 4143
trainer 4143
amin 4142
ALL 4142
Updated 4140
trusted 4139
passive 4137
lasted 4136
Vs 4136
toll 4135
Lisbon 4133
euro@@ 4131
GO 4131
sentencing 4128
Victor 4126
forcement 4126
tennis 4125
neighbourhood 4122
dozens 4121
reward 4121
servic@@ 4121
aring 4120
tant 4120
org 4118
Poli@@ 4116
experiments 4116
rival 4115
ponents 4115
Heavy 4115
stayed 4114
natur@@ 4114
ern 4113
Terr@@ 4112
diminished 4112
sacrifice 4112
Plaza 4112
waves 4111
mly 4111
garage 4111
Andr@@ 4110
vy 4109
injection 4108
Fall@@ 4108
rab@@ 4108
ł@@ 4107
mani@@ 4106
Otherwise 4105
Bog@@ 4105
whereabouts 4105
ophobic 4104
meal 4104
strain 4102
rough 4101
rebuilding 4100
searches 4099
Daniel 4099
Hay@@ 4099
layers 4098
onally 4097
Tax@@ 4096
contributor 4096
passports 4095
ough@@ 4095
obli@@ 4094
ask@@ 4094
talked 4093
abused 4092
Brig@@ 4092
definitive 4092
stea@@ 4090
lis 4090
Castle 4090
taxi 4089
fan@@ 4088
Simp@@ 4088
sely 4088
angel@@ 4088
displays 4088
payroll 4088
surprising 4084
backgrounds 4084
Has@@ 4084
questioning 4083
weekend 4083
½ 4083
Afric@@ 4082
rightly 4081
moments 4080
opponents 4079
threatens 4078
provoc@@ 4078
Cast@@ 4078
Wales 4078
distant 4076
fabric 4075
supplying 4074
licensed 4072
uous 4072
pron@@ 4072
exi@@ 4072
Lee 4071
tends 4070
crowd 4070
destroying 4070
gun@@ 4070
eating 4066
naval 4066
harmon@@ 4065
atomic 4064
avoid@@ 4064
pha 4064
treating 4063
asts 4063
pest 4060
enues 4060
employing 4059
Bag@@ 4059
Richard 4058
ouse 4056
corridor 4056
isc@@ 4055
guarded 4055
plain 4053
DV@@ 4053
businessmen 4049
eter 4048
resear@@ 4047
indoor 4044
ū@@ 4044
castle 4043
indu@@ 4042
undergone 4041
Sand@@ 4038
Tea@@ 4035
honest 4034
Bath 4034
리@@ 4034
Louis 4033
ati 4032
associates 4031
laser 4030
gram 4029
quo 4028
paths 4026
sors 4026
라@@ 4026
miss 4025
Dra@@ 4024
wedding 4023
mirror 4021
crip@@ 4021
trace 4021
airline 4021
hun@@ 4019
pack 4018
iri 4018
Pel@@ 4017
striking 4016
Hey@@ 4016
posters 4014
WS 4014
vine 4014
Dear 4013
publi@@ 4012
Ah@@ 4012
veterans 4011
Looking 4010
sanction 4010
controversial 4010
jour@@ 4010
wash@@ 4009
instant 4008
coup 4007
40,000 4006
losure 4006
far@@ 4005
tedly 4004
shaping 4002
Vill@@ 4002
sav@@ 4000
Championships 4000
stick 3998
Intel 3998
dul@@ 3996
painful 3994
dying 3994
complications 3992
guns 3992
Coast 3992
tax@@ 3992
Abdul@@ 3992
istrates 3989
itarian 3985
disruption 3984
dew 3984
cher@@ 3983
pragmatic 3981
mai@@ 3980
memorial 3980
posting 3978
gar 3977
Wid@@ 3977
Philadelphia 3972
Oh 3972
Awards 3971
escorted 3971
W. 3970
Bridge 3970
las 3970
resignation 3968
anca 3968
po 3968
cap 3967
wholly 3966
acqu@@ 3964
ader 3964
sudden 3963
HM@@ 3963
ventures 3962
Franç@@ 3962
Ds 3960
medals 3959
deceased 3958
lens 3957
Beg@@ 3956
pine 3955
exciting 3955
evol@@ 3951
shadow 3950
Conn@@ 3950
gos 3949
warfare 3948
Sust@@ 3946
approxim@@ 3946
ité 3946
ourable 3946
Vic@@ 3945
highway 3945
opposing 3942
watching 3942
satis@@ 3942
cab@@ 3940
fem@@ 3939
− 3939
vised 3939
tone 3937
Dil@@ 3935
explosions 3933
Kim 3933
Bloo@@ 3933
dum@@ 3932
sponsorship 3931
reminder 3930
Pride 3926
icated 3925
privately 3925
crashed 3924
oppose 3923
Clin@@ 3923
disrup@@ 3922
predominantly 3922
ô@@ 3921
Islam@@ 3919
house@@ 3918
agreeing 3917
serial 3917
illumin@@ 3916
caution 3915
deficits 3914
Player 3914
guilt 3913
decorated 3910
shifting 3908
seasonal 3908
hem 3907
itably 3905
Eu@@ 3904
titude 3902
abandon 3902
eutic 3902
homeless 3902
condolences 3902
aun@@ 3900
intru@@ 3899
performs 3899
compelling 3898
esp@@ 3898
jum@@ 3898
eil 3898
tance 3897
dit@@ 3896
gardens 3896
Mali@@ 3892
ploying 3891
kilometers 3890
altitude 3890
ug@@ 3890
daughters 3889
niture 3889
lobby 3888
extingu@@ 3888
underway 3887
outlet 3884
echo@@ 3884
gang 3884
graph 3884
locks 3883
IDS 3883
damaging 3879
writer 3879
Extra 3879
sers 3878
cha 3878
wasn 3875
metab@@ 3875
rets 3875
riots 3874
audiences 3874
Nazi 3872
Clearly 3872
dged 3872
mas 3871
dem 3871
broadca@@ 3870
severity 3868
Hab@@ 3868
featured 3868
neck 3867
ues 3867
sar@@ 3866
overtime 3866
factories 3864
bodily 3864
junior 3863
Raf@@ 3863
Better 3862
Hassan 3862
authentic 3861
Bam@@ 3860
absorb 3859
drives 3859
lounge 3858
rious 3857
invol@@ 3856
Gallery 3856
aving 3855
rebels 3855
yp@@ 3854
Athens 3853
delicate 3853
Wr@@ 3853
Pierre 3852
aul 3852
Banking 3851
Return 3851
ounds 3851
Hour 3851
privilege 3850
politici@@ 3849
agram 3849
sioned 3848
ocr@@ 3847
moist@@ 3846
idity 3844
acing 3844
ingo 3843
gion 3843
deter 3842
sionary 3841
loo@@ 3841
pip@@ 3841
unite 3840
Metro 3840
bie 3839
improves 3838
immense 3838
honoured 3837
caring 3836
Kremlin 3835
planted 3835
abortions 3835
Guatem@@ 3835
Spring 3834
unfortunate 3832
origins 3832
inqui@@ 3832
^ 3832
embedded 3830
Ide@@ 3829
terior 3829
paint 3827
cence 3827
logo 3827
VIP 3827
wonder 3826
у 3826
ington 3825
coach 3824
affili@@ 3824
Venice 3824
North@@ 3822
Image 3822
Mai@@ 3820
licenses 3819
sta@@ 3819
hem@@ 3819
tissue 3818
charity 3818
Doctor 3818
dimin@@ 3816
triggered 3816
asty 3816
pati@@ 3816
Clinton 3815
bombing 3815
fro@@ 3814
gi 3813
É@@ 3812
Fat@@ 3811
marry 3810
withdrew 3810
dal@@ 3810
roy@@ 3809
academics 3808
exhibit 3807
monument 3807
listening 3806
birthday 3804
Adam 3804
usal 3804
Century 3803
injustice 3803
numbered 3802
Ahmad 3802
Paulo 3801
inhi@@ 3799
Coff@@ 3799
thrown 3796
sur 3795
ardo 3795
Night 3795
Premier 3794
ison 3794
O.@@ 3793
trades 3792
notic@@ 3792
mechan@@ 3789
induced 3789
RI@@ 3789
1956 3788
Que@@ 3788
ouring 3788
matching 3787
black@@ 3786
Metropolitan 3785
³ 3785
ée 3784
blowing 3783
quote 3783
ctic 3783
Dou@@ 3783
Mam@@ 3783
acher 3780
subscription 3780
denying 3779
analysts 3778
Arizona 3777
synthetic 3775
acqui@@ 3774
busy 3772
thrust 3772
belonged 3769
Heal@@ 3769
Motor 3769
dows 3766
Centr@@ 3764
cameras 3763
satisfying 3763
exist@@ 3762
shifts 3762
bec 3762
colours 3761
relies 3760
neglig@@ 3760
rowing 3760
auto@@ 3760
writers 3759
hou@@ 3759
Abo@@ 3759
Tab@@ 3758
wearing 3758
Khali@@ 3758
ep 3756
boo@@ 3756
sporting 3755
graded 3754
sic 3754
Hil@@ 3754
valley 3753
196@@ 3753
Play@@ 3752
Medicine 3751
polis 3750
outw@@ 3749
pharm@@ 3748
plenty 3746
vic 3746
sibly 3745
domes@@ 3745
elded 3745
aggres@@ 3745
gall@@ 3745
faction 3744
Clean 3742
Crown 3741
oon 3741
rockets 3740
Associated 3740
Sofia 3739
Dea@@ 3737
enger 3736
Planet 3734
mighty 3733
pers@@ 3733
sanc@@ 3732
bure@@ 3732
neglected 3731
tum@@ 3731
altered 3730
cos@@ 3729
Scotland 3729
PN 3727
accept@@ 3726
propag@@ 3725
rebuild 3724
Vision 3724
evolve 3723
tail 3721
sums 3720
Death 3720
oid 3719
Fam@@ 3719
sid@@ 3719
Share 3719
Pon@@ 3718
Journ@@ 3717
replac@@ 3716
criticized 3715
Enter@@ 3715
Dubai 3714
heightened 3712
edly 3712
assistants 3711
mies 3708
Bus@@ 3708
downward 3707
Battle 3707
confession 3707
NAS@@ 3706
interval 3703
poorly 3702
anci@@ 3701
nau@@ 3701
leather 3699
zzi 3699
ayan 3698
Buy 3698
medic@@ 3698
escor@@ 3697
phy@@ 3696
photography 3696
advising 3693
destiny 3688
abi@@ 3686
immune 3685
litigation 3685
versary 3685
호@@ 3685
aren@@ 3684
itly 3684
O. 3684
menti@@ 3683
ré@@ 3682
Fol@@ 3682
Lower 3682
Victoria 3680
ango 3680
tend@@ 3679
tac@@ 3678
Van 3678
angles 3677
zard 3676
avoidance 3675
reversed 3673
outgoing 3673
ower 3673
matches 3673
charts 3673
girl@@ 3673
± 3673
Red@@ 3672
som@@ 3669
30th 3668
bidding 3668
tempor@@ 3668
bureaucr@@ 3666
tech@@ 3666
anged 3665
AY 3665
flav@@ 3664
sensors 3664
Á@@ 3664
Male 3664
par 3663
discharged 3663
distress 3662
Colonel 3662
Lady 3661
oot 3660
resent@@ 3659
fig@@ 3659
Mail 3659
SON 3658
jam@@ 3657
congrat@@ 3654
nobody 3654
Bec@@ 3652
mortgage 3649
Chur@@ 3649
prone 3649
Football 3649
consumed 3648
darkness 3648
festivals 3647
combines 3646
seri@@ 3646
Want 3644
0.9 3642
mus@@ 3639
es.com 3638
tho@@ 3637
wit@@ 3637
Care@@ 3637
Smart 3637
anna 3637
가@@ 3637
eme 3636
schedul@@ 3636
Motor@@ 3635
margins 3634
vention 3634
cloud 3634
EO 3634
traded 3633
Wisconsin 3633
sport@@ 3633
lava 3633
brutal 3632
burned 3631
vent@@ 3631
imperi@@ 3630
computing 3630
sends 3628
Little 3627
unstable 3626
Ibrahim 3626
auto 3625
algori@@ 3625
sheep 3625
ergy 3624
responds 3624
arta 3624
Abraham 3623
intentionally 3623
deported 3622
tness 3621
packed 3618
charitable 3617
Human@@ 3616
balancing 3613
but@@ 3613
ş@@ 3613
see@@ 3611
eo 3610
golf 3609
eful 3608
Often 3607
rier 3606
historically 3605
Che@@ 3605
Prices 3604
magazines 3601
neuro@@ 3601
provo@@ 3599
och@@ 3599
hei@@ 3599
eda 3597
socialist 3596
aspir@@ 3596
sounds 3596
mast@@ 3595
Engine@@ 3595
Jub@@ 3595
alleges 3595
keen 3594
gauge 3594
airs 3592
Mot@@ 3592
RT 3592
relying 3588
distinctive 3588
Super 3588
shipped 3587
attorney 3587
Ö@@ 3586
fric@@ 3585
solitary 3583
Would 3583
aller 3582
Quick 3582
presidents 3581
postal 3581
aves 3579
usti@@ 3579
sword 3577
departed 3576
tum 3576
Writ@@ 3575
RF@@ 3575
eri 3574
refusing 3574
testify 3574
concerts 3574
fraction 3573
gan@@ 3573
bread@@ 3573
prepares 3572
counterpart 3571
ores 3571
yard 3571
feed@@ 3571
Germans 3570
Jacob 3570
There@@ 3569
Touch 3569
Had@@ 3569
plots 3565
Users 3564
amid 3563
upward 3562
cabinet 3561
cool@@ 3560
tape 3559
desir@@ 3558
shoot 3557
hunting 3555
mortar 3555
Hamburg 3555
medal 3555
щ@@ 3555
Mid@@ 3554
complained 3552
renowned 3552
pen 3551
distinc@@ 3549
governor 3548
mak@@ 3547
forefront 3546
Dro@@ 3545
puni@@ 3544
Village 3542
Alabama 3542
worry 3541
chemistry 3536
cinema 3536
Nut@@ 3535
sch 3534
anni@@ 3532
seating 3531
ordering 3530
Estate 3529
competitors 3528
twin 3527
Queen 3527
Qui@@ 3527
Oz@@ 3527
dreams 3524
aud 3523
wan 3522
massacre 3522
Pic@@ 3522
Ben 3521
trauma 3521
bargaining 3521
inspiration 3519
trad@@ 3519
wheat 3519
shoes 3518
prototy@@ 3518
GPS 3518
disorder 3517
sper@@ 3516
beer 3515
apar@@ 3515
tori@@ 3514
tactics 3513
understand@@ 3512
Interest 3512
assertion 3512
repeal 3512
grand 3511
embrace 3511
columns 3511
influences 3511
oud 3509
tea@@ 3508
encry@@ 3508
Ep@@ 3506
diluted 3504
switched 3504
resist 3503
Fort 3503
impair@@ 3501
dogs 3500
exceptionally 3499
sing@@ 3498
Í@@ 3497
rel 3496
fundamentally 3496
Ankara 3496
homo@@ 3495
Beth@@ 3495
cream 3495
countryside 3493
Fron@@ 3492
legs 3491
barr@@ 3490
orist 3489
adul@@ 3489
William 3489
withdrawing 3489
dividends 3488
nan@@ 3488
Republic@@ 3488
celebrations 3485
predicted 3485
sweet 3485
Hen@@ 3484
Ja@@ 3483
Lag@@ 3482
¡ 3482
physics 3478
offs 3477
pivotal 3477
expires 3476
Cla@@ 3475
iPad 3475
redund@@ 3472
aned 3472
comparisons 3472
Progr@@ 3472
Law@@ 3472
dear 3472
routinely 3471
Less 3470
blessing 3470
insight 3468
Bac@@ 3467
telling 3466
bay 3466
rein 3465
locking 3465
Ai@@ 3463
wind@@ 3462
shop@@ 3462
tiers 3459
couldn 3459
smallest 3459
Riy@@ 3458
storm 3458
tro 3458
surroundings 3458
Pay 3457
Scre@@ 3457
Mahmoud 3455
Mik@@ 3455
teous 3454
Pool 3454
influential 3452
thin 3452
edited 3452
Pent@@ 3450
tled 3449
packs 3449
ANS 3448
ico 3447
Adri@@ 3447
cav@@ 3446
landmark 3446
Dublin 3446
Ess@@ 3446
Hin@@ 3445
ballots 3444
Come 3442
Victory 3442
obst@@ 3442
All@@ 3442
NB@@ 3442
insist 3441
ied 3441
ballistic 3441
consist@@ 3441
assassination 3440
day@@ 3440
ror 3440
CBD 3440
dle 3439
arrang@@ 3438
insisted 3436
Now@@ 3435
len@@ 3435
Natur@@ 3434
cheapest 3434
manoeuv@@ 3434
EB@@ 3433
sealed 3432
Vel@@ 3431
requi@@ 3431
lodge 3429
rition 3428
surgical 3427
bis@@ 3427
mood 3426
defin@@ 3425
ranked 3424
Invest@@ 3424
heroin 3423
fixing 3422
1959 3422
Yan@@ 3422
liers 3421
nified 3421
manages 3421
folk 3421
Power@@ 3419
rich@@ 3419
IE 3419
eously 3418
spontan@@ 3418
MC@@ 3418
manipul@@ 3417
Angeles 3417
Chel@@ 3417
popularity 3416
Gonz@@ 3416
mount 3413
plainti@@ 3412
AE 3412
hybrid 3410
buy@@ 3409
tips 3409
mayor 3409
electronics 3408
Savings 3406
bribery 3406
tify 3406
Gam@@ 3405
polar 3404
300,000 3402
iv@@ 3402
wed 3401
List@@ 3401
eters 3401
rian 3400
ops 3399
buried 3399
pist@@ 3399
NEW 3397
disin@@ 3397
Talk 3397
tians 3395
asc@@ 3395
ologist 3394
outdated 3393
breeding 3393
Sochi 3393
ebook 3393
Ze@@ 3391
3,500 3390
pets 3390
blessed 3388
tie 3388
basket 3386
rejects 3386
reminds 3384
Havana 3384
warnings 3383
mature 3383
Dun@@ 3383
bor 3381
batch 3381
Iowa 3379
possessed 3378
hostility 3377
oling 3377
wouldn 3375
merger 3375
bou@@ 3375
ago@@ 3374
fluid 3374
stepped 3374
fog 3374
itating 3371
vill@@ 3371
announces 3371
Could 3370
GP 3370
drove 3369
verdict 3369
yo 3366
bike 3363
flame 3363
fore 3362
pumps 3362
march 3361
Observatory 3361
edings 3360
dire 3359
sad 3358
bey 3358
Hussein 3358
inging 3357
Dav@@ 3357
biased 3353
rus 3353
unrest 3352
lif@@ 3351
bil 3350
adic 3350
movies 3347
motives 3346
rous 3346
bands 3346
IOC 3346
wines 3346
critically 3345
Junior 3344
punitive 3342
easing 3341
Divi@@ 3341
cast@@ 3341
closures 3341
ount 3339
imming 3338
infants 3337
cocaine 3337
ä 3337
persec@@ 3336
comparing 3335
matched 3333
estr@@ 3333
Trading 3332
Wit@@ 3331
vaccine 3331
SEC 3331
sett@@ 3330
Tw@@ 3329
flower 3328
rolled 3324
Yar@@ 3324
smoo@@ 3323
your@@ 3323
reluctant 3321
fast@@ 3321
curve 3319
hierarchy 3319
Twitter 3318
muscle 3318
speeches 3317
scop@@ 3316
NR@@ 3316
excuse 3315
halls 3313
viewers 3313
Players 3313
inclu@@ 3311
earth@@ 3310
scan 3308
Vin@@ 3307
simpl@@ 3307
60,000 3307
baggage 3305
inhal@@ 3304
Popular 3303
convoy 3302
luck 3300
ached 3300
blow 3298
cro@@ 3297
Need 3296
blame 3295
maker 3293
sels 3293
Ug@@ 3292
frank 3291
liked 3289
kie 3289
Kum@@ 3288
followers 3287
Fab@@ 3286
fit@@ 3286
ssi@@ 3286
ommunications 3285
skiing 3285
자 3285
esis 3284
vely 3281
medication 3281
missed 3280
desert 3279
palace 3278
Boris 3277
faculty 3276
sies 3276
jah 3276
Fili@@ 3275
aug@@ 3274
apor@@ 3273
chiefs 3273
chester 3273
porno@@ 3271
Semi@@ 3267
protections 3267
bath@@ 3265
bourg 3265
deliver@@ 3265
Focus 3265
jar@@ 3264
expire 3264
ancell@@ 3264
isol@@ 3263
sisters 3263
Catal@@ 3260
rences 3258
altogether 3257
strip 3255
nursing 3255
Years 3253
Roc@@ 3252
illnesses 3251
sey 3250
Mountains 3249
turb@@ 3249
eggs 3249
Tour@@ 3249
tactical 3248
Lawyers 3247
uploaded 3247
depression 3246
syndrome 3246
luggage 3246
bore 3245
Christianity 3245
directing 3244
Ris@@ 3244
thor@@ 3244
metre 3244
nurses 3241
lever@@ 3240
oe 3239
acked 3238
fighter 3238
unexpected 3237
Solutions 3237
cat 3236
intimid@@ 3236
subscribers 3236
Shu@@ 3234
golden 3233
lethal 3232
liam@@ 3232
magnificent 3230
round@@ 3230
iso@@ 3228
Foot@@ 3227
bail 3226
Wa@@ 3225
remembered 3224
Philipp@@ 3224
dad 3224
ext@@ 3221
fundament@@ 3220
attraction 3220
iOS 3219
forge 3218
sympathy 3218
ec 3218
omen@@ 3217
ken@@ 3217
symbolic 3216
fort 3216
susp@@ 3215
Bell@@ 3215
illi@@ 3214
glo@@ 3214
ord 3214
911 3214
optimism 3211
influx 3209
luxurious 3209
ghts 3208
Foun@@ 3207
denti@@ 3206
bronze 3204
Spec@@ 3203
warrants 3203
stuff 3203
floating 3200
Ear@@ 3200
stimulus 3196
eys 3194
stigma 3194
Gul@@ 3193
continu@@ 3193
writes 3193
developer 3193
Zar@@ 3191
tale 3190
Real@@ 3189
lowering 3187
goodwill 3187
strength@@ 3187
theater 3187
orically 3186
unreasonable 3184
olan 3183
gren@@ 3183
separati@@ 3182
bids 3182
guez 3182
크@@ 3182
teeth 3180
median 3179
chem@@ 3178
therland 3178
counties 3177
Christ@@ 3177
BT@@ 3176
Uk@@ 3176
carto@@ 3175
probable 3173
talented 3173
guys 3172
Vietnamese 3171
Burun@@ 3171
Abdullah 3170
lecture 3170
foreig@@ 3169
emotions 3168
identities 3167
YO@@ 3167
weakened 3166
show@@ 3166
bes@@ 3165
Valencia 3165
destined 3164
Avenue 3164
induc@@ 3163
sleeping 3161
relaxing 3160
ă@@ 3159
decom@@ 3158
Banks 3157
seal 3157
aren 3156
Cold 3155
regulators 3155
genuinely 3155
cycling 3155
ough 3154
shifted 3153
dozen 3152
mar 3152
2019 3151
Horn 3151
orer 3151
tops 3151
learnt 3151
Shop 3151
dried 3150
spar@@ 3148
disappointment 3147
ghted 3147
plea@@ 3145
gui@@ 3145
angel 3144
vaccines 3143
bow 3143
Wall@@ 3143
UE@@ 3142
mad@@ 3140
Abdul 3140
kar 3139
consortium 3139
kilo@@ 3138
endangered 3138
ORE 3135
flee 3135
Vegas 3135
dys@@ 3134
emed 3133
Temple 3133
policemen 3132
offici@@ 3132
rested 3131
bad@@ 3130
emisphere 3130
labels 3130
wer 3129
streams 3128
colleague 3128
ice@@ 3128
М 3128
oo 3125
restruc@@ 3125
Let@@ 3124
finishing 3123
Gh@@ 3123
NT 3123
flooding 3122
demonstrators 3122
х 3122
cheaper 3121
grows 3120
pedestrian 3119
Give 3119
discounts 3118
kk@@ 3117
mark@@ 3116
utter 3116
selves 3116
dish 3115
engineer 3115
loving 3115
conservative 3114
Lead 3114
Houston 3113
icacy 3113
physician 3112
stylish 3112
vor@@ 3111
Louisiana 3110
phi@@ 3109
neo 3108
enli@@ 3108
fraudulent 3108
tting 3106
belts 3106
lion 3105
afterwards 3105
unsafe 3104
thouse 3104
À@@ 3104
utely 3103
Song 3103
conclu@@ 3102
él@@ 3102
merged 3100
pull 3099
convic@@ 3099
stroke 3098
predict 3096
revival 3096
dale 3096
è 3095
Yel@@ 3094
asis 3093
eme@@ 3092
seis@@ 3092
periph@@ 3091
Bishop 3090
rhetoric 3089
Leave 3089
anism 3087
В 3087
로@@ 3086
secrets 3084
designer 3084
Earlier 3082
unwanted 3082
scen@@ 3080
venues 3080
illo 3079
anya 3076
Kun@@ 3073
Canadi@@ 3072
paraly@@ 3067
pts 3067
chase 3067
nest 3067
én@@ 3067
apes 3066
xing 3066
remarked 3066
asion 3066
thic 3066
ectiveness 3066
physicians 3066
fridge 3066
accoun@@ 3065
join@@ 3063
Pope 3062
hol 3062
Kentucky 3061
Bun@@ 3061
Witnesses 3061
yst@@ 3060
nal 3060
inherited 3059
owns 3059
jet 3059
Majesty 3059
Inn 3059
Golf 3058
Pir@@ 3057
ward@@ 3055
Tennessee 3055
Lum@@ 3054
hony 3053
icks 3052
Mass@@ 3052
dictatorship 3050
surveyed 3050
vert 3050
ultr@@ 3049
designers 3049
DNA 3048
vague 3047
discusses 3047
sooner 3046
rage 3046
● 3046
patience 3045
dwell 3045
poorer 3044
abduc@@ 3044
cot@@ 3042
shareholder 3042
goo@@ 3041
magic 3039
Bom@@ 3039
bering 3039
fits 3039
bird 3039
르@@ 3039
托@@ 3038
delicious 3037
fuelled 3035
scattered 3035
Airlines 3035
need@@ 3034
Past@@ 3034
disappointed 3033
mined 3033
receipts 3033
Seoul 3032
backdrop 3031
achi 3031
ander 3030
vegetable 3030
dow 3030
Ukrain@@ 3029
Semitism 3029
tol@@ 3029
fights 3028
interc@@ 3028
thro@@ 3027
powder 3026
Ox@@ 3025
50th 3025
Jun@@ 3025
art@@ 3023
fort@@ 3023
escal@@ 3022
timeline 3021
verti@@ 3020
flown 3019
recy@@ 3019
ı@@ 3019
tility 3018
tionist 3017
blocking 3017
crashing 3016
tuition 3016
shuttle 3013
Din@@ 3013
dra@@ 3013
Х@@ 3013
watch@@ 3012
merchandise 3010
jump 3009
Child@@ 3009
rum@@ 3007
Ð@@ 3007
less@@ 3006
astro@@ 3004
Born 3003
retaliation 3003
reporters 3002
ured 3000
advant@@ 3000
weighing 3000
Prix 3000
Tha@@ 2999
Brid@@ 2999
fantastic 2999
babies 2998
hic 2998
cure 2997
Cin@@ 2997
Kad@@ 2996
eal@@ 2995
morality 2995
hub@@ 2994
mess@@ 2993
Jur@@ 2992
renew@@ 2991
impres@@ 2990
feared 2989
ble@@ 2988
harder 2987
flowing 2987
commands 2987
investigator 2987
Politics 2985
impacted 2985
bug 2983
Side 2983
EPA 2983
Bet@@ 2982
debated 2981
innocence 2981
secrecy 2981
edges 2981
photo@@ 2981
personalities 2980
strust 2979
possessing 2979
scre@@ 2979
Elec@@ 2978
orable 2978
Î@@ 2978
Stop 2977
archae@@ 2977
Miami 2976
passion 2976
aler@@ 2976
dispatched 2975
12,000 2974
legisl@@ 2973
LON@@ 2971
bag@@ 2971
Exper@@ 2969
lump 2967
Upper 2967
ghtened 2966
cart 2966
som 2964
Race 2963
Auto 2963
gal 2962
Nass@@ 2962
Samsung 2962
somewhere 2961
wholesale 2961
aters 2961
portions 2958
ounded 2958
Gil@@ 2958
neighbour 2958
yields 2957
Matthew 2957
Tower 2957
squad 2957
grat@@ 2957
candid@@ 2957
cut@@ 2956
habits 2956
complain 2955
Long@@ 2955
Around 2955
profitability 2955
Les 2955
bak@@ 2955
authorised 2955
thinks 2954
unfor@@ 2952
Lux@@ 2951
arez 2950
sco@@ 2949
ès 2947
rally 2946
qualifying 2946
dding 2945
laden 2944
Gas@@ 2943
comment@@ 2942
ggling 2942
travellers 2942
cens@@ 2941
virtu@@ 2941
yo@@ 2941
incl@@ 2940
understandable 2939
Atlanta 2939
ange 2939
suscep@@ 2938
enant 2937
foun@@ 2936
lun@@ 2936
장@@ 2936
whe@@ 2935
pit@@ 2934
swift 2934
PHO@@ 2931
Fear 2930
weights 2928
Pul@@ 2927
anxiety 2925
sickness 2925
Der@@ 2924
Way 2924
prov@@ 2923
Sai@@ 2923
Look 2922
expose 2922
respiratory 2922
icle 2921
Juli@@ 2919
achi@@ 2919
probe 2918
trusts 2917
lasts 2916
abe@@ 2916
Mohammad 2915
wic@@ 2914
agers 2914
Liv@@ 2914
dimini@@ 2913
liver 2912
paintings 2912
convincing 2911
unde@@ 2910
Navy 2909
레@@ 2909
spectacular 2908
compromised 2908
Sau@@ 2905
CIA 2905
conqu@@ 2905
Nevada 2905
www@@ 2903
Za@@ 2902
ustices 2902
featuring 2901
power@@ 2900
Jar@@ 2900
plug 2900
guaran@@ 2899
murdered 2899
pole 2898
cements 2898
insights 2898
physi@@ 2898
pneum@@ 2898
pairs 2898
× 2898
intelligent 2897
sei@@ 2897
enza 2896
Bau@@ 2896
Nobel 2895
unic@@ 2895
minded 2894
accidental 2894
nowadays 2893
insur@@ 2892
ghtful 2892
perf@@ 2891
overseeing 2890
Phoenix 2889
Plan@@ 2887
Pedro 2887
MK 2887
billions 2886
Run@@ 2886
analyzed 2885
hai 2884
coral 2884
sights 2883
Corps 2883
convince 2880
fence 2880
bacteria 2880
landsc@@ 2879
addiction 2879
bow@@ 2879
Cook 2879
psychology 2879
aved 2878
stamp 2878
ully 2876
anonymous 2875
Budd@@ 2875
incarcer@@ 2874
Smith 2873
collision 2871
potatoes 2871
Ч@@ 2871
暗@@ 2871
disinte@@ 2870
tag 2870
laun@@ 2870
glori@@ 2867
donation 2866
Mississippi 2864
siege 2864
ew 2862
pounds 2862
prayers 2861
dairy 2860
entially 2859
Corpor@@ 2857
Whatever 2855
compromising 2854
volcan@@ 2854
thood 2853
Kari@@ 2853
broadband 2852
onds 2852
chat 2852
minal 2851
mont 2851
hills 2849
bert 2847
spir@@ 2846
Sloven@@ 2846
Anyone 2845
snow@@ 2845
stain 2844
trademark 2842
U.@@ 2841
inher@@ 2840
breakthrough 2839
state@@ 2838
acquisitions 2837
embassy 2837
confron@@ 2837
Keep 2836
indicted 2835
lian 2834
wash 2834
manned 2833
Master@@ 2832
Mom@@ 2829
worlds 2829
wounds 2829
screens 2829
romantic 2828
boot 2828
activist 2827
ression 2827
Ecu@@ 2826
adventure 2826
stic@@ 2826
indi@@ 2826
berry 2825
ONE 2825
Ã 2825
smugg@@ 2824
literary 2823
roof@@ 2823
bench 2822
nick@@ 2822
orary 2821
yu@@ 2821
rented 2820
chers 2819
gia 2818
mixing 2818
Ei@@ 2818
lon 2818
planting 2817
demo@@ 2817
Ontario 2816
deriv@@ 2815
assed 2815
occasionally 2814
Dj@@ 2814
Azer@@ 2814
resur@@ 2811
ead 2811
edo 2811
launches 2808
pp 2808
prescription 2807
Č@@ 2806
Weather 2805
Oklahoma 2805
preci@@ 2804
intimate 2804
grounded 2803
transfer@@ 2802
Nigerian 2801
mination 2800
pou@@ 2800
clear@@ 2799
teries 2798
Esc@@ 2798
thresh@@ 2797
illed 2796
Florence 2796
ét@@ 2796
Territ@@ 2796
Kos@@ 2795
eval 2794
voir 2791
Abbas 2791
Rock 2791
Sony 2790
opponent 2789
care@@ 2788
Tin@@ 2787
stays 2784
contempt 2783
Tai@@ 2783
pes@@ 2782
sefire 2782
pione@@ 2780
gay 2780
retreat 2780
than@@ 2779
excav@@ 2779
Â 2779
neighbors 2776
cel 2776
executives 2776
Xi@@ 2775
agon@@ 2773
pari@@ 2772
Sad@@ 2772
diabetes 2772
pulse 2771
watches 2771
foli@@ 2771
verbal 2770
incin@@ 2770
Bap@@ 2769
Marina 2767
novel 2765
ignorance 2765
mes@@ 2765
traction 2764
neighboring 2764
Liberty 2763
sured 2762
chan@@ 2762
swit@@ 2761
catastrophe 2759
Henry 2758
struggling 2758
Kel@@ 2758
Ark@@ 2758
uted 2754
anta 2754
sanctioned 2753
anne 2753
worrying 2752
listened 2752
reluctance 2752
hurt 2751
das 2751
rounded 2751
philosoph@@ 2750
country@@ 2750
abundance 2748
mus 2748
Arm@@ 2747
ault 2745
titled 2745
teenage 2745
musicians 2744
disappear 2743
rently 2743
astronom@@ 2743
optimistic 2742
loyalty 2741
emis@@ 2741
azz@@ 2741
yr 2741
defences 2741
swing 2739
agging 2739
Seg@@ 2739
tip 2738
evacu@@ 2738
Editor 2738
wildlife 2736
Stalin 2734
citing 2734
defl@@ 2733
hop@@ 2733
Prote@@ 2731
rene 2731
flags 2730
crowded 2729
bombar@@ 2729
motorcycle 2729
dea@@ 2728
Pakistani 2728
disturbed 2728
ultra 2727
recep@@ 2727
ried 2727
instru@@ 2727
efully 2726
Jose 2725
igh@@ 2724
ump 2724
bra 2724
horses 2723
oes 2722
drum 2722
pea@@ 2722
Kansas 2722
Tunisian 2721
gue 2720
ean 2720
punishing 2717
sofa 2717
barrels 2716
deadly 2716
barrel 2716
malicious 2715
satur@@ 2715
cuits 2715
ò 2714
overhead 2713
hier@@ 2713
emia 2713
iller 2712
1960s 2711
erable 2711
bones 2711
Ran@@ 2710
Gur@@ 2708
Oli@@ 2708
ball@@ 2707
common@@ 2705
husbands 2705
recordings 2705
refre@@ 2705
tough 2703
drift 2703
Train 2703
mers 2702
costing 2700
consul@@ 2700
lip@@ 2699
Peninsula 2699
Michel 2699
Thi@@ 2699
orum 2695
ghting 2693
Son@@ 2693
Try 2693
nervous 2692
blat@@ 2691
founders 2687
automotive 2687
enthusiasm 2686
slowdown 2686
alleging 2686
pairing 2683
switching 2681
muscles 2678
icious 2677
Sac@@ 2677
Anton@@ 2675
usu@@ 2675
god 2674
swiftly 2674
bottle 2674
hockey 2674
vibrant 2673
rin@@ 2673
forged 2672
coat 2671
secular 2670
tening 2670
Gay 2670
Sex 2669
atism 2668
cau@@ 2668
thread 2668
boom 2665
ouses 2665
rera 2665
elds 2664
Oregon 2664
raped 2663
breastfeeding 2661
tribe 2661
frustration 2659
Equity 2657
Arch@@ 2657
iss 2656
atic@@ 2656
pedition 2656
murders 2653
follow@@ 2652
chant 2652
Taylor 2652
tick 2652
lovers 2651
thick 2651
Bru@@ 2646
Ш@@ 2646
Orange 2644
walked 2644
efs 2644
Good@@ 2642
nor@@ 2642
tist 2641
scoring 2641
sortium 2641
giant 2640
Vent@@ 2640
Hur@@ 2640
oom 2640
dominance 2639
tiny 2639
Nad@@ 2639
і@@ 2639
ph 2638
embark 2638
Neu@@ 2637
Well@@ 2636
quakes 2634
correspondent 2633
Simon 2632
Р 2632
overnight 2630
infiltr@@ 2630
slower 2629
inti@@ 2629
aj 2629
raw@@ 2629
symboli@@ 2628
onal@@ 2628
lessly 2627
spokesman 2627
abusive 2626
tap 2625
lover 2625
weaken 2624
lovely 2623
zo@@ 2623
Cho@@ 2621
Mercury 2621
tired 2620
cruci@@ 2620
Made 2620
э@@ 2620
literally 2619
Gun@@ 2618
sat@@ 2617
tub 2616
chol@@ 2615
suffers 2615
elli 2615
Ø 2615
bling 2614
Merc@@ 2614
depic@@ 2613
tened 2612
chen 2612
ß@@ 2612
Я@@ 2612
awa@@ 2611
coping 2611
gasoline 2611
diverted 2608
enge 2607
News@@ 2606
badly 2605
urity 2605
vicious 2604
È@@ 2603
Hans 2600
Solar 2600
donated 2600
Ex 2599
picturesque 2599
disgu@@ 2598
Tea 2595
inspec@@ 2595
ù@@ 2595
capitalism 2594
fet@@ 2594
hiding 2592
mill 2592
talents 2591
mountain@@ 2591
fare@@ 2591
nut 2590
pilgri@@ 2590
defended 2590
Pharm@@ 2590
master@@ 2589
Already 2589
cogni@@ 2588
seam@@ 2588
assassin@@ 2587
inch 2587
spirit@@ 2586
delivers 2585
dish@@ 2584
Mail@@ 2584
yen 2582
ggers 2582
Tas@@ 2581
dominate 2580
ox 2580
tiveness 2580
onist 2579
clouds 2579
keted 2579
KK 2579
indefinitely 2578
Brown 2578
leaf 2577
versities 2577
bra@@ 2576
slogan 2576
way@@ 2576
aster@@ 2576
refund 2576
Ful@@ 2575
NASA 2575
tablets 2573
scrap 2573
dun@@ 2571
tackled 2570
promo@@ 2570
Chu@@ 2570
Albert 2569
youths 2569
Boston 2569
lip 2569
Denver 2569
pit 2568
&apos;S 2568
anging 2567
Batt@@ 2567
envi@@ 2566
resilient 2565
Equally 2564
scal@@ 2564
Remember 2564
versal 2563
aro 2562
Nas@@ 2562
Kl@@ 2562
Stu@@ 2562
attacking 2561
Kou@@ 2560
centi@@ 2559
з 2558
oming 2557
asted 2556
backing 2556
pering 2556
housed 2556
jud@@ 2555
Revenue 2555
enduring 2554
incumb@@ 2554
sives 2554
Cad@@ 2554
Manuel 2552
루@@ 2552
eman 2550
zen 2549
pocket 2549
arri@@ 2548
burnt 2548
survived 2547
triple 2546
gli@@ 2546
manipulation 2544
Student 2544
cruise 2543
restor@@ 2543
Holiday 2543
rupt 2542
Chancellor 2542
suming 2542
somehow 2541
Sher@@ 2540
Yem@@ 2539
communist 2538
refuses 2538
isure 2538
Э@@ 2538
б 2538
imagination 2537
nings 2537
Ped@@ 2536
fronts 2535
mud 2535
exile 2535
creatures 2535
eur 2535
Caf@@ 2534
weaker 2533
Whenever 2533
Nine 2532
impressed 2532
Ice 2531
refu@@ 2530
flow@@ 2530
Hus@@ 2530
spirits 2526
Mid 2526
suits 2525
painted 2525
Rak@@ 2525
Um@@ 2524
nan 2523
diplomat 2522
pause 2522
awaited 2522
magne@@ 2522
siz@@ 2521
Colum@@ 2521
shield 2519
tear 2519
크 2519
heed 2518
confused 2516
tolerated 2516
irrelevant 2516
residency 2516
await 2515
lid 2514
jar 2514
ellers 2514
rie 2513
Had 2513
ann 2513
Racing 2513
recovering 2510
orange 2510
Must@@ 2510
picked 2509
Dau@@ 2509
throne 2509
Esp@@ 2509
dealers 2508
pid 2508
purcha@@ 2508
releasing 2506
Europeans 2503
eager 2503
memories 2503
egg 2503
refr@@ 2503
150,000 2503
神 2502
anticipation 2501
Yesterday 2500
suit@@ 2500
fisher@@ 2498
Wo@@ 2497
creature 2497
searched 2497
anium 2497
Channel 2496
Ot@@ 2495
Sl@@ 2495
inery 2495
substitu@@ 2493
unwilling 2493
ston 2493
laundry 2493
Proper@@ 2492
underes@@ 2491
recruits 2491
Frankfurt 2491
Coc@@ 2490
pushing 2489
conveni@@ 2489
Francis 2488
õ@@ 2488
sville 2488
expl@@ 2487
ud 2487
molec@@ 2487
employs 2486
Obviously 2486
truste@@ 2486
conspiracy 2485
Nearly 2485
Omar 2485
level@@ 2484
throwing 2484
rewards 2483
Camer@@ 2483
agi@@ 2482
renched 2481
appealing 2481
tense 2481
dt 2481
corners 2480
ldwide 2480
Connec@@ 2479
Finding 2479
Miguel 2479
Free@@ 2479
ř@@ 2479
classroom 2478
Environ@@ 2478
bic@@ 2477
Gir@@ 2476
Zen@@ 2476
unidentified 2476
sory 2476
editors 2475
gym 2475
escaped 2474
Ž@@ 2474
deepest 2473
meg@@ 2473
loose 2473
이 2473
recipes 2472
pet 2472
Highway 2472
veter@@ 2471
þ@@ 2471
Buddhi@@ 2470
pout 2470
--- 2470
Nice 2469
countless 2465
urely 2465
budsman 2465
careers 2463
inspire 2462
bacter@@ 2462
inau@@ 2462
Ton@@ 2462
forc@@ 2461
Artist 2461
theories 2460
manag@@ 2460
ère 2460
→ 2460
Certainly 2459
depart 2459
Mang@@ 2459
cord 2458
Hot 2458
ym 2457
Mario 2457
Port@@ 2457
tm@@ 2456
sac@@ 2455
embl@@ 2455
gie 2454
respectful 2454
Fro@@ 2454
opera 2453
Sli@@ 2453
Colom@@ 2452
premise 2452
lon@@ 2450
fibre 2450
zhou 2449
has@@ 2449
scholarship 2447
digit 2447
endar 2447
defensive 2446
mosque 2446
hits 2444
resorts 2444
spective 2443
arrivals 2443
misleading 2442
mp 2442
True 2442
pop 2441
addic@@ 2441
brakes 2441
Stri@@ 2440
essly 2440
Sn@@ 2440
Marie 2439
fs 2439
celebrating 2438
revive 2437
fla@@ 2437
individu@@ 2437
gene 2437
loves 2436
Bin@@ 2434
wom@@ 2433
catastrophic 2432
anticipate 2432
broker 2430
biology 2430
250,000 2430
bach 2430
Alber@@ 2429
Mini 2428
š 2428
Hav@@ 2426
spacecraft 2426
mask 2426
Laz@@ 2426
Arena 2426
chaos 2425
akia 2425
constituency 2425
Nan@@ 2425
Stan@@ 2425
rent@@ 2425
uc@@ 2424
Driver 2424
contests 2423
oughts 2423
stit@@ 2423
Kitchen 2423
stairs 2423
rocks 2422
fts 2422
charming 2422
store@@ 2422
frequ@@ 2422
Challenge 2421
conce@@ 2420
unpredictable 2420
troubled 2419
barely 2417
Zin@@ 2417
racially 2414
interven@@ 2414
martial 2413
agno@@ 2412
teenagers 2412
chest 2412
Khal@@ 2412
Zurich 2412
Prosec@@ 2411
Hi 2411
erance 2410
uro 2410
iscal 2408
Formul@@ 2408
abs 2408
sses 2408
onists 2407
Dum@@ 2407
ballet 2407
hen 2406
blast 2406
guy 2405
treas@@ 2404
royal 2403
overlooked 2402
protein 2402
erup@@ 2401
gio 2401
rome 2401
onies 2400
gru@@ 2400
questionable 2400
allow@@ 2400
Off 2399
Nicholas 2398
stems 2397
enne 2397
Connecticut 2396
olo 2396
controversy 2395
Icel@@ 2395
oping 2394
Ground 2394
emate 2394
Salv@@ 2394
scientist 2393
beating 2393
Sydney 2393
testified 2393
opping 2392
Hori@@ 2391
nail 2390
rises 2389
tooth 2389
lord 2389
cabin 2389
acquitted 2388
Vide@@ 2388
衛@@ 2388
eli 2387
Cable 2387
minus 2386
Rah@@ 2386
casino 2386
burst 2385
invisible 2385
contem@@ 2384
beloved 2384
vou@@ 2384
mantle 2383
stained 2383
鐵@@ 2383
equities 2382
hid 2382
shel@@ 2382
hep@@ 2382
economists 2381
adays 2381
rint 2380
sep@@ 2380
Heart 2380
provocative 2380
intact 2379
Strong 2379
litre 2378
Camp@@ 2378
dder 2375
Missing 2375
Wolf@@ 2375
rol 2375
hungry 2374
Imperial 2373
Andrew 2372
Kurdish 2371
unaware 2369
Kov@@ 2369
trau@@ 2368
vitamin 2368
hr@@ 2368
slowed 2367
cade 2367
trag@@ 2367
yro@@ 2367
Maybe 2366
Easter 2366
dressed 2365
herd 2365
side@@ 2365
TIM@@ 2365
wat@@ 2364
wins 2364
breached 2363
ğ@@ 2362
leak 2362
stretch 2362
Half 2362
daylight 2360
scenes 2359
Wilson 2358
lock@@ 2358
Store 2358
dividend 2357
forth@@ 2357
pped 2356
abi 2356
thm 2355
overlooking 2354
occasional 2352
Psy@@ 2352
cheese 2352
share@@ 2352
athlete 2350
sant 2349
cry 2349
Chilean 2349
After@@ 2349
Bin 2349
aut@@ 2349
invention 2348
unsuccessful 2347
的@@ 2347
ambassador 2346
Venezuelan 2346
Fed@@ 2346
villagers 2345
Archbishop 2345
doz@@ 2344
adh 2344
opport@@ 2344
Saun@@ 2344
Johnson 2343
fran@@ 2341
itz 2340
erred 2339
hoping 2338
rat@@ 2338
Hosp@@ 2338
amaz@@ 2338
Said 2338
sburg 2338
Tests 2337
favourite 2337
dedic@@ 2335
alle@@ 2335
진 2335
sourced 2334
threw 2334
yacht 2334
wellbeing 2333
Dru@@ 2333
jail 2332
Generation 2332
utory 2332
yed 2331
breath 2331
hostages 2331
Markets 2331
tune 2331
Drive 2331
traces 2330
sacrif@@ 2330
vain 2329
asters 2328
blood@@ 2328
shapes 2328
cal 2327
pilots 2327
400,000 2326
olive 2326
istically 2325
governors 2325
rig@@ 2325
Chap@@ 2325
chy 2324
rejecting 2323
nas@@ 2323
hall@@ 2322
reign 2321
rism 2321
abs@@ 2321
legislators 2320
Lieutenant 2320
inous 2319
ē@@ 2319
Left 2318
agement 2318
Li 2318
bankruptcy 2317
Gall@@ 2317
ple@@ 2316
1953 2316
ignoring 2315
inauguration 2314
alo 2314
expan@@ 2313
icket 2313
fatal 2311
ador 2311
camp@@ 2309
crown 2309
Ras@@ 2308
esel@@ 2308
declines 2307
disrupt 2307
spin 2307
gle@@ 2307
concentrating 2307
laptop 2307
cleaned 2307
Ù 2307
deni@@ 2306
aper 2305
sear@@ 2305
bloc 2304
marker 2304
rings 2304
tele@@ 2304
vin 2304
cz@@ 2304
ograp@@ 2304
regain 2303
bush 2302
alien@@ 2301
night@@ 2301
Teachers 2301
Wild 2300
ambition 2298
listic 2297
Stage 2297
pioneer 2296
lander 2296
albums 2295
Record 2294
kn@@ 2294
Aw@@ 2293
utting 2292
eton 2292
aks 2292
archit@@ 2291
crete 2290
Jen@@ 2289
ceremonies 2288
YouTube 2288
poster 2288
provoked 2287
¹ 2287
torn 2286
seasons 2286
bear@@ 2286
elevated 2286
Paradise 2285
mom@@ 2285
rolls 2285
gest 2285
gangs 2285
Strat@@ 2284
ref 2284
코@@ 2284
agged 2283
anks 2282
dealer 2281
narrow@@ 2280
concei@@ 2280
parall@@ 2280
breathing 2280
protesters 2279
yers 2279
ticals 2278
80,000 2278
О 2278
anche 2277
architect 2277
ambitions 2276
thered 2276
overs 2275
ults 2275
Prosecutors 2274
slide 2273
singer 2271
att 2269
cus 2269
Nokia 2269
gir@@ 2266
beside 2265
enty@@ 2265
implem@@ 2264
ghter 2263
walks 2262
newborn 2262
wings 2262
lowered 2262
saf@@ 2261
bot 2260
aine 2259
Silva 2259
enn@@ 2258
endless 2257
emble 2257
eurozone 2256
persuade 2256
astically 2255
admi@@ 2254
Zo@@ 2254
zen@@ 2254
Dakota 2254
fas@@ 2252
ensible 2252
stant 2252
terrain 2251
Farm@@ 2250
cover@@ 2250
Chal@@ 2250
sculp@@ 2249
ADA 2249
moun@@ 2248
stretched 2248
Fran@@ 2248
offerings 2247
Lou@@ 2247
Ott@@ 2246
tique 2245
hij@@ 2244
racing 2244
Happy 2244
ÐµÐ 2244
newest 2243
ows 2243
ared 2242
grin@@ 2241
nie 2241
modern@@ 2240
chil@@ 2240
incapable 2240
lum@@ 2240
eed 2240
Ì@@ 2240
Never 2239
pedia 2239
Wat@@ 2238
bans 2237
iner 2237
viruses 2236
Outside 2236
diagnosed 2234
ague 2234
traveling 2233
tful 2233
Cav@@ 2233
ci 2233
brokers 2232
Weekly 2232
Were 2232
manufac@@ 2232
zar@@ 2232
fills 2231
assaults 2231
Bang@@ 2230
weigh 2230
bec@@ 2230
Wiki@@ 2230
lessness 2229
sity 2229
Mill@@ 2228
pensioners 2228
coast@@ 2228
uniforms 2228
Diego 2228
flagship 2227
clan 2227
metro@@ 2226
α@@ 2226
Afgh@@ 2225
Put 2225
stadium 2225
¶ 2224
pet@@ 2223
experim@@ 2222
anticip@@ 2222
FL 2222
loyal 2221
atric 2221
flour 2219
Ax@@ 2219
Cruz 2219
pinned 2218
motive 2218
ð 2218
downturn 2217
Pes@@ 2217
fur 2217
horizon 2216
sq 2216
contentious 2215
MPs 2215
storms 2214
sailing 2214
ussia 2213
lac@@ 2213
inflic@@ 2213
oda 2213
photograph 2213
Heights 2212
Girl 2212
cried 2212
gul@@ 2211
contention 2211
exploiting 2210
spi@@ 2210
onso 2209
tters 2208
worried 2206
nursery 2206
boosting 2205
exec@@ 2205
Rod@@ 2205
주@@ 2205
shame 2204
Guil@@ 2204
disclo@@ 2204
risdic@@ 2204
fasc@@ 2203
jer@@ 2203
Rav@@ 2203
Las@@ 2203
kit@@ 2202
console 2202
Hope 2201
Bour@@ 2201
elding 2200
thms 2200
령 2200
prints 2198
consume 2198
Tell 2198
therhood 2197
portation 2197
ogi@@ 2196
watched 2196
acon 2196
Patrick 2196
coins 2196
hal 2195
Zu@@ 2195
habitat 2194
Figures 2194
adan 2194
sound@@ 2194
bonuses 2193
gnant 2193
Euros 2193
fil 2193
habit 2192
cautious 2191
phrases 2191
Usually 2191
retro 2191
Grant 2191
brown 2190
resh 2188
ird 2188
ý@@ 2188
seated 2186
Sergio 2186
flexi@@ 2185
wilderness 2184
dropping 2184
Я 2184
bluep@@ 2183
ador@@ 2183
perfection 2182
singing 2182
Serv@@ 2182
Centers 2181
incredible 2180
Raj@@ 2180
conversations 2180
arguing 2179
answering 2179
fatigue 2179
keeper 2178
Glo@@ 2178
esteem 2177
You@@ 2177
Flu@@ 2177
eter@@ 2177
BO 2174
Fried@@ 2174
tty 2174
echo 2173
oll@@ 2173
bere@@ 2173
rebellion 2173
bottles 2173
Stars 2173
farmer 2172
Cul@@ 2172
versati@@ 2172
Figh@@ 2171
landed 2171
escalating 2170
Samuel 2170
kills 2170
critici@@ 2169
nose 2169
spor@@ 2169
sually 2168
hit@@ 2168
º 2167
burial 2166
stunning 2166
pec@@ 2166
inspector 2166
roll@@ 2165
Philip 2165
Asi@@ 2164
elu@@ 2164
wich 2164
defeated 2163
basketball 2163
ply 2163
bolster 2163
Delta 2163
irrit@@ 2163
hoo@@ 2163
coaches 2162
fusion 2162
Categ@@ 2161
Parents 2160
eck@@ 2160
fru@@ 2159
mamm@@ 2158
sliding 2158
ogue 2157
affor@@ 2157
remin@@ 2157
hia 2157
trap 2156
theat@@ 2156
situ@@ 2155
pulled 2153
wealthy 2153
beli@@ 2153
whol@@ 2152
warn 2152
Survi@@ 2151
fleeing 2151
hang 2150
Ma 2149
drain 2148
Forward 2147
Mark@@ 2147
Patter@@ 2147
Sing@@ 2146
regulator 2145
islat@@ 2145
denounced 2144
Kid@@ 2144
yk 2143
shers 2143
fab@@ 2143
Ðµ@@ 2143
利@@ 2143
Ä@@ 2142
Previously 2141
enue 2141
despair 2140
champions 2140
liar 2140
Comman@@ 2140
Barack 2139
1940 2139
atment 2139
Arthur 2139
irates 2138
hrs 2138
surrendered 2137
lantic 2134
eps 2134
lean 2134
surviving 2134
dawn 2133
Wol@@ 2133
Georgi@@ 2133
blu@@ 2133
witn@@ 2132
lively 2132
Beauty 2132
tolerate 2131
VIDEO 2131
eleg@@ 2131
bombings 2130
afford@@ 2130
mile 2130
With@@ 2129
acco 2129
chocolate 2128
sabot@@ 2126
J.@@ 2125
cryst@@ 2123
hau@@ 2123
spared 2122
LG@@ 2121
암@@ 2121
roc@@ 2120
mons 2120
basement 2120
drastic 2119
nationalist 2118
poll 2118
attr@@ 2118
terr@@ 2117
market@@ 2117
victories 2117
inges 2116
sque 2116
vs 2116
odd 2115
К 2115
intellec@@ 2114
overies 2114
Aaron 2114
staged 2113
GC@@ 2112
Hid@@ 2110
bitter 2110
Mans@@ 2110
chess 2109
eived 2108
Lion 2108
recipe 2107
tents 2107
Mr@@ 2107
smile 2106
ester@@ 2106
homicide 2106
Miss 2106
embraced 2105
presid@@ 2104
diets 2104
doubling 2104
idi@@ 2103
ady 2102
Vatican 2102
hell 2101
upro@@ 2101
Mars 2101
persu@@ 2100
heroes 2100
Flor@@ 2100
extremists 2099
longest 2098
atom@@ 2098
body@@ 2098
ý 2098
anco 2097
Run 2097
smail 2097
Deut@@ 2096
freed 2096
tire 2096
carri@@ 2096
after@@ 2095
organise 2095
agh 2094
arded 2094
Passen@@ 2093
Wood 2092
tha 2092
ė@@ 2092
Kil@@ 2091
medieval 2089
auc@@ 2089
grey 2089
Manchester 2089
Bos@@ 2089
Leading 2087
worn 2087
raids 2086
slopes 2085
Initially 2085
Ь 2085
西@@ 2085
者 2085
Range 2084
radio@@ 2084
mel 2084
Say 2083
icul@@ 2083
guil@@ 2081
Sent@@ 2081
thal 2081
Nina 2081
anymore 2080
resting 2080
Wang 2079
wis@@ 2078
inos 2078
Jorge 2078
phil@@ 2077
Jacques 2077
crystal 2077
bets 2077
Mini@@ 2077
seemingly 2076
Toronto 2076
disastrous 2074
unrelated 2074
ood 2074
Scottish 2072
public@@ 2071
Tul@@ 2071
tales 2070
Disease 2070
vs. 2070
Ath@@ 2070
lifelong 2069
premiums 2069
coloured 2069
aced 2067
austerity 2067
ancest@@ 2067
stepping 2067
oz 2067
risky 2066
angu@@ 2066
Tay@@ 2065
api@@ 2064
Laden 2063
lob@@ 2063
Lad@@ 2063
studios 2063
.m. 2063
span@@ 2061
bury 2061
Braz@@ 2061
Chin@@ 2060
motherhood 2060
vouchers 2060
Silver 2060
.co.uk 2060
supporter 2059
eh@@ 2059
agan 2057
extinc@@ 2057
affiliate 2056
Pad@@ 2056
Nep@@ 2055
Santos 2054
sles 2054
undeni@@ 2054
gel 2054
Soon 2053
tril@@ 2053
mirrors 2052
pc 2052
relaxed 2051
critic@@ 2051
presti@@ 2050
stro 2049
inclined 2048
grasp 2047
Syl@@ 2047
Scand@@ 2047
slu@@ 2047
chips 2047
consum@@ 2046
pow@@ 2046
pupil 2046
outskirts 2045
zon 2042
Kay@@ 2042
ativity 2041
graves 2041
lips 2041
imagery 2040
storey 2040
ées 2040
improv@@ 2039
milli@@ 2038
ferry 2038
Fernando 2038
aller@@ 2038
lou@@ 2037
Cub@@ 2037
ier 2037
doll 2037
Waters 2036
mild 2035
anka 2035
vand@@ 2034
pharmaceu@@ 2033
hn 2032
straightforward 2031
tit@@ 2030
수@@ 2030
empire 2029
joins 2029
FIFA 2029
second@@ 2029
tablet 2028
helm 2026
sitions 2026
Y. 2025
stil@@ 2025
NOT 2025
will@@ 2024
sacrific@@ 2023
fut@@ 2023
tg@@ 2023
hero 2022
compassion 2022
mist 2022
å 2022
Theater 2022
irresponsible 2021
marble 2021
balls 2021
trail 2020
metropolitan 2019
apps 2019
wed@@ 2019
vag@@ 2018
remotely 2017
otive 2017
dded 2015
oga 2014
mystery 2013
mainland 2012
Guang@@ 2012
deton@@ 2011
peers 2011
mentality 2011
hospit@@ 2011
consci@@ 2010
Georg@@ 2010
Assad 2008
spear@@ 2008
Fall 2008
Victi@@ 2008
gau@@ 2008
senti@@ 2007
delighted 2007
immer@@ 2006
honey 2006
î 2006
turmoil 2005
Rid@@ 2005
vul@@ 2004
Jackson 2004
gad@@ 2003
hed@@ 2003
progressed 2003
resul@@ 2003
roman@@ 2002
Dr 2002
schem@@ 2002
inaccurate 2001
attorneys 2001
spot@@ 2001
eck 2001
cea@@ 2001
Alco@@ 2001
Dec. 2001
mega 2000
forgive 2000
ilee 2000
lifts 1999
lain 1998
toilets 1998
icide 1998
tears 1997
formers 1997
battles 1996
gins 1996
bloody 1995
alcoholic 1995
sil 1994
Light@@ 1994
anes 1993
dans 1993
revealing 1992
aby@@ 1992
contam@@ 1989
displaying 1988
Marc 1988
Hut@@ 1987
motorway 1987
rimin@@ 1987
disrupted 1986
submarine 1986
Rob@@ 1984
loses 1982
eping 1982
energetic 1981
blin@@ 1980
loud 1980
ius 1979
overly 1979
gger 1978
abling 1977
doses 1977
polls 1976
Fast 1976
funny 1976
propelled 1975
ongs 1975
courtroom 1975
stomach 1974
Aviv 1974
Gon@@ 1974
narr@@ 1973
denies 1973
Frank 1973
hosp@@ 1972
Books 1972
Palm 1972
Fem@@ 1971
Democr@@ 1971
Pom@@ 1971
speculation 1970
paper@@ 1970
Suff@@ 1969
dirty 1968
Tripoli 1968
casual 1968
UAE 1968
Torres 1968
[...]
